unsigned char g_swing_sense_model_data[] = {
  0x20, 0x00, 0x00, 0x00, 0x54, 0x46, 0x4c, 0x33, 0x00, 0x00, 0x00, 0x00,
  0x14, 0x00, 0x20, 0x00, 0x1c, 0x00, 0x18, 0x00, 0x14, 0x00, 0x10, 0x00,
  0x0c, 0x00, 0x00, 0x00, 0x08, 0x00, 0x04, 0x00, 0x14, 0x00, 0x00, 0x00,
  0x1c, 0x00, 0x00, 0x00, 0x8c, 0x00, 0x00, 0x00, 0x0c, 0x01, 0x00, 0x00,
  0x7c, 0x20, 0x00, 0x00, 0x8c, 0x20, 0x00, 0x00, 0x14, 0x53, 0x00, 0x00,
  0x03, 0x00, 0x00, 0x00, 0x01, 0x00, 0x00, 0x00, 0x04, 0x00, 0x00, 0x00,
  0xf6, 0xda, 0xff, 0xff, 0x0c, 0x00, 0x00, 0x00, 0x1c, 0x00, 0x00, 0x00,
  0x3c, 0x00, 0x00, 0x00, 0x0f, 0x00, 0x00, 0x00, 0x73, 0x65, 0x72, 0x76,
  0x69, 0x6e, 0x67, 0x5f, 0x64, 0x65, 0x66, 0x61, 0x75, 0x6c, 0x74, 0x00,
  0x01, 0x00, 0x00, 0x00, 0x04, 0x00, 0x00, 0x00, 0x68, 0xff, 0xff, 0xff,
  0x2f, 0x00, 0x00, 0x00, 0x04, 0x00, 0x00, 0x00, 0x08, 0x00, 0x00, 0x00,
  0x6f, 0x75, 0x74, 0x70, 0x75, 0x74, 0x5f, 0x30, 0x00, 0x00, 0x00, 0x00,
  0x01, 0x00, 0x00, 0x00, 0x04, 0x00, 0x00, 0x00, 0x1a, 0xdf, 0xff, 0xff,
  0x04, 0x00, 0x00, 0x00, 0x0f, 0x00, 0x00, 0x00, 0x6b, 0x65, 0x72, 0x61,
  0x73, 0x5f, 0x74, 0x65, 0x6e, 0x73, 0x6f, 0x72, 0x5f, 0x32, 0x34, 0x00,
  0x03, 0x00, 0x00, 0x00, 0x5c, 0x00, 0x00, 0x00, 0x2c, 0x00, 0x00, 0x00,
  0x04, 0x00, 0x00, 0x00, 0xb8, 0xff, 0xff, 0xff, 0x33, 0x00, 0x00, 0x00,
  0x04, 0x00, 0x00, 0x00, 0x13, 0x00, 0x00, 0x00, 0x43, 0x4f, 0x4e, 0x56,
  0x45, 0x52, 0x53, 0x49, 0x4f, 0x4e, 0x5f, 0x4d, 0x45, 0x54, 0x41, 0x44,
  0x41, 0x54, 0x41, 0x00, 0xdc, 0xff, 0xff, 0xff, 0x32, 0x00, 0x00, 0x00,
  0x04, 0x00, 0x00, 0x00, 0x13, 0x00, 0x00, 0x00, 0x6d, 0x69, 0x6e, 0x5f,
  0x72, 0x75, 0x6e, 0x74, 0x69, 0x6d, 0x65, 0x5f, 0x76, 0x65, 0x72, 0x73,
  0x69, 0x6f, 0x6e, 0x00, 0x08, 0x00, 0x0c, 0x00, 0x08, 0x00, 0x04, 0x00,
  0x08, 0x00, 0x00, 0x00, 0x31, 0x00, 0x00, 0x00, 0x04, 0x00, 0x00, 0x00,
  0x13, 0x00, 0x00, 0x00, 0x6d, 0x69, 0x6e, 0x5f, 0x72, 0x75, 0x6e, 0x74,
  0x69, 0x6d, 0x65, 0x5f, 0x76, 0x65, 0x72, 0x73, 0x69, 0x6f, 0x6e, 0x00,
  0x34, 0x00, 0x00, 0x00, 0x6c, 0x1f, 0x00, 0x00, 0x64, 0x1f, 0x00, 0x00,
  0x50, 0x1f, 0x00, 0x00, 0x34, 0x1f, 0x00, 0x00, 0x20, 0x1f, 0x00, 0x00,
  0x04, 0x1f, 0x00, 0x00, 0xe8, 0x1e, 0x00, 0x00, 0xcc, 0x1e, 0x00, 0x00,
  0xac, 0x1e, 0x00, 0x00, 0x5c, 0x1e, 0x00, 0x00, 0x0c, 0x1e, 0x00, 0x00,
  0xfc, 0x1b, 0x00, 0x00, 0xcc, 0x1b, 0x00, 0x00, 0x9c, 0x1b, 0x00, 0x00,
  0x0c, 0x1b, 0x00, 0x00, 0xfc, 0x0e, 0x00, 0x00, 0xcc, 0x0e, 0x00, 0x00,
  0x9c, 0x0e, 0x00, 0x00, 0x0c, 0x0e, 0x00, 0x00, 0xfc, 0x03, 0x00, 0x00,
  0xdc, 0x03, 0x00, 0x00, 0xbc, 0x03, 0x00, 0x00, 0x6c, 0x03, 0x00, 0x00,
  0x7c, 0x01, 0x00, 0x00, 0x74, 0x01, 0x00, 0x00, 0x6c, 0x01, 0x00, 0x00,
  0x64, 0x01, 0x00, 0x00, 0x5c, 0x01, 0x00, 0x00, 0x54, 0x01, 0x00, 0x00,
  0x4c, 0x01, 0x00, 0x00, 0x44, 0x01, 0x00, 0x00, 0x3c, 0x01, 0x00, 0x00,
  0x34, 0x01, 0x00, 0x00, 0x2c, 0x01, 0x00, 0x00, 0x24, 0x01, 0x00, 0x00,
  0x1c, 0x01, 0x00, 0x00, 0x14, 0x01, 0x00, 0x00, 0x0c, 0x01, 0x00, 0x00,
  0x04, 0x01, 0x00, 0x00, 0xfc, 0x00, 0x00, 0x00, 0xf4, 0x00, 0x00, 0x00,
  0xec, 0x00, 0x00, 0x00, 0xe4, 0x00, 0x00, 0x00, 0xdc, 0x00, 0x00, 0x00,
  0xd4, 0x00, 0x00, 0x00, 0xcc, 0x00, 0x00, 0x00, 0xc4, 0x00, 0x00, 0x00,
  0xbc, 0x00, 0x00, 0x00, 0xb4, 0x00, 0x00, 0x00, 0x94, 0x00, 0x00, 0x00,
  0x74, 0x00, 0x00, 0x00, 0x04, 0x00, 0x00, 0x00, 0x8e, 0xe0, 0xff, 0xff,
  0x04, 0x00, 0x00, 0x00, 0x60, 0x00, 0x00, 0x00, 0x0c, 0x00, 0x00, 0x00,
  0x08, 0x00, 0x0e, 0x00, 0x08, 0x00, 0x04, 0x00, 0x08, 0x00, 0x00, 0x00,
  0x10, 0x00, 0x00, 0x00, 0x28, 0x00, 0x00, 0x00, 0x00, 0x00, 0x06, 0x00,
  0x08, 0x00, 0x04, 0x00, 0x06, 0x00, 0x00, 0x00, 0x04, 0x00, 0x00, 0x00,
  0x01, 0x00, 0x00, 0x00, 0xeb, 0x03, 0x00, 0x00, 0x0c, 0x00, 0x18, 0x00,
  0x14, 0x00, 0x10, 0x00, 0x0c, 0x00, 0x04, 0x00, 0x0c, 0x00, 0x00, 0x00,
  0x86, 0x59, 0x4e, 0x68, 0xa4, 0x7c, 0x60, 0x9b, 0x01, 0x00, 0x00, 0x00,
  0x02, 0x00, 0x00, 0x00, 0x04, 0x00, 0x00, 0x00, 0x06, 0x00, 0x00, 0x00,
  0x32, 0x2e, 0x31, 0x39, 0x2e, 0x30, 0x00, 0x00, 0xfa, 0xe0, 0xff, 0xff,
  0x04, 0x00, 0x00, 0x00, 0x10, 0x00, 0x00, 0x00, 0x00, 0x00, 0x00, 0x00,
  0x00, 0x00, 0x00, 0x00, 0x00, 0x00, 0x00, 0x00, 0x00, 0x00, 0x00, 0x00,
  0x16, 0xe1, 0xff, 0xff, 0x04, 0x00, 0x00, 0x00, 0x10, 0x00, 0x00, 0x00,
  0x31, 0x2e, 0x31, 0x34, 0x2e, 0x30, 0x00, 0x00, 0x00, 0x00, 0x00, 0x00,
  0x00, 0x00, 0x00, 0x00, 0x34, 0xb0, 0xff, 0xff, 0x38, 0xb0, 0xff, 0xff,
  0x3c, 0xb0, 0xff, 0xff, 0x40, 0xb0, 0xff, 0xff, 0x44, 0xb0, 0xff, 0xff,
  0x48, 0xb0, 0xff, 0xff, 0x4c, 0xb0, 0xff, 0xff, 0x50, 0xb0, 0xff, 0xff,
  0x54, 0xb0, 0xff, 0xff, 0x58, 0xb0, 0xff, 0xff, 0x5c, 0xb0, 0xff, 0xff,
  0x60, 0xb0, 0xff, 0xff, 0x64, 0xb0, 0xff, 0xff, 0x68, 0xb0, 0xff, 0xff,
  0x6c, 0xb0, 0xff, 0xff, 0x70, 0xb0, 0xff, 0xff, 0x74, 0xb0, 0xff, 0xff,
  0x78, 0xb0, 0xff, 0xff, 0x7c, 0xb0, 0xff, 0xff, 0x80, 0xb0, 0xff, 0xff,
  0x84, 0xb0, 0xff, 0xff, 0x88, 0xb0, 0xff, 0xff, 0x8c, 0xb0, 0xff, 0xff,
  0x90, 0xb0, 0xff, 0xff, 0x94, 0xb0, 0xff, 0xff, 0x96, 0xe1, 0xff, 0xff,
  0x04, 0x00, 0x00, 0x00, 0xe0, 0x01, 0x00, 0x00, 0x49, 0xdc, 0xaa, 0xd1,
  0x35, 0xd3, 0x57, 0x3d, 0xfa, 0xec, 0x5d, 0x38, 0xcc, 0x3e, 0x81, 0xd9,
  0xa6, 0x30, 0xd3, 0x0b, 0x29, 0xbc, 0x10, 0xe9, 0xd8, 0x6e, 0x41, 0xb4,
  0x47, 0x8c, 0x4f, 0x57, 0x16, 0x19, 0xb4, 0xc6, 0xb3, 0xd8, 0xca, 0x6d,
  0x50, 0x72, 0x79, 0x0a, 0x16, 0x3d, 0xee, 0x0d, 0xd5, 0x4d, 0x95, 0x5e,
  0x02, 0x07, 0xd6, 0x10, 0xc7, 0x2d, 0x95, 0x81, 0xde, 0x6c, 0xbf, 0x19,
  0x4e, 0xe3, 0x4f, 0x73, 0x3f, 0x06, 0xc6, 0xb1, 0xbc, 0xea, 0xfc, 0xf4,
  0x8a, 0xd7, 0x23, 0xd7, 0x81, 0x60, 0xb6, 0xa4, 0xbf, 0x9f, 0xac, 0x36,
  0xb7, 0x74, 0xfb, 0x91, 0xeb, 0xf0, 0x52, 0x0b, 0x5c, 0x10, 0xd4, 0xd5,
  0xef, 0xd8, 0xb8, 0x2e, 0xb3, 0x05, 0x10, 0xb3, 0xa9, 0xe2, 0x05, 0xd1,
  0xdc, 0xa7, 0x49, 0x71, 0xa6, 0x81, 0x98, 0xb4, 0x68, 0xcf, 0x5e, 0xc8,
  0xe6, 0xf3, 0x9c, 0x81, 0xb3, 0xf2, 0xe9, 0x15, 0x42, 0x41, 0xa0, 0x4f,
  0x22, 0xad, 0x1e, 0x57, 0x0f, 0xdb, 0xd6, 0x02, 0xef, 0xfb, 0xb9, 0x95,
  0xba, 0x10, 0x12, 0x2a, 0xc1, 0x4a, 0x7f, 0x22, 0x97, 0x1e, 0x57, 0xfc,
  0x6d, 0xc3, 0xe2, 0xed, 0xeb, 0x61, 0x59, 0x4a, 0x16, 0xf8, 0x53, 0xad,
  0xb6, 0xd5, 0x18, 0x27, 0xdd, 0xac, 0xf9, 0x31, 0xfd, 0xc8, 0xd1, 0x57,
  0xd0, 0xf5, 0xb4, 0x38, 0xf9, 0xab, 0xb1, 0x41, 0x29, 0xb0, 0x45, 0x63,
  0x9d, 0xc0, 0xff, 0xf1, 0xfc, 0xb2, 0xb1, 0x81, 0xe2, 0xc8, 0x11, 0xc8,
  0xbd, 0xce, 0xca, 0xf6, 0xe9, 0x00, 0x3f, 0x9a, 0x18, 0xbc, 0xfa, 0x44,
  0xbb, 0xe5, 0x58, 0xf4, 0x10, 0xc4, 0xba, 0x13, 0x0b, 0x5a, 0x3f, 0x34,
  0xf2, 0x94, 0x15, 0x99, 0x27, 0x7f, 0xc3, 0x70, 0xeb, 0x5f, 0xd8, 0x74,
  0xf8, 0xac, 0xd2, 0xa1, 0x38, 0xcb, 0xf1, 0x91, 0x72, 0x02, 0xdf, 0xf3,
  0x4c, 0xfd, 0x7f, 0x69, 0xde, 0x59, 0x55, 0xdf, 0x2e, 0x1c, 0x44, 0xf4,
  0xdf, 0x1e, 0xba, 0xc9, 0x47, 0xb2, 0xeb, 0x1b, 0xb6, 0x4d, 0xb0, 0xc8,
  0xda, 0x73, 0xac, 0x70, 0x20, 0xfb, 0xc3, 0x61, 0xfa, 0xca, 0xfb, 0xfa,
  0xdb, 0xc8, 0x9f, 0xe2, 0x7f, 0xab, 0xdf, 0x11, 0x33, 0xe7, 0x34, 0xe6,
  0xe2, 0xfb, 0xcc, 0x29, 0x0f, 0x6d, 0xe5, 0x15, 0x14, 0x57, 0x7f, 0x1e,
  0x41, 0xe4, 0x56, 0xb3, 0x17, 0x28, 0x5a, 0x0f, 0xd4, 0x3b, 0x20, 0xc0,
  0xc2, 0x01, 0x13, 0x61, 0x11, 0xb9, 0x08, 0x1c, 0x11, 0x65, 0xbc, 0x81,
  0x1d, 0x40, 0x59, 0x58, 0x67, 0x2e, 0xcf, 0x1b, 0x28, 0xe6, 0x10, 0x1b,
  0xc7, 0xa2, 0xe7, 0x0b, 0x39, 0x40, 0xc2, 0x06, 0xd7, 0xb4, 0xe0, 0xca,
  0x55, 0xbc, 0x34, 0xc9, 0x43, 0xd0, 0x0f, 0xf4, 0x7f, 0xaf, 0x58, 0x79,
  0x89, 0xbf, 0x1d, 0x20, 0x4a, 0x03, 0xc3, 0xcf, 0x60, 0x2a, 0x8c, 0x9b,
  0x3f, 0x96, 0x27, 0x81, 0xef, 0xeb, 0xf6, 0x11, 0x5e, 0x14, 0x0b, 0x4e,
  0x3b, 0x46, 0xe3, 0x8f, 0x41, 0xc8, 0x27, 0x4b, 0x60, 0x2b, 0x33, 0x8e,
  0xc0, 0x54, 0xbd, 0x37, 0xb6, 0xdd, 0xcc, 0xcf, 0x47, 0x38, 0x90, 0x38,
  0x6e, 0xc5, 0xb9, 0x7f, 0xa8, 0xb1, 0x4c, 0x35, 0xda, 0x84, 0x11, 0x60,
  0xc7, 0x21, 0xef, 0x7d, 0x87, 0xfa, 0xba, 0x17, 0xdd, 0xe7, 0xc3, 0x89,
  0x19, 0xe6, 0x3a, 0x48, 0xb3, 0xe3, 0xef, 0xae, 0x8e, 0x95, 0x2a, 0x52,
  0x5f, 0xb3, 0x38, 0xe2, 0x85, 0xb2, 0x2a, 0xb8, 0x22, 0x05, 0x49, 0x81,
  0xc3, 0x11, 0x3c, 0xb8, 0x39, 0x2f, 0x13, 0xbc, 0x82, 0xe3, 0xff, 0xff,
  0x04, 0x00, 0x00, 0x00, 0x40, 0x00, 0x00, 0x00, 0x3b, 0x01, 0x00, 0x00,
  0xad, 0x01, 0x00, 0x00, 0x78, 0x00, 0x00, 0x00, 0x32, 0x04, 0x00, 0x00,
  0xc8, 0x01, 0x00, 0x00, 0x16, 0x01, 0x00, 0x00, 0x67, 0xff, 0xff, 0xff,
  0x1a, 0x02, 0x00, 0x00, 0x05, 0xff, 0xff, 0xff, 0x24, 0x01, 0x00, 0x00,
  0xd4, 0xfe, 0xff, 0xff, 0x35, 0x00, 0x00, 0x00, 0x29, 0x02, 0x00, 0x00,
  0xbf, 0x03, 0x00, 0x00, 0xd3, 0x01, 0x00, 0x00, 0x72, 0xff, 0xff, 0xff,
  0xce, 0xe3, 0xff, 0xff, 0x04, 0x00, 0x00, 0x00, 0x10, 0x00, 0x00, 0x00,
  0x68, 0x41, 0x37, 0x05, 0x70, 0x7f, 0xde, 0x70, 0x4e, 0xcc, 0x55, 0x11,
  0x32, 0x00, 0x72, 0x2b, 0xea, 0xe3, 0xff, 0xff, 0x04, 0x00, 0x00, 0x00,
  0x10, 0x00, 0x00, 0x00, 0x9d, 0x88, 0x03, 0xb2, 0xd1, 0xaf, 0xf0, 0xd4,
  0x80, 0xe1, 0xdc, 0xda, 0xd7, 0x0b, 0xa3, 0xf3, 0x06, 0xe4, 0xff, 0xff,
  0x04, 0x00, 0x00, 0x00, 0x00, 0x0a, 0x00, 0x00, 0x36, 0x0e, 0xc3, 0x05,
  0xef, 0xfc, 0xe4, 0x89, 0xda, 0xaa, 0x0a, 0xec, 0xfc, 0xd9, 0x1f, 0xca,
  0x1b, 0xcd, 0x08, 0xa8, 0xf9, 0x22, 0x35, 0x1c, 0x2c, 0xc0, 0xc3, 0x3f,
  0xe5, 0x2b, 0x44, 0xac, 0xbf, 0x37, 0x2f, 0xc8, 0xe5, 0x53, 0x38, 0x2a,
  0x02, 0xd8, 0x26, 0x57, 0xff, 0xf9, 0xc2, 0xa9, 0x1a, 0x4a, 0x26, 0xe6,
  0xd3, 0x30, 0xb2, 0xe8, 0xc4, 0x47, 0x45, 0x15, 0xe9, 0x1e, 0xf3, 0x18,
  0xb6, 0xa6, 0xbe, 0x96, 0x1a, 0xd3, 0xb3, 0x81, 0x18, 0x0d, 0x1c, 0xcc,
  0x4f, 0xc9, 0x10, 0xaf, 0xde, 0x21, 0xd3, 0x28, 0x5b, 0xfa, 0xcd, 0x29,
  0x15, 0x21, 0x62, 0x09, 0xba, 0xa9, 0xa8, 0x18, 0xf2, 0xfe, 0xc6, 0xc5,
  0xd5, 0xba, 0xb1, 0x41, 0x0a, 0x2b, 0x7f, 0x2c, 0x36, 0xc0, 0x17, 0x2d,
  0xe5, 0x01, 0xf7, 0x2c, 0x6f, 0x13, 0x2b, 0xbb, 0xc0, 0x66, 0x1d, 0xd7,
  0x3a, 0xc0, 0x3b, 0x2a, 0x70, 0xd5, 0xb3, 0x69, 0xfd, 0x2b, 0xe6, 0x18,
  0x4d, 0x17, 0x0b, 0xdd, 0xe5, 0xc0, 0x1f, 0x92, 0x3a, 0x2d, 0x04, 0xf5,
  0x24, 0xd2, 0x2c, 0x58, 0xb2, 0xb5, 0x56, 0xcc, 0x0c, 0x16, 0x38, 0xb4,
  0x03, 0xc8, 0x3f, 0x44, 0x23, 0x08, 0xae, 0x3a, 0x48, 0x28, 0x3a, 0x3c,
  0xc5, 0x86, 0xbf, 0x16, 0xa8, 0xc3, 0xfd, 0x43, 0xb2, 0xa4, 0xec, 0x81,
  0xb8, 0xfe, 0x16, 0x40, 0xd3, 0x0b, 0x4a, 0xa3, 0xf4, 0x18, 0x1a, 0xbf,
  0xf7, 0x32, 0x9e, 0x07, 0xf3, 0x34, 0xac, 0x99, 0x3c, 0xae, 0xe4, 0x04,
  0x11, 0x1c, 0x21, 0x0a, 0xe1, 0x13, 0xf8, 0xa2, 0x1e, 0x33, 0x2e, 0xa6,
  0x14, 0xa0, 0x49, 0xe7, 0xa8, 0xff, 0xb2, 0xbd, 0x02, 0xbf, 0xd1, 0x8b,
  0x2d, 0x36, 0x27, 0x2d, 0xbf, 0x29, 0x31, 0xb5, 0xc3, 0xd3, 0xc2, 0xc2,
  0x45, 0xcc, 0x08, 0x67, 0x15, 0xe9, 0xbd, 0x57, 0xce, 0xe1, 0x8c, 0x00,
  0x8a, 0x2f, 0xdb, 0x37, 0x4b, 0xc0, 0x18, 0xa7, 0x20, 0xcc, 0x1c, 0xe6,
  0xf4, 0x9b, 0x53, 0xe4, 0x61, 0xd7, 0xeb, 0xa9, 0xd8, 0x3c, 0xfe, 0xe9,
  0x04, 0x15, 0x0f, 0x4b, 0xf8, 0x3f, 0x57, 0x67, 0xed, 0x24, 0x6f, 0x37,
  0xeb, 0x16, 0xd1, 0xb0, 0x48, 0x60, 0xa4, 0xce, 0xac, 0x9e, 0x81, 0x22,
  0xe7, 0xf5, 0xe7, 0x43, 0xa1, 0x52, 0x18, 0x62, 0x4b, 0x6a, 0x07, 0xc1,
  0xfe, 0xe1, 0xb1, 0x17, 0x04, 0x45, 0xbe, 0x43, 0x88, 0x56, 0xe6, 0x40,
  0xd2, 0x3a, 0xd5, 0x33, 0x25, 0x11, 0xd0, 0x22, 0xf4, 0x34, 0xbf, 0xca,
  0xfc, 0xcb, 0x4d, 0x30, 0x28, 0xab, 0xb6, 0xbe, 0xc3, 0xcd, 0xbc, 0x00,
  0xd2, 0xe8, 0xf1, 0x11, 0x9f, 0x43, 0xff, 0xfc, 0xcb, 0xb4, 0xc5, 0x0e,
  0xb3, 0x36, 0xae, 0xb7, 0x5a, 0x08, 0xbc, 0x12, 0x8a, 0xde, 0x1c, 0x5b,
  0xed, 0x34, 0xfc, 0x12, 0xc7, 0x26, 0x1a, 0x00, 0x68, 0x1e, 0x25, 0x59,
  0xf7, 0xd6, 0xf0, 0x01, 0x2e, 0xa0, 0xf1, 0x58, 0xdc, 0x25, 0xf4, 0x7f,
  0x4c, 0x03, 0xd9, 0x38, 0xe1, 0x47, 0x2a, 0x65, 0xc3, 0x7a, 0xc6, 0x4d,
  0xf2, 0xdb, 0x26, 0xc5, 0x42, 0x37, 0x28, 0x4a, 0x8b, 0x99, 0xe6, 0x28,
  0x5d, 0x61, 0x19, 0xb9, 0xc3, 0x2e, 0x07, 0x33, 0x41, 0xd7, 0x0a, 0x39,
  0xd8, 0x52, 0xbd, 0xe8, 0x27, 0x1d, 0xfc, 0x5a, 0x92, 0xd5, 0x04, 0x9d,
  0xd8, 0xd2, 0x65, 0x39, 0x99, 0x32, 0x76, 0x13, 0xf7, 0xf3, 0xaa, 0x12,
  0x66, 0x00, 0xed, 0x8b, 0xbd, 0x8b, 0x25, 0x36, 0x81, 0xa5, 0x9f, 0x18,
  0x0e, 0x02, 0x5f, 0x64, 0xde, 0x28, 0xb4, 0xec, 0xc8, 0x11, 0xb5, 0x47,
  0x35, 0x58, 0xa5, 0x36, 0xd9, 0xd2, 0x29, 0x0d, 0x59, 0x9e, 0x24, 0xe7,
  0x15, 0x21, 0xe5, 0xa6, 0x61, 0xc9, 0x10, 0x8c, 0xb7, 0xe3, 0xe2, 0x39,
  0x17, 0x12, 0xf0, 0xc0, 0xaf, 0x2e, 0x12, 0xe6, 0xc8, 0xd8, 0xbc, 0xe3,
  0x07, 0xf2, 0xe2, 0xcb, 0xbc, 0x0a, 0x5e, 0xab, 0x0b, 0x14, 0xe8, 0x14,
  0xdd, 0x4b, 0x81, 0xf5, 0x98, 0xdc, 0xc0, 0xf4, 0x0e, 0x56, 0x34, 0x00,
  0xe4, 0xa3, 0xc9, 0xf1, 0xc7, 0x26, 0xb7, 0xf2, 0x13, 0x9d, 0x51, 0xcc,
  0xc5, 0x60, 0x39, 0xd9, 0x9a, 0xce, 0xaf, 0x44, 0xd9, 0xe5, 0xfb, 0xe2,
  0x3d, 0xe6, 0x03, 0xc0, 0xe2, 0x2f, 0xf0, 0xd2, 0xdf, 0xf0, 0x9b, 0x53,
  0xdb, 0xe1, 0xa7, 0x23, 0x55, 0x67, 0xf8, 0xd1, 0x15, 0x0c, 0xd3, 0x64,
  0xda, 0x3a, 0x4d, 0x38, 0x62, 0x98, 0x31, 0x4f, 0x09, 0x5b, 0x4d, 0x0a,
  0x34, 0x92, 0x0f, 0x28, 0xef, 0xf3, 0x07, 0xc6, 0xf9, 0xc6, 0x35, 0x43,
  0xeb, 0x4c, 0x58, 0xef, 0x46, 0xec, 0x4c, 0x0e, 0x5a, 0x5e, 0xfc, 0x20,
  0x00, 0xa3, 0xd5, 0x23, 0xd0, 0xe1, 0xac, 0x04, 0xfa, 0x8d, 0x19, 0x7f,
  0xec, 0xd6, 0xf7, 0xcd, 0x44, 0x08, 0x40, 0x34, 0x22, 0x41, 0x40, 0xb6,
  0xc5, 0x16, 0xe9, 0xee, 0xbf, 0xaf, 0x3a, 0xd8, 0x60, 0x46, 0x40, 0x00,
  0xf1, 0xc5, 0xeb, 0xe2, 0xeb, 0xb3, 0x84, 0x19, 0x3d, 0xf4, 0xeb, 0x43,
  0xc9, 0xc0, 0x34, 0xc3, 0xc7, 0xc3, 0x46, 0x22, 0xd0, 0xac, 0x19, 0xa8,
  0x37, 0xe6, 0x0b, 0x2f, 0xe7, 0x03, 0x22, 0xf8, 0x4c, 0xd5, 0x2a, 0xd7,
  0x4d, 0x39, 0x9d, 0xf0, 0x0d, 0xe1, 0xb3, 0x39, 0xed, 0x0a, 0x03, 0xb4,
  0x46, 0x1a, 0xdd, 0x14, 0xf7, 0xac, 0x81, 0xf3, 0x3b, 0x39, 0xbc, 0x10,
  0xb3, 0x59, 0xe4, 0xcd, 0x42, 0x66, 0x8a, 0xb3, 0x50, 0xa4, 0xc1, 0xd7,
  0x93, 0xd3, 0x19, 0xe9, 0xe9, 0x11, 0x24, 0x5e, 0xce, 0x7f, 0x52, 0x23,
  0xf8, 0x09, 0x2d, 0xe1, 0xfd, 0x4b, 0xb8, 0x3d, 0x32, 0x19, 0x69, 0xc7,
  0xd2, 0x0b, 0x99, 0x0b, 0xd1, 0x3b, 0x18, 0xc7, 0xa2, 0x29, 0x5d, 0x01,
  0x4c, 0x20, 0x62, 0x47, 0x83, 0xcf, 0x8f, 0x99, 0xf7, 0xcb, 0x35, 0x98,
  0x1e, 0xb6, 0x22, 0x2e, 0x05, 0xd6, 0x71, 0xc6, 0x81, 0x3b, 0xb1, 0xb3,
  0x49, 0xfd, 0x3a, 0x98, 0x1a, 0x12, 0x3a, 0x6d, 0x34, 0xb9, 0x51, 0xe9,
  0x00, 0x6c, 0xf0, 0xe0, 0xea, 0x97, 0x34, 0x03, 0xfb, 0xdf, 0x8f, 0x1a,
  0xd3, 0xa5, 0x63, 0x34, 0x3d, 0xb7, 0x82, 0xe5, 0x1c, 0x1c, 0x3b, 0x40,
  0x22, 0x0c, 0x1e, 0xc0, 0xd3, 0x57, 0xc4, 0x81, 0xb7, 0x4a, 0x1d, 0xec,
  0xb6, 0xa6, 0x33, 0x05, 0x4d, 0x95, 0x19, 0x2a, 0xe0, 0xd6, 0x1f, 0xda,
  0xf3, 0x1e, 0x00, 0x32, 0xd5, 0xc1, 0x4c, 0xa1, 0xc5, 0x14, 0xfe, 0xca,
  0xb9, 0x0c, 0x37, 0x22, 0xf2, 0x49, 0x0a, 0x13, 0x28, 0xf9, 0x3b, 0x15,
  0x2e, 0xdc, 0xba, 0xf9, 0x1f, 0x54, 0xd5, 0xec, 0x27, 0x2f, 0xde, 0xc4,
  0x50, 0xeb, 0xbc, 0x25, 0xa8, 0x0f, 0x2e, 0x94, 0x35, 0xb1, 0x13, 0xbe,
  0x4a, 0xcf, 0x0e, 0x55, 0xe4, 0xc2, 0x91, 0x2f, 0xa5, 0xe1, 0x03, 0x1c,
  0x21, 0xef, 0xbc, 0xbd, 0xd6, 0x4c, 0x7c, 0x02, 0xeb, 0xdf, 0x9a, 0xaf,
  0xba, 0x69, 0x17, 0xe2, 0x4b, 0xc1, 0x24, 0x21, 0x6f, 0x1e, 0x7f, 0xdf,
  0x4c, 0x37, 0xb7, 0xdc, 0xea, 0xbf, 0xfc, 0xf5, 0x49, 0xd3, 0x36, 0x01,
  0x2f, 0xca, 0x1b, 0x55, 0x40, 0xfb, 0xab, 0xe1, 0xdd, 0xfb, 0x2e, 0xb9,
  0x4a, 0x15, 0x19, 0x95, 0x26, 0x1a, 0x95, 0xa3, 0xf3, 0xe4, 0x02, 0x9a,
  0x0e, 0xe7, 0x5b, 0x0b, 0x68, 0xf0, 0xfb, 0xa4, 0x7b, 0xae, 0x13, 0xb3,
  0x59, 0xee, 0x08, 0x52, 0x05, 0xb6, 0xff, 0x1e, 0xcf, 0xe2, 0x3a, 0x5a,
  0xfe, 0x81, 0xbd, 0x60, 0xd4, 0x66, 0xdf, 0x6a, 0x29, 0x04, 0x02, 0x46,
  0x39, 0xcd, 0xb0, 0x45, 0x3e, 0x1e, 0xbb, 0x1c, 0xd1, 0xc5, 0x33, 0x64,
  0x9a, 0x3c, 0x2f, 0x6d, 0xc8, 0x41, 0xc2, 0xda, 0x60, 0xb6, 0x90, 0xfd,
  0xda, 0xe1, 0xa7, 0xb4, 0xce, 0x9d, 0xff, 0x39, 0x24, 0x03, 0xb9, 0xbd,
  0x3f, 0x05, 0xdd, 0x31, 0xb4, 0xe6, 0xe6, 0x09, 0x86, 0x81, 0x4d, 0x3a,
  0xd3, 0xa5, 0xcd, 0xa6, 0xf2, 0xe5, 0x36, 0x1e, 0x96, 0xfc, 0xf4, 0xc5,
  0x06, 0xa0, 0x1f, 0xbb, 0x39, 0x52, 0xab, 0xf5, 0x59, 0x1d, 0x9d, 0xf3,
  0x2c, 0x4d, 0x4a, 0x36, 0xc4, 0x97, 0x94, 0x1f, 0xbc, 0xc6, 0x1d, 0x13,
  0xf0, 0x28, 0xf6, 0x11, 0xb4, 0xc6, 0xa0, 0xc6, 0x19, 0xa1, 0x46, 0xbe,
  0x1a, 0xcd, 0x2d, 0xf4, 0x55, 0xcc, 0xf9, 0xd3, 0xf1, 0xf5, 0x03, 0x9c,
  0x3d, 0x4c, 0x48, 0x37, 0xbe, 0x07, 0x1f, 0x54, 0x2d, 0x18, 0x16, 0xd5,
  0x2d, 0x54, 0x98, 0xba, 0xc0, 0x09, 0xdc, 0x16, 0x5e, 0xa6, 0x2d, 0xc5,
  0x47, 0x1c, 0xc9, 0xb1, 0xf6, 0x2c, 0xe7, 0x21, 0x66, 0xa3, 0x0b, 0xe1,
  0x19, 0xae, 0x0c, 0xc5, 0xa4, 0x9d, 0x11, 0x6f, 0x4e, 0x22, 0x20, 0x39,
  0x5a, 0xf9, 0xc8, 0x62, 0x7f, 0xeb, 0x2f, 0x3b, 0xee, 0x50, 0xaa, 0x65,
  0x35, 0xc8, 0xff, 0x9d, 0xd3, 0xf1, 0xbf, 0x1c, 0x1d, 0xec, 0xa9, 0x1a,
  0x3e, 0xaf, 0xd4, 0x22, 0xf9, 0x1f, 0x95, 0x23, 0xc5, 0xeb, 0x06, 0x1c,
  0xe1, 0xec, 0xb9, 0x7f, 0xf4, 0xa7, 0x53, 0xb3, 0x2d, 0x49, 0x82, 0x19,
  0x5d, 0xd1, 0x5d, 0x43, 0xcf, 0xa1, 0xe1, 0x11, 0xb8, 0x59, 0x00, 0xca,
  0xa8, 0x36, 0x35, 0xfc, 0xa0, 0xfe, 0xdf, 0x1d, 0x12, 0xa2, 0x0e, 0x2f,
  0x2c, 0x1a, 0xee, 0x40, 0x38, 0x4f, 0x1e, 0x3b, 0x25, 0x5e, 0x08, 0x63,
  0xbb, 0x40, 0x36, 0xd1, 0x73, 0x2d, 0xbc, 0x17, 0x6e, 0xa8, 0x08, 0xa5,
  0xf0, 0x62, 0xc8, 0x62, 0x57, 0x0d, 0x28, 0xad, 0x51, 0x19, 0xa2, 0x1d,
  0x0c, 0xcd, 0xf8, 0x95, 0x23, 0x43, 0x5d, 0x36, 0xbf, 0xda, 0xf6, 0xb5,
  0x5d, 0xfb, 0xe9, 0x9e, 0x6d, 0x30, 0xbb, 0xc5, 0x8c, 0x68, 0x3d, 0x86,
  0x8a, 0x3b, 0x15, 0x9a, 0x1a, 0x05, 0x12, 0x11, 0x7f, 0x20, 0x85, 0xb2,
  0xa8, 0xcc, 0xf7, 0xb7, 0xd1, 0xb6, 0xb0, 0x42, 0x00, 0xa2, 0x8b, 0xed,
  0xb6, 0xd8, 0xf6, 0xc0, 0x68, 0x1e, 0xdd, 0x4d, 0x38, 0x20, 0xac, 0x76,
  0xb4, 0x8a, 0x94, 0xe2, 0x46, 0x54, 0x9a, 0x70, 0x5b, 0xa3, 0x01, 0x0b,
  0xb6, 0xe5, 0xbc, 0x3c, 0xb9, 0x08, 0xe7, 0x49, 0x6a, 0xed, 0xda, 0xd5,
  0x35, 0xa5, 0x79, 0x35, 0xd0, 0x29, 0xa4, 0xe2, 0xe0, 0x3f, 0xb9, 0xc8,
  0x70, 0x37, 0x52, 0x92, 0xa7, 0x46, 0x6d, 0xcd, 0xb2, 0x41, 0xfc, 0x2e,
  0xf3, 0x56, 0x32, 0x89, 0xb2, 0xcd, 0xcf, 0x9e, 0x6a, 0xe1, 0x51, 0xa0,
  0xb6, 0xce, 0x12, 0xd9, 0x4d, 0x7e, 0x2a, 0x1f, 0xc3, 0x68, 0x2b, 0x47,
  0x50, 0x57, 0x48, 0x72, 0xe6, 0xcd, 0x69, 0xe3, 0xdc, 0xe6, 0x5e, 0x44,
  0x97, 0xe6, 0xa2, 0x17, 0xdb, 0x79, 0xda, 0x7f, 0x00, 0xec, 0x28, 0x61,
  0xfe, 0xdd, 0x26, 0xfa, 0xcd, 0x4d, 0xd9, 0xed, 0xa6, 0xa9, 0x43, 0x4e,
  0x47, 0xca, 0xe0, 0xe6, 0x0b, 0xa7, 0x32, 0x59, 0xad, 0x6f, 0x0a, 0xc9,
  0xac, 0x24, 0x3c, 0x66, 0x8d, 0x49, 0xc0, 0x9f, 0xae, 0xc2, 0xb4, 0xa2,
  0xc0, 0x28, 0x1c, 0x7f, 0x48, 0x28, 0x2d, 0xe5, 0x2a, 0xfa, 0xf9, 0x8a,
  0x3a, 0x1c, 0xb1, 0x3d, 0xc9, 0x28, 0xe3, 0x7c, 0x06, 0xad, 0x87, 0xe5,
  0xa6, 0x23, 0x70, 0x58, 0x7c, 0x2c, 0xf6, 0x79, 0x0d, 0x3c, 0x21, 0x2d,
  0x0b, 0xd0, 0xaa, 0x99, 0xf1, 0x6d, 0xa8, 0x10, 0x67, 0xf1, 0x45, 0xfd,
  0x1e, 0x15, 0xfc, 0xf4, 0xa3, 0xa0, 0xfe, 0xac, 0xd5, 0x65, 0x95, 0xd0,
  0x5a, 0x7e, 0x52, 0x8e, 0x0a, 0x1a, 0x0d, 0xc5, 0x27, 0xe5, 0x04, 0xde,
  0xf8, 0x3c, 0xba, 0x7a, 0x90, 0x70, 0x4a, 0xc6, 0x21, 0xdd, 0xf9, 0x4d,
  0x20, 0x33, 0x5a, 0x18, 0xa0, 0x39, 0xf8, 0xd0, 0xee, 0xd6, 0xba, 0x28,
  0x33, 0x8c, 0x52, 0x7f, 0x39, 0x79, 0xdf, 0x13, 0xcd, 0xd5, 0x6c, 0xee,
  0xa6, 0xb7, 0x98, 0xe1, 0xea, 0x9e, 0x53, 0x0e, 0xd8, 0x3b, 0xe9, 0xaa,
  0x88, 0xf0, 0x1e, 0x3c, 0xb1, 0xa3, 0xe8, 0xa3, 0x2f, 0xc7, 0xd6, 0x4c,
  0xdd, 0xb2, 0xd1, 0x3a, 0x59, 0xd1, 0xc6, 0x52, 0xad, 0x77, 0x46, 0xce,
  0x5b, 0x36, 0x13, 0xf1, 0x24, 0x41, 0xfe, 0x05, 0x20, 0x23, 0xcd, 0x18,
  0x4a, 0x24, 0xe8, 0x16, 0xd9, 0xe1, 0xe9, 0x34, 0xc3, 0x03, 0x29, 0x00,
  0x09, 0xac, 0xc7, 0x24, 0xf1, 0xc9, 0x03, 0x9b, 0xfc, 0x34, 0x6f, 0x0a,
  0xbe, 0xf2, 0xe2, 0x50, 0x7d, 0x19, 0xfb, 0x0c, 0x5e, 0xe0, 0x19, 0xbe,
  0x4b, 0x4a, 0x44, 0x50, 0xba, 0x66, 0x73, 0xd1, 0x0a, 0x0c, 0x67, 0x1c,
  0xbb, 0x81, 0x52, 0x01, 0x46, 0xc0, 0x4d, 0xc6, 0x81, 0x25, 0x62, 0xec,
  0xb3, 0x0d, 0x62, 0xda, 0x3f, 0x6d, 0x8e, 0x1e, 0x02, 0x91, 0x45, 0x96,
  0x67, 0xbc, 0xf2, 0xda, 0xb8, 0x2c, 0x0c, 0x63, 0x62, 0x68, 0x98, 0x3a,
  0xfa, 0x04, 0xbd, 0xc5, 0xf2, 0xbc, 0xad, 0xfd, 0xb8, 0x66, 0x3c, 0xc2,
  0xc9, 0xeb, 0x9c, 0xff, 0xb0, 0x0d, 0xe2, 0x50, 0xad, 0xa5, 0x31, 0x91,
  0x49, 0x09, 0x76, 0xd0, 0xf0, 0xd8, 0xd3, 0xd8, 0x27, 0x69, 0xd2, 0x2f,
  0x9e, 0x4e, 0x64, 0x94, 0xaa, 0x7a, 0x87, 0x38, 0x2d, 0x19, 0x59, 0x6a,
  0x69, 0x83, 0x0e, 0x99, 0x8e, 0xcc, 0xf4, 0xaa, 0x56, 0xe2, 0xf1, 0x3c,
  0xe5, 0xda, 0xb0, 0x7a, 0xed, 0x1e, 0x17, 0xab, 0xec, 0xcd, 0xe9, 0xd0,
  0x2b, 0x35, 0x11, 0x06, 0xad, 0x2d, 0xa3, 0xc8, 0x71, 0x9b, 0x8d, 0x1f,
  0x81, 0xb9, 0xb6, 0xbf, 0x35, 0x22, 0xf3, 0x06, 0x0c, 0xc5, 0x5b, 0x05,
  0x77, 0xeb, 0x5b, 0x9f, 0x21, 0x2d, 0xc5, 0x30, 0xa9, 0x48, 0x17, 0x54,
  0xb4, 0x1c, 0x32, 0xfb, 0xae, 0xd5, 0xab, 0xa5, 0x12, 0xbf, 0x03, 0x2f,
  0x5a, 0xd1, 0x08, 0x1b, 0x6c, 0xd4, 0x64, 0x41, 0x75, 0x37, 0x3a, 0xeb,
  0x96, 0x08, 0x38, 0xd6, 0x4c, 0xdf, 0x7f, 0xf7, 0xdb, 0xef, 0x45, 0x1b,
  0xaf, 0x4a, 0x5f, 0x57, 0xdf, 0x44, 0xf3, 0x21, 0x3c, 0x6e, 0xb2, 0x9d,
  0xf2, 0x52, 0xef, 0xdd, 0x0d, 0xa5, 0xb2, 0xdc, 0xa6, 0x29, 0xb6, 0x1f,
  0x66, 0x5a, 0x41, 0x53, 0xd2, 0x45, 0xb0, 0x14, 0xdb, 0x18, 0x11, 0x7d,
  0x53, 0x49, 0x3a, 0xc0, 0x20, 0xbe, 0x9a, 0xe8, 0xa1, 0xbe, 0x53, 0xf4,
  0x92, 0x25, 0x16, 0x7d, 0xa5, 0x54, 0xfa, 0x40, 0xe2, 0x16, 0x30, 0x99,
  0x9c, 0x0d, 0xd0, 0x49, 0x17, 0xf6, 0x4c, 0xdb, 0x23, 0x5e, 0x5c, 0xa4,
  0xd9, 0xd9, 0x03, 0x8c, 0xa8, 0x47, 0x06, 0x27, 0xa7, 0x25, 0xb6, 0xb6,
  0x14, 0x11, 0xf5, 0xb3, 0x59, 0x7f, 0x29, 0xe7, 0xbc, 0x4c, 0xe3, 0x02,
  0xe0, 0x3c, 0xcd, 0xed, 0xbc, 0x3f, 0xb7, 0xd9, 0x51, 0xd8, 0x3f, 0xc8,
  0xf6, 0x3f, 0x0c, 0x52, 0x20, 0xc2, 0x3b, 0xe9, 0x07, 0xf0, 0x2c, 0xa5,
  0x3b, 0x36, 0xa7, 0xc8, 0xac, 0x98, 0xf9, 0xd8, 0x3e, 0xcd, 0x09, 0x26,
  0x39, 0x05, 0xd3, 0x4f, 0x4c, 0x6f, 0x4c, 0xe3, 0x1c, 0x35, 0x2d, 0xc1,
  0x04, 0xb0, 0xd0, 0xee, 0xe8, 0x50, 0xe7, 0x15, 0xbf, 0x22, 0x51, 0xc7,
  0xad, 0xc0, 0x42, 0xee, 0x30, 0x2b, 0xb1, 0x38, 0x64, 0xed, 0x03, 0xb8,
  0xd1, 0x0f, 0x09, 0x6c, 0xc1, 0x58, 0x57, 0x2d, 0xf8, 0x56, 0x96, 0xf1,
  0xde, 0xf3, 0xc5, 0x2a, 0x2b, 0xaa, 0xe3, 0xbb, 0xaf, 0x48, 0x01, 0xdd,
  0xf0, 0x26, 0x05, 0x13, 0x0b, 0x3f, 0x44, 0x06, 0x3f, 0xf8, 0x54, 0xb6,
  0x92, 0xd2, 0xb8, 0x23, 0x81, 0xe9, 0xd9, 0xa9, 0xab, 0x0d, 0xfa, 0x42,
  0x34, 0x1f, 0xfd, 0xbe, 0x42, 0xae, 0xb1, 0x60, 0xb8, 0xb3, 0xde, 0xe4,
  0x8a, 0x11, 0x33, 0x81, 0x8a, 0x30, 0xd9, 0x66, 0x10, 0x61, 0xfd, 0xcd,
  0x5f, 0xe4, 0x18, 0xfe, 0xde, 0xf3, 0x08, 0x10, 0x17, 0x04, 0xa1, 0x59,
  0x10, 0xc7, 0x36, 0xf6, 0xd0, 0x37, 0x37, 0xd3, 0x09, 0x01, 0x10, 0x1c,
  0x05, 0x13, 0x43, 0xf0, 0xf3, 0xcf, 0xdb, 0x33, 0x18, 0xe7, 0x09, 0x48,
  0x69, 0x10, 0xf7, 0x5c, 0xc5, 0xaa, 0xa2, 0x1b, 0xe1, 0x18, 0xb3, 0xd5,
  0x72, 0x2c, 0xf4, 0xef, 0xcb, 0x57, 0x21, 0xc5, 0x18, 0x10, 0xc6, 0x13,
  0xaf, 0x2e, 0xc6, 0x8b, 0x29, 0x50, 0x1d, 0xc8, 0x42, 0x22, 0xaa, 0x2e,
  0xe2, 0xa0, 0x20, 0xc8, 0xd7, 0xdf, 0xd3, 0xd4, 0xf7, 0xdf, 0x63, 0x1d,
  0x44, 0xa1, 0xb9, 0xb6, 0x3b, 0xda, 0x0e, 0x42, 0x07, 0x29, 0x3e, 0xf0,
  0xf6, 0xa3, 0x3f, 0x15, 0x21, 0x47, 0x0f, 0x42, 0x32, 0xe8, 0xbc, 0x91,
  0x14, 0xd1, 0xe9, 0x3c, 0xbd, 0xf1, 0xbd, 0xa8, 0x81, 0xbb, 0xd6, 0xe0,
  0x8a, 0xe6, 0xaa, 0x2a, 0x8e, 0xcf, 0xe5, 0xa3, 0x1b, 0x17, 0x9d, 0x18,
  0xa3, 0x47, 0xee, 0x34, 0x62, 0x47, 0x2d, 0xcc, 0x45, 0x11, 0x6b, 0x12,
  0x20, 0x8e, 0x41, 0xd1, 0xac, 0x7f, 0xe8, 0x12, 0xcd, 0x29, 0x23, 0x16,
  0x09, 0xa1, 0x15, 0xcc, 0xab, 0xb3, 0xeb, 0x14, 0x61, 0x70, 0x47, 0x5b,
  0x25, 0xdd, 0xf4, 0xdc, 0xf7, 0xe8, 0x71, 0x31, 0x1c, 0xa8, 0xa2, 0x40,
  0xca, 0x4f, 0xab, 0x4d, 0xfc, 0xf0, 0x2e, 0x3a, 0x4e, 0xa5, 0x69, 0x6b,
  0x8b, 0x36, 0xb2, 0x1c, 0x24, 0xe8, 0xce, 0x5a, 0x23, 0xdb, 0x5f, 0x13,
  0x05, 0x1b, 0xc0, 0xc0, 0x2e, 0xe3, 0x51, 0xbe, 0x13, 0xfc, 0xd1, 0xd8,
  0x20, 0xdc, 0xc8, 0xd2, 0x2a, 0x18, 0xc3, 0xbb, 0xed, 0x29, 0xd7, 0x21,
  0xc7, 0x64, 0xba, 0xcc, 0x5c, 0x00, 0xb5, 0xc6, 0x63, 0xef, 0x1a, 0xfb,
  0xcc, 0xdc, 0xdc, 0xe3, 0x4c, 0xcc, 0xea, 0x72, 0x69, 0x4c, 0xdb, 0xd4,
  0x73, 0xfc, 0xdd, 0x0b, 0x37, 0x05, 0x0a, 0xe8, 0x17, 0xfa, 0x7f, 0xb0,
  0xf6, 0x3f, 0xbc, 0x72, 0x61, 0x79, 0x19, 0xc0, 0xd6, 0x12, 0xd2, 0xc7,
  0xf7, 0xfc, 0x5a, 0x14, 0x64, 0x5c, 0xfa, 0x2b, 0x59, 0xcb, 0x63, 0x43,
  0x10, 0x56, 0xe5, 0x4a, 0x29, 0x42, 0x32, 0x99, 0x14, 0x6b, 0xc3, 0x59,
  0xf2, 0xf8, 0xe5, 0xd6, 0x16, 0x21, 0x1f, 0x16, 0xa6, 0xbb, 0x1c, 0x1b,
  0xe4, 0x0c, 0x16, 0xcb, 0x08, 0xe4, 0x50, 0x7a, 0xc7, 0xfe, 0xd2, 0xaf,
  0xf3, 0xba, 0xf6, 0xe9, 0x08, 0x98, 0x49, 0xa5, 0x0d, 0xf9, 0x4a, 0xe6,
  0x13, 0x32, 0x2c, 0x9a, 0xef, 0xd7, 0x4f, 0xf8, 0xbd, 0xe1, 0xb6, 0x14,
  0xde, 0xf4, 0xf9, 0x7f, 0xfd, 0x1c, 0x3d, 0x12, 0x0a, 0xf1, 0x26, 0x42,
  0xd6, 0xeb, 0x61, 0x17, 0xf2, 0x3d, 0x36, 0x18, 0xa1, 0xf1, 0xc7, 0x0e,
  0xb4, 0x36, 0xba, 0x1e, 0xf0, 0xec, 0xbe, 0xdc, 0xfd, 0x5a, 0xfc, 0x03,
  0xe5, 0xfe, 0x1a, 0x1c, 0xa4, 0xf0, 0xb0, 0xd7, 0xb8, 0xbb, 0xf6, 0x1c,
  0x41, 0xe0, 0x12, 0xc4, 0x48, 0x14, 0x41, 0xd3, 0xd6, 0xd7, 0x3f, 0x35,
  0xea, 0x38, 0xf4, 0xd1, 0xe8, 0x8e, 0xf6, 0x36, 0xe7, 0x20, 0x4f, 0x1e,
  0xe9, 0xc9, 0x0b, 0x08, 0xf5, 0xfd, 0x2e, 0x50, 0x57, 0x9c, 0xc0, 0x2d,
  0x47, 0x2c, 0x1a, 0x3f, 0xde, 0xeb, 0x21, 0xf3, 0x17, 0xe7, 0xe3, 0x18,
  0xe2, 0xf1, 0x02, 0x22, 0x0a, 0x2d, 0xdb, 0x3f, 0x50, 0xc7, 0xc8, 0x55,
  0x26, 0xfe, 0x1d, 0xea, 0x32, 0xb1, 0xe6, 0xa3, 0x7f, 0x61, 0x40, 0x6c,
  0x12, 0xee, 0xff, 0xff, 0x04, 0x00, 0x00, 0x00, 0x80, 0x00, 0x00, 0x00,
  0x5b, 0xff, 0xff, 0xff, 0xea, 0xfa, 0xff, 0xff, 0xed, 0x00, 0x00, 0x00,
  0x29, 0xfb, 0xff, 0xff, 0xa4, 0xfa, 0xff, 0xff, 0x4d, 0xfd, 0xff, 0xff,
  0xcb, 0x01, 0x00, 0x00, 0xe7, 0xfd, 0xff, 0xff, 0xd2, 0xfa, 0xff, 0xff,
  0xf1, 0xfe, 0xff, 0xff, 0xa0, 0x02, 0x00, 0x00, 0xf9, 0xfd, 0xff, 0xff,
  0x7b, 0x01, 0x00, 0x00, 0xf1, 0xff, 0xff, 0xff, 0x49, 0xfe, 0xff, 0xff,
  0xb7, 0xfb, 0xff, 0xff, 0x16, 0xfe, 0xff, 0xff, 0xe7, 0x00, 0x00, 0x00,
  0x85, 0xfc, 0xff, 0xff, 0xab, 0x00, 0x00, 0x00, 0x7b, 0xfe, 0xff, 0xff,
  0x5f, 0xfe, 0xff, 0xff, 0x5b, 0xfe, 0xff, 0xff, 0x93, 0xfe, 0xff, 0xff,
  0xb8, 0xfd, 0xff, 0xff, 0x5e, 0x02, 0x00, 0x00, 0xd1, 0x00, 0x00, 0x00,
  0x46, 0xfc, 0xff, 0xff, 0xe0, 0xfa, 0xff, 0xff, 0xc8, 0xfe, 0xff, 0xff,
  0x8f, 0xff, 0xff, 0xff, 0xa1, 0xfa, 0xff, 0xff, 0x9e, 0xee, 0xff, 0xff,
  0x04, 0x00, 0x00, 0x00, 0x20, 0x00, 0x00, 0x00, 0x08, 0x10, 0x1c, 0x52,
  0x54, 0xe6, 0xf1, 0xdf, 0x2c, 0xd6, 0xee, 0xd9, 0x09, 0x1c, 0xcc, 0xff,
  0x10, 0xd3, 0x0c, 0xf6, 0xd7, 0x11, 0x37, 0xdb, 0xec, 0xdb, 0xee, 0x7f,
  0x0c, 0xca, 0xd1, 0xc6, 0xca, 0xee, 0xff, 0xff, 0x04, 0x00, 0x00, 0x00,
  0x20, 0x00, 0x00, 0x00, 0x9b, 0xeb, 0x80, 0x22, 0x0b, 0x17, 0x8d, 0x02,
  0xdf, 0xe7, 0xce, 0xe6, 0xd3, 0x94, 0xf9, 0xfd, 0xcc, 0xf7, 0x14, 0xb9,
  0xf1, 0xe4, 0xf5, 0xec, 0xff, 0x1f, 0xe9, 0xb5, 0x03, 0xfa, 0x29, 0x03,
  0xf6, 0xee, 0xff, 0xff, 0x04, 0x00, 0x00, 0x00, 0x00, 0x0c, 0x00, 0x00,
  0xbb, 0x56, 0x26, 0x4d, 0x4c, 0x56, 0xd9, 0x14, 0xfa, 0xb8, 0xf7, 0x04,
  0x10, 0x1d, 0x3d, 0x4d, 0x18, 0x0f, 0x3d, 0xe1, 0x93, 0xc6, 0xfc, 0x30,
  0x9b, 0x05, 0xda, 0xe7, 0x3d, 0xc7, 0xb2, 0x19, 0xea, 0xea, 0x98, 0x4b,
  0x4b, 0xfb, 0x54, 0xe8, 0xe7, 0x37, 0xbe, 0xbf, 0xc3, 0xe2, 0x09, 0xfa,
  0x7f, 0xda, 0x3a, 0xec, 0x2c, 0x00, 0x2d, 0x19, 0x32, 0x41, 0x4d, 0xb1,
  0x12, 0x18, 0x62, 0xd9, 0x49, 0x45, 0xaf, 0x16, 0x75, 0xe4, 0xc9, 0xad,
  0x96, 0xcf, 0x28, 0xfb, 0xda, 0xc0, 0x10, 0xaa, 0x29, 0x64, 0x24, 0x32,
  0xcd, 0xf3, 0x29, 0xf8, 0x4a, 0x1e, 0xa1, 0xe3, 0x3b, 0x0e, 0xbc, 0xd9,
  0x4e, 0x53, 0x22, 0xdc, 0xb1, 0x0a, 0xcf, 0x7f, 0xe6, 0xdb, 0x33, 0xc0,
  0xbe, 0x30, 0x6a, 0xcb, 0xf7, 0x32, 0x29, 0x07, 0x21, 0x3a, 0x6b, 0xfb,
  0x81, 0xb6, 0x03, 0x3a, 0x52, 0x3e, 0x52, 0xf2, 0xfa, 0xdc, 0xdf, 0xa8,
  0x84, 0xdf, 0x39, 0x1d, 0xcd, 0xd9, 0xb6, 0x20, 0x02, 0x14, 0x11, 0x4b,
  0x61, 0xed, 0x17, 0x1d, 0x52, 0xfc, 0x23, 0x44, 0xc2, 0x5b, 0xee, 0x0d,
  0x41, 0xc7, 0xaa, 0xd6, 0x10, 0xba, 0xcf, 0x21, 0x11, 0xb0, 0xac, 0xd8,
  0x9e, 0xf8, 0x46, 0xf2, 0xf8, 0x57, 0xe7, 0x6f, 0x17, 0xf5, 0xa6, 0x68,
  0xee, 0xfe, 0x12, 0x13, 0xa0, 0xe3, 0x26, 0x64, 0xe7, 0x0a, 0x3b, 0x01,
  0x0c, 0x03, 0x1d, 0x46, 0x6c, 0x48, 0x07, 0x09, 0x38, 0x06, 0xab, 0xd6,
  0xb2, 0xd1, 0x1e, 0xd4, 0x29, 0xc5, 0xf2, 0x43, 0xda, 0x05, 0xf8, 0x28,
  0x10, 0xcd, 0x20, 0x25, 0x16, 0xc0, 0xa4, 0xb8, 0xaa, 0x81, 0x39, 0x09,
  0xfb, 0xb8, 0xf5, 0x02, 0xa7, 0x2a, 0xfc, 0xa8, 0x0b, 0x41, 0xdf, 0x11,
  0xe2, 0x42, 0xc2, 0x23, 0xf1, 0x3e, 0xfa, 0x9d, 0x07, 0x56, 0xb1, 0xa6,
  0x3e, 0xc0, 0xe5, 0x45, 0x9e, 0xf0, 0x20, 0xd5, 0x26, 0xa1, 0xf7, 0x36,
  0xa2, 0xc5, 0x32, 0xc1, 0x1f, 0x32, 0xc1, 0x24, 0xea, 0xc0, 0x2b, 0x20,
  0x96, 0x3c, 0x2a, 0x4c, 0xfe, 0x36, 0xee, 0xb2, 0xfe, 0xad, 0x4a, 0xbf,
  0xc1, 0x10, 0x1a, 0xc1, 0xe2, 0x21, 0xf4, 0xa2, 0xc3, 0xd9, 0xd8, 0xdd,
  0xc2, 0x29, 0xcc, 0xa2, 0x3c, 0x35, 0x1e, 0x1c, 0x81, 0xae, 0xb8, 0xc8,
  0x38, 0x3c, 0x63, 0x15, 0x0d, 0x23, 0x01, 0xd4, 0x0e, 0xec, 0xe2, 0xc3,
  0x44, 0xed, 0xb7, 0xd3, 0x26, 0x43, 0x02, 0x02, 0xd8, 0x11, 0xab, 0x84,
  0x1b, 0xe7, 0x9c, 0xd9, 0x11, 0xe7, 0xf7, 0xd4, 0xba, 0x57, 0xf8, 0xb2,
  0xb1, 0xed, 0xfa, 0x67, 0xbe, 0xc5, 0x34, 0x30, 0x15, 0x1f, 0x15, 0xa9,
  0xaa, 0x3d, 0xe1, 0x45, 0x48, 0xdf, 0x20, 0x84, 0xdd, 0x29, 0x47, 0x00,
  0x0f, 0x1a, 0x95, 0xe4, 0x59, 0xde, 0xe0, 0xf8, 0x22, 0xe1, 0x21, 0xd9,
  0x4c, 0xe6, 0x33, 0xa2, 0x5f, 0xb9, 0x1b, 0x25, 0xf9, 0xeb, 0x35, 0x1f,
  0xf9, 0xa8, 0xe6, 0x02, 0xe6, 0x19, 0xf7, 0x0d, 0x15, 0x26, 0x13, 0x4b,
  0x69, 0xf9, 0x01, 0x03, 0x2c, 0xe0, 0xeb, 0xbb, 0xf5, 0x61, 0xa8, 0x96,
  0x72, 0x13, 0xf2, 0x33, 0xa5, 0x9a, 0x29, 0x71, 0x86, 0xad, 0x37, 0xce,
  0x22, 0xec, 0x63, 0xd9, 0x2f, 0xfc, 0xb3, 0xfa, 0x95, 0x4d, 0xe3, 0x2b,
  0xfc, 0x3d, 0x6a, 0xab, 0x2c, 0xb4, 0x30, 0x1d, 0xe1, 0x12, 0xa8, 0x7f,
  0x37, 0xf9, 0x30, 0x22, 0x8f, 0xe5, 0x37, 0x5d, 0xa8, 0x1b, 0x2f, 0xab,
  0x0e, 0x4b, 0x0e, 0x03, 0x53, 0xe0, 0xfc, 0xec, 0x6a, 0x03, 0xc5, 0xfa,
  0xc7, 0x07, 0x1f, 0xae, 0xd4, 0xfb, 0x21, 0x4d, 0x38, 0x04, 0x1c, 0x58,
  0x0f, 0x50, 0x0d, 0x2c, 0x01, 0xd2, 0x8c, 0x56, 0xd1, 0x23, 0x55, 0x1b,
  0xbb, 0x99, 0xd1, 0x0f, 0xdf, 0x96, 0xa2, 0xee, 0x46, 0x12, 0x92, 0xba,
  0xad, 0x9d, 0x3d, 0x7f, 0xc6, 0x3f, 0x65, 0x92, 0xd3, 0x11, 0xd5, 0x0c,
  0x0e, 0x87, 0x11, 0xfe, 0x29, 0xc7, 0xf4, 0x56, 0xfd, 0xe6, 0xd3, 0x4b,
  0x11, 0x51, 0xc8, 0x16, 0x1e, 0x05, 0xe6, 0xdd, 0xac, 0xda, 0x51, 0x19,
  0x0a, 0xd9, 0xb6, 0x3c, 0xfa, 0x0e, 0x57, 0xa8, 0xf2, 0x62, 0xa4, 0xc2,
  0xd9, 0x07, 0x29, 0x97, 0x91, 0x2d, 0x2e, 0x25, 0xb6, 0x98, 0x8a, 0x5a,
  0xea, 0x6b, 0x9c, 0xe8, 0x5a, 0x1b, 0x1e, 0x2a, 0xfc, 0xac, 0x3d, 0x6d,
  0x4f, 0xaf, 0xb8, 0x02, 0x03, 0x29, 0x48, 0xe3, 0xcd, 0xdd, 0x00, 0xd0,
  0x59, 0x04, 0xf0, 0xa3, 0xce, 0xb5, 0xca, 0xcb, 0xfb, 0xb4, 0xda, 0xec,
  0xf9, 0x0b, 0x07, 0x3b, 0x9d, 0x46, 0x31, 0x37, 0x20, 0xa7, 0xe8, 0xca,
  0xdf, 0xc3, 0x49, 0xc0, 0xa9, 0x60, 0x44, 0x16, 0x47, 0x1b, 0xfa, 0xbb,
  0xed, 0x12, 0xca, 0x2a, 0x4a, 0xf0, 0x9c, 0x21, 0xcb, 0xb5, 0x0a, 0x29,
  0xf2, 0x98, 0x73, 0x98, 0xf3, 0xaf, 0x87, 0x50, 0x79, 0x5e, 0xf6, 0xc2,
  0xf4, 0x42, 0x20, 0xc4, 0x46, 0x3a, 0xdd, 0x81, 0xdd, 0x0d, 0x34, 0xde,
  0x0b, 0x94, 0xcc, 0x0c, 0x0a, 0xdc, 0xe2, 0x04, 0x44, 0xfa, 0xf0, 0xd9,
  0xd3, 0xd0, 0x39, 0xda, 0xa7, 0x4a, 0x1b, 0xc2, 0x3a, 0xc2, 0x08, 0xcb,
  0x3d, 0xa0, 0xd1, 0x13, 0xb7, 0x1d, 0xce, 0xd9, 0x09, 0x9e, 0x2a, 0x22,
  0xb0, 0x17, 0x19, 0x9c, 0x25, 0x4a, 0xd8, 0xa7, 0xaf, 0xaf, 0xcb, 0x42,
  0x0b, 0x2f, 0x86, 0x09, 0x4e, 0x4b, 0x12, 0xa6, 0x2e, 0xb6, 0xe8, 0x22,
  0x21, 0x36, 0xdb, 0xdb, 0xa4, 0xf4, 0x06, 0xc1, 0x0b, 0x81, 0xdc, 0x1f,
  0x6e, 0x1d, 0xad, 0xd2, 0xed, 0x1a, 0x18, 0xfd, 0xc4, 0x02, 0x10, 0xb0,
  0x0c, 0x10, 0x2f, 0xd7, 0xcf, 0x46, 0x1e, 0x31, 0x10, 0xb7, 0xf7, 0x0d,
  0xb5, 0xd1, 0x2d, 0x70, 0xed, 0x50, 0xbd, 0xbe, 0xc2, 0xaf, 0xc7, 0x44,
  0x4e, 0x40, 0x37, 0xf0, 0xc1, 0x07, 0xb1, 0x0a, 0xdf, 0x03, 0x97, 0xe2,
  0xd8, 0x71, 0x55, 0x4e, 0x5f, 0x4d, 0x1b, 0xbb, 0x89, 0x14, 0x41, 0x13,
  0x7f, 0xef, 0x39, 0x01, 0xa6, 0x52, 0x39, 0xc3, 0x53, 0xea, 0xda, 0x2c,
  0x54, 0xb8, 0x55, 0x34, 0xb4, 0x13, 0x22, 0x91, 0x5b, 0x44, 0x7f, 0x2b,
  0x02, 0x34, 0xd8, 0xb1, 0xe8, 0x23, 0x5c, 0x12, 0x63, 0x47, 0xe4, 0xb5,
  0x96, 0xed, 0xe7, 0xd5, 0xe2, 0x27, 0xe5, 0xbf, 0x25, 0x64, 0x29, 0x68,
  0x32, 0x07, 0x2d, 0x9a, 0xda, 0xd6, 0xbf, 0x22, 0xe4, 0x0e, 0xd0, 0x11,
  0xfc, 0x0f, 0xcb, 0xed, 0xce, 0xa1, 0xee, 0x07, 0x75, 0x20, 0x34, 0x3e,
  0xb0, 0xf2, 0x57, 0x41, 0xad, 0x38, 0xb6, 0x21, 0x21, 0x32, 0x44, 0x4a,
  0xe6, 0xda, 0x3a, 0x7f, 0xa7, 0x9a, 0xec, 0x8f, 0xc1, 0xd1, 0xfe, 0xe9,
  0xda, 0xc4, 0xf8, 0x4a, 0x3c, 0xd4, 0x2b, 0xcd, 0x12, 0xae, 0xa8, 0x10,
  0x39, 0x05, 0xed, 0x1b, 0xe5, 0x01, 0xfe, 0x16, 0xc5, 0x2c, 0x30, 0x42,
  0x95, 0x35, 0xd5, 0xeb, 0x1e, 0x0e, 0xeb, 0x0d, 0xf7, 0xcb, 0x04, 0x24,
  0x00, 0x19, 0x1a, 0xcd, 0xf8, 0xc0, 0x48, 0x3c, 0x20, 0xd5, 0x2e, 0x4b,
  0x1f, 0xa8, 0xf0, 0x09, 0x03, 0x52, 0x9c, 0x6f, 0xa7, 0x41, 0x17, 0xc1,
  0xe4, 0xf5, 0xae, 0xed, 0x3d, 0x3b, 0xb9, 0xac, 0xff, 0x1e, 0x1b, 0x0e,
  0x4e, 0x57, 0xe9, 0xd6, 0x1d, 0xc1, 0x5c, 0x10, 0x81, 0x0f, 0x01, 0xce,
  0xde, 0x3c, 0xf0, 0xcc, 0x39, 0x29, 0xd5, 0x4d, 0x0c, 0x32, 0xe8, 0x40,
  0x30, 0x5e, 0xd2, 0xa2, 0xfe, 0x3a, 0xe6, 0xcb, 0xbc, 0x1c, 0xb5, 0x13,
  0xff, 0xb6, 0xfe, 0x41, 0xf7, 0xc3, 0xc3, 0xe3, 0x39, 0x0f, 0x5c, 0xa3,
  0xef, 0xb5, 0x09, 0x20, 0xe8, 0x1c, 0xd5, 0x54, 0x43, 0xd6, 0xb5, 0xc2,
  0xa1, 0xb1, 0x59, 0x08, 0xc9, 0xc2, 0x00, 0x92, 0x2c, 0xe5, 0xc3, 0xdc,
  0xa2, 0xe1, 0x23, 0x58, 0x05, 0x1b, 0xfc, 0x01, 0xc4, 0xa7, 0x3b, 0x16,
  0x32, 0xd2, 0x2a, 0x3b, 0x56, 0x9a, 0xe6, 0xee, 0x9a, 0xc3, 0xed, 0x91,
  0x36, 0x13, 0xaa, 0x62, 0xfd, 0x6b, 0x84, 0x24, 0x05, 0x47, 0x61, 0xae,
  0x8e, 0xb1, 0x46, 0xaf, 0xd2, 0x20, 0x2b, 0xf2, 0x13, 0xa3, 0xd3, 0x6f,
  0x7e, 0x08, 0x1a, 0xf8, 0x9a, 0xca, 0x99, 0xb4, 0x4b, 0x1e, 0xef, 0x3c,
  0x34, 0x50, 0xe3, 0xcc, 0x40, 0x2c, 0x4b, 0x01, 0x24, 0xcc, 0x23, 0x43,
  0x36, 0x93, 0x0e, 0x0a, 0xc6, 0x8b, 0xb9, 0x4c, 0x75, 0xdf, 0x1a, 0x6a,
  0x81, 0x45, 0xd1, 0xa9, 0xfa, 0xc7, 0xb3, 0xbd, 0xfd, 0xf5, 0xef, 0xb1,
  0xc5, 0xd2, 0xb0, 0xcf, 0x0f, 0xf6, 0x30, 0x4f, 0xdc, 0x3a, 0x99, 0xb3,
  0xbc, 0xdb, 0x1b, 0x27, 0x4b, 0x0c, 0xdb, 0x81, 0xb5, 0xe2, 0xb8, 0xa2,
  0xf9, 0xb9, 0x94, 0xd6, 0xb5, 0xf1, 0x79, 0x32, 0x2b, 0x61, 0x29, 0x2e,
  0x36, 0x7f, 0x51, 0xb5, 0xb6, 0x07, 0x30, 0x2a, 0xe4, 0xd0, 0x15, 0x0a,
  0xd1, 0x11, 0xe9, 0xf8, 0xeb, 0x0b, 0x30, 0xc0, 0x3f, 0xfa, 0xeb, 0x93,
  0x56, 0xbf, 0x4f, 0x1e, 0x0c, 0x57, 0xed, 0xd8, 0xef, 0xd5, 0xa3, 0xe0,
  0xe9, 0x94, 0x08, 0xed, 0x05, 0x0d, 0x10, 0x35, 0x49, 0xf6, 0xd9, 0xd2,
  0xdd, 0x16, 0xf8, 0x1a, 0x3f, 0xc2, 0xd7, 0x23, 0x2d, 0x2d, 0xe8, 0xdd,
  0xbc, 0x35, 0xc1, 0x30, 0x45, 0xef, 0xf3, 0xb9, 0xca, 0x31, 0x16, 0x2d,
  0xd1, 0x45, 0xd5, 0x33, 0x08, 0xd2, 0x1e, 0x23, 0xd8, 0x49, 0xc7, 0xc5,
  0xc4, 0x33, 0xa6, 0xb7, 0xf6, 0xdc, 0xb3, 0x1a, 0x14, 0xae, 0xbc, 0x2b,
  0x3f, 0xb9, 0x3a, 0x41, 0xdd, 0xd9, 0xc8, 0xb1, 0x00, 0x09, 0xe4, 0x2a,
  0x0e, 0x2a, 0x3b, 0xfb, 0x1a, 0xdd, 0x83, 0x0b, 0x44, 0xcd, 0x95, 0xcb,
  0xa7, 0x0a, 0xdf, 0xd6, 0xe9, 0x38, 0x9c, 0x3b, 0x14, 0x55, 0x07, 0xde,
  0x81, 0xda, 0xf0, 0x3a, 0x10, 0xf3, 0x62, 0x30, 0xbc, 0x9d, 0x34, 0x03,
  0x73, 0x49, 0x06, 0xf7, 0x39, 0xf8, 0xd3, 0xcc, 0xef, 0x48, 0x24, 0x23,
  0xbc, 0xb7, 0x12, 0x4d, 0xeb, 0xfa, 0xff, 0x07, 0xc6, 0xae, 0x33, 0x18,
  0xce, 0x7f, 0x50, 0xac, 0xd1, 0xf3, 0xda, 0x0c, 0x1a, 0x87, 0xf5, 0x1e,
  0xf4, 0xb8, 0xc9, 0xe1, 0xf5, 0xe8, 0xc4, 0x05, 0x61, 0xc7, 0x0c, 0xab,
  0xac, 0xa6, 0xdb, 0xea, 0x27, 0xb4, 0x37, 0xf6, 0x23, 0x67, 0x9a, 0x09,
  0x2f, 0xd6, 0xa1, 0x46, 0xf7, 0x81, 0xa4, 0x2e, 0x28, 0xe2, 0xc6, 0x19,
  0x2c, 0x00, 0xe3, 0xe8, 0xc6, 0x5b, 0xec, 0x52, 0xc9, 0xf7, 0x62, 0xe1,
  0xed, 0x0b, 0xdb, 0x78, 0xcc, 0x61, 0x3f, 0x8b, 0xca, 0x06, 0xdb, 0x56,
  0xff, 0x0b, 0x59, 0x07, 0xd3, 0x55, 0x13, 0x3a, 0xf9, 0x51, 0xf5, 0xfb,
  0x0c, 0xb0, 0x45, 0x5f, 0x00, 0x09, 0xe7, 0x13, 0x1f, 0xf0, 0xa7, 0x0d,
  0x22, 0xda, 0x42, 0xa9, 0x61, 0xe8, 0x41, 0xf2, 0x5c, 0x41, 0x41, 0x98,
  0x3d, 0xec, 0x09, 0xc1, 0xf5, 0x3b, 0x18, 0x17, 0x36, 0x5e, 0xee, 0x0f,
  0x69, 0x1e, 0x6d, 0xb3, 0xbc, 0x26, 0x1f, 0xf0, 0xa1, 0x15, 0x12, 0x3a,
  0x11, 0x1b, 0xe2, 0x9a, 0x2d, 0xc4, 0xc4, 0xae, 0x44, 0x74, 0x22, 0xb6,
  0x55, 0xc5, 0xca, 0x4d, 0xd4, 0x21, 0xbc, 0x42, 0x05, 0x12, 0xf2, 0xea,
  0xbc, 0xf9, 0xa5, 0xcb, 0x87, 0xed, 0xbe, 0xe6, 0x0d, 0xdf, 0xee, 0x1b,
  0x52, 0x57, 0x0d, 0x37, 0xcf, 0xf7, 0xb0, 0xf1, 0x33, 0x0f, 0x59, 0xf3,
  0x81, 0x47, 0xa2, 0x5a, 0x08, 0xe2, 0x08, 0xb9, 0xba, 0x2a, 0xba, 0x52,
  0xe8, 0x28, 0x23, 0xb3, 0x10, 0x39, 0x98, 0xc8, 0x91, 0x06, 0x04, 0xfb,
  0xd8, 0x13, 0x71, 0x1e, 0x3b, 0xc4, 0x17, 0xce, 0x3b, 0xdd, 0x47, 0xe1,
  0x5e, 0x84, 0x41, 0xf8, 0xee, 0xdb, 0xdb, 0x43, 0xd3, 0x6a, 0xc3, 0xb6,
  0xd4, 0xf9, 0xd0, 0x02, 0x2b, 0x1e, 0x5e, 0x0d, 0x03, 0xee, 0xe0, 0xb4,
  0xd2, 0x07, 0xed, 0xbc, 0xe0, 0x59, 0x3e, 0xaf, 0xa4, 0xb9, 0xba, 0xdb,
  0xd5, 0xbc, 0xd8, 0x14, 0xc0, 0x44, 0xbe, 0x98, 0x07, 0xfd, 0xd8, 0x74,
  0xdb, 0xab, 0xe9, 0xbf, 0xc3, 0x6d, 0x32, 0xdf, 0x3c, 0xb7, 0x81, 0x42,
  0x19, 0xe6, 0x1b, 0x16, 0x04, 0x56, 0x4c, 0x0f, 0x45, 0x09, 0x42, 0x27,
  0x7f, 0x3f, 0xfb, 0x40, 0xb4, 0xf7, 0x0d, 0xeb, 0x2d, 0x33, 0x7b, 0xc5,
  0x31, 0xf2, 0x09, 0x6f, 0xc1, 0xb8, 0x15, 0x1f, 0xeb, 0x07, 0x08, 0xd9,
  0x21, 0x61, 0x56, 0x42, 0x4c, 0xca, 0x4f, 0x2c, 0x1a, 0x2d, 0x9d, 0x98,
  0xed, 0x54, 0xdb, 0xcc, 0x40, 0xc5, 0x1a, 0x60, 0xbb, 0x28, 0xe5, 0xf5,
  0x1e, 0x01, 0xba, 0x44, 0x61, 0x67, 0xdc, 0xea, 0xb5, 0x5e, 0x12, 0x06,
  0x5a, 0x56, 0xfa, 0xd6, 0xe6, 0x06, 0x0b, 0xcb, 0xe1, 0x11, 0x2f, 0xc9,
  0x62, 0x06, 0xe7, 0x13, 0x18, 0xa1, 0x0c, 0x4a, 0x2b, 0xd0, 0x0d, 0xf3,
  0x53, 0xbb, 0x1c, 0x60, 0x5d, 0x36, 0xf5, 0xea, 0x4a, 0x47, 0xf3, 0x4f,
  0xec, 0x70, 0x31, 0xfc, 0xd3, 0x12, 0xbc, 0x62, 0x44, 0x21, 0x40, 0xdf,
  0x06, 0x23, 0x01, 0x21, 0x21, 0x11, 0xeb, 0xa3, 0xed, 0x06, 0x6d, 0x22,
  0x51, 0x59, 0xd1, 0x2b, 0x2d, 0x0b, 0x05, 0x3b, 0xff, 0xd7, 0xdb, 0x12,
  0xcf, 0x3d, 0x1f, 0x4f, 0x35, 0x06, 0x4a, 0x58, 0xcc, 0x33, 0xc2, 0xc4,
  0xd4, 0x14, 0xc2, 0x8c, 0x1a, 0x53, 0xe7, 0x25, 0x22, 0x28, 0x14, 0x07,
  0x19, 0x3e, 0x0b, 0x6d, 0xda, 0xea, 0x22, 0x0b, 0x1d, 0xe9, 0x09, 0x7b,
  0xd1, 0x05, 0x0e, 0x5a, 0xf4, 0xca, 0xee, 0xee, 0x33, 0x34, 0xd7, 0xba,
  0xff, 0x4b, 0x7f, 0xd0, 0xe6, 0x3a, 0x50, 0xba, 0x1a, 0x1f, 0xcc, 0x40,
  0x59, 0xf4, 0x34, 0xba, 0xde, 0xef, 0x2e, 0x18, 0x57, 0x66, 0x0e, 0x47,
  0xc2, 0x9c, 0x54, 0xd4, 0x23, 0x73, 0x47, 0x47, 0x97, 0x4f, 0x69, 0x5d,
  0x58, 0x00, 0xf3, 0x34, 0xd3, 0x6b, 0x3e, 0x8c, 0x44, 0xdd, 0xfd, 0xdd,
  0xf0, 0x62, 0x3d, 0xef, 0x67, 0x20, 0xc5, 0xe6, 0x58, 0xe1, 0x19, 0x9b,
  0x4d, 0xbb, 0x30, 0xc9, 0x07, 0x1d, 0xb4, 0x31, 0x17, 0xf6, 0xba, 0xad,
  0xc2, 0x3e, 0xb5, 0x5a, 0xf6, 0xf7, 0xfe, 0x4c, 0xdf, 0xd8, 0xbb, 0x38,
  0xe4, 0x3e, 0x3a, 0x13, 0xe3, 0x94, 0x5f, 0x3b, 0xe2, 0xc8, 0xf9, 0xa7,
  0x24, 0x56, 0x24, 0x17, 0x14, 0xe1, 0x42, 0xea, 0x81, 0xb7, 0x59, 0x89,
  0x39, 0xef, 0x56, 0x00, 0xa0, 0x45, 0xd4, 0xe8, 0x03, 0x04, 0xfa, 0xd9,
  0xdc, 0x50, 0xcb, 0xb9, 0xfb, 0xc6, 0x81, 0xcd, 0x53, 0x32, 0xfc, 0x00,
  0xa3, 0xc6, 0x3b, 0xe7, 0xf4, 0xe3, 0x21, 0x5f, 0xd7, 0x37, 0xc7, 0xe0,
  0xe6, 0xb7, 0xe3, 0x5f, 0x13, 0xa4, 0xff, 0x17, 0x22, 0xcb, 0x16, 0x0d,
  0x47, 0xd3, 0x1e, 0xb5, 0x59, 0x24, 0xeb, 0xd8, 0xfe, 0xf1, 0x1b, 0x48,
  0xe5, 0xf2, 0xb5, 0x27, 0xc6, 0x64, 0x04, 0xb1, 0x3e, 0xba, 0xc0, 0x62,
  0x10, 0xb2, 0xc7, 0x37, 0xb7, 0xc3, 0xc5, 0x51, 0xd2, 0x58, 0xe8, 0x2f,
  0xec, 0x0b, 0x3c, 0x2f, 0xd8, 0xb7, 0x5d, 0x4e, 0xce, 0x09, 0x4f, 0xe8,
  0x52, 0xdc, 0xb2, 0xff, 0x47, 0xd2, 0xe1, 0xd1, 0x09, 0xa9, 0x0a, 0xda,
  0x1a, 0x25, 0xc0, 0x52, 0x56, 0xde, 0xf5, 0x23, 0x18, 0xf4, 0xec, 0x4a,
  0x05, 0xee, 0xc0, 0xe4, 0xe4, 0xc0, 0x0c, 0x54, 0x11, 0xf2, 0xf6, 0x31,
  0x4b, 0x2c, 0xc7, 0x2f, 0xcb, 0x04, 0x4f, 0x3a, 0x07, 0x35, 0x05, 0xce,
  0x58, 0x1a, 0x5f, 0xe4, 0xda, 0x10, 0xd2, 0x41, 0x10, 0x15, 0x05, 0x81,
  0xc5, 0x3b, 0x42, 0xde, 0xc8, 0x49, 0xc4, 0xcf, 0xfd, 0x04, 0xc6, 0xd1,
  0x29, 0x0e, 0x5b, 0xd5, 0xdf, 0x23, 0xb7, 0x29, 0x5b, 0x21, 0x57, 0x27,
  0x17, 0x05, 0x0a, 0x12, 0x12, 0x0c, 0xbc, 0x8f, 0x26, 0xfe, 0x1e, 0xd6,
  0xd2, 0x4d, 0xa1, 0x20, 0x54, 0xc6, 0x43, 0xf6, 0x9d, 0x3a, 0x00, 0xea,
  0xf7, 0x57, 0xd4, 0xde, 0x12, 0xd5, 0x33, 0x27, 0xfe, 0x26, 0xe9, 0x55,
  0xd4, 0xb1, 0xc2, 0xbd, 0xcb, 0x92, 0xe2, 0xf9, 0xe1, 0x1f, 0x86, 0xd2,
  0xde, 0x34, 0xac, 0x12, 0x31, 0x16, 0xe5, 0x48, 0x02, 0xfa, 0x5e, 0xe6,
  0x6e, 0x07, 0xd3, 0xe5, 0xe9, 0x4b, 0xc9, 0x0b, 0x1e, 0x0c, 0xd0, 0xc9,
  0xb8, 0xf6, 0x1f, 0xff, 0x25, 0xe4, 0x81, 0x48, 0x2b, 0x19, 0x30, 0x1f,
  0xb7, 0xa2, 0xda, 0xb4, 0x45, 0x08, 0xc6, 0xb5, 0x1b, 0xab, 0xf0, 0xa2,
  0xc2, 0x31, 0xa1, 0x48, 0xe2, 0x9b, 0x46, 0x99, 0xbb, 0xcc, 0x3d, 0x55,
  0xaf, 0x81, 0xa9, 0x1a, 0x2e, 0xfc, 0x53, 0x33, 0xe1, 0x22, 0xb8, 0x5c,
  0xdc, 0x40, 0xe9, 0xc6, 0xe5, 0x2f, 0xb0, 0x16, 0x49, 0x2b, 0x11, 0xbb,
  0x66, 0x3d, 0x2a, 0x16, 0x38, 0xa5, 0xe3, 0x5e, 0x36, 0x92, 0x4d, 0x41,
  0x2b, 0xc2, 0x4b, 0xdf, 0x28, 0x6b, 0xdc, 0xd8, 0xdb, 0x3e, 0x4e, 0xba,
  0x5d, 0x67, 0x61, 0x50, 0xe9, 0x61, 0x98, 0x06, 0x52, 0x41, 0xe5, 0x29,
  0xac, 0xf8, 0x1e, 0x07, 0xe2, 0x0a, 0xb4, 0xe0, 0x1c, 0x1d, 0xf3, 0xbf,
  0x2c, 0x32, 0xd1, 0xbf, 0xd7, 0xf7, 0xec, 0xe0, 0x29, 0x50, 0x46, 0x0a,
  0x4c, 0x2b, 0xa8, 0x2c, 0xc1, 0xb8, 0xf4, 0x28, 0xb6, 0x24, 0x9d, 0x1f,
  0x2f, 0x9d, 0x69, 0xea, 0xbe, 0x4b, 0xca, 0xcd, 0x46, 0x01, 0xf7, 0xcc,
  0xaa, 0xa5, 0xcd, 0xc2, 0x2c, 0xff, 0xd4, 0x0d, 0x27, 0x09, 0x97, 0x59,
  0x6b, 0xb2, 0x3a, 0xfb, 0xe5, 0xd6, 0xb0, 0xbf, 0x2d, 0xef, 0xe0, 0x3f,
  0xbe, 0xff, 0xf2, 0x52, 0x6a, 0x11, 0xd4, 0xc5, 0xb6, 0x01, 0xc3, 0xf7,
  0x00, 0xfe, 0xb6, 0x27, 0x2b, 0xdf, 0xe0, 0x35, 0xc7, 0xcb, 0x33, 0xa5,
  0x8c, 0xcf, 0xcf, 0xcf, 0x2c, 0x1d, 0xd1, 0x33, 0xc6, 0xe7, 0xd9, 0xc7,
  0x7f, 0x1c, 0xfb, 0x3d, 0x35, 0xf1, 0x5f, 0xe3, 0x16, 0xdc, 0xcd, 0xe2,
  0x02, 0xd1, 0x34, 0x3a, 0x10, 0x43, 0x52, 0x45, 0xd7, 0x35, 0xb9, 0xda,
  0xd1, 0x79, 0x09, 0x0d, 0x1c, 0xaf, 0xda, 0xe6, 0xec, 0x00, 0x4a, 0x25,
  0xcd, 0x3c, 0x35, 0x51, 0xf5, 0x35, 0xbc, 0xcf, 0xff, 0x33, 0xfd, 0xdb,
  0x1b, 0x23, 0x11, 0x43, 0x6a, 0x12, 0xce, 0x02, 0x3d, 0xf1, 0xf9, 0xd6,
  0xe7, 0xe0, 0x24, 0x2c, 0x48, 0xbc, 0x1f, 0xfa, 0x0a, 0xfa, 0x3c, 0x1a,
  0xd9, 0x4e, 0xdf, 0x36, 0xab, 0x1e, 0xd5, 0xcc, 0xc8, 0x55, 0xdb, 0x28,
  0x54, 0xa2, 0xaf, 0x9f, 0x52, 0x7f, 0x3d, 0xad, 0x30, 0x01, 0x00, 0xb9,
  0x0e, 0x2a, 0xc1, 0xa9, 0xc0, 0x4d, 0x11, 0x34, 0x40, 0x45, 0x00, 0xe0,
  0x2e, 0xa4, 0xf9, 0x19, 0xce, 0xbb, 0xd4, 0x44, 0x46, 0x44, 0x40, 0x5c,
  0x3a, 0x95, 0xcb, 0x5c, 0x7f, 0x6b, 0xc4, 0x4a, 0x2c, 0x5e, 0xc5, 0xd8,
  0x23, 0x01, 0x07, 0x9b, 0x60, 0x25, 0x13, 0xd0, 0x97, 0xd0, 0xa0, 0x52,
  0x26, 0x37, 0xc4, 0xa3, 0xc2, 0xe4, 0x29, 0xc3, 0x43, 0xb9, 0x3b, 0x4d,
  0x39, 0xa8, 0x16, 0xa7, 0xaf, 0x23, 0x31, 0xcb, 0xe7, 0xab, 0x01, 0xd7,
  0x23, 0xb8, 0x40, 0x63, 0x30, 0xda, 0xcd, 0xcd, 0x22, 0x12, 0x31, 0x02,
  0x2b, 0xe4, 0x30, 0x4b, 0x2b, 0x87, 0xc8, 0x46, 0xeb, 0xea, 0xca, 0x39,
  0x04, 0x26, 0x04, 0x3f, 0xb7, 0xd5, 0x9a, 0xba, 0x27, 0x68, 0x26, 0xf3,
  0x37, 0x08, 0xac, 0x0a, 0x05, 0x35, 0xb5, 0x45, 0xd8, 0x50, 0x31, 0xaf,
  0x2e, 0x06, 0x2c, 0x2b, 0xd1, 0xdb, 0x30, 0x1f, 0x17, 0x26, 0xaf, 0x1e,
  0xb9, 0xc4, 0xf5, 0x38, 0xdc, 0x44, 0x59, 0xfd, 0x01, 0xda, 0x34, 0x19,
  0x11, 0x1e, 0xd6, 0xbc, 0x81, 0xcc, 0xde, 0x42, 0xe6, 0x45, 0x0f, 0xad,
  0xcb, 0xd5, 0x00, 0xe4, 0x2a, 0x40, 0xdf, 0x1d, 0xdb, 0x93, 0x11, 0xfc,
  0x15, 0xf8, 0x03, 0x5b, 0xd9, 0x1c, 0x01, 0x58, 0x5e, 0xb7, 0x40, 0xcb,
  0xa1, 0x50, 0x2f, 0x1b, 0x5d, 0x3e, 0xdb, 0x23, 0x94, 0x11, 0xea, 0xd3,
  0x0a, 0x5a, 0xc0, 0x36, 0x45, 0x47, 0x20, 0x4e, 0x40, 0xe9, 0x0a, 0xf3,
  0xd5, 0x73, 0x1a, 0xeb, 0x60, 0x03, 0xf8, 0x0b, 0xf0, 0x49, 0x3a, 0xa0,
  0x20, 0x06, 0x20, 0x3f, 0x67, 0xe7, 0xb4, 0x5b, 0xa6, 0x3b, 0xcb, 0x00,
  0x66, 0xa7, 0x12, 0x47, 0x3f, 0xd3, 0xec, 0x28, 0xb5, 0x5f, 0x73, 0x2d,
  0x20, 0xbe, 0x51, 0xf5, 0x66, 0x86, 0x54, 0x4d, 0x3f, 0x7f, 0xf2, 0xbc,
  0x63, 0x29, 0xf5, 0xaa, 0x20, 0x35, 0xa5, 0x47, 0x18, 0xe3, 0x9b, 0x1e,
  0xe0, 0x2b, 0x18, 0xc5, 0x0c, 0x09, 0x39, 0xb7, 0xbe, 0x06, 0x96, 0xaa,
  0x41, 0xc6, 0x3c, 0x3d, 0x09, 0xe7, 0xf7, 0xcf, 0x36, 0xf5, 0xac, 0x38,
  0xf0, 0xa5, 0x56, 0x20, 0x23, 0xeb, 0x01, 0x10, 0xcd, 0x6a, 0x09, 0x3d,
  0xb8, 0x2e, 0x7e, 0x31, 0x88, 0x13, 0x2b, 0xc9, 0x62, 0x8d, 0xcc, 0x36,
  0x0b, 0x83, 0x2a, 0xe5, 0x39, 0xbf, 0x23, 0xff, 0xd7, 0x4a, 0x04, 0x1d,
  0xa1, 0x4b, 0xc4, 0xb7, 0x2c, 0xd9, 0xe9, 0x1a, 0x8e, 0x28, 0xe1, 0x09,
  0xd3, 0x01, 0x29, 0xd2, 0xf5, 0xdb, 0x2d, 0xc1, 0x95, 0xeb, 0x1e, 0x3a,
  0x67, 0x13, 0xc3, 0x42, 0x27, 0x06, 0x37, 0xf8, 0x07, 0x0c, 0x56, 0x98,
  0xd5, 0x45, 0x21, 0x20, 0xd5, 0x01, 0xec, 0x19, 0xbb, 0xd9, 0x34, 0xe0,
  0x2c, 0xb1, 0x0b, 0xf1, 0x26, 0xdc, 0x81, 0x1b, 0x2d, 0x30, 0xf6, 0xc3,
  0xb3, 0xaa, 0x3f, 0xf9, 0x31, 0xe3, 0x16, 0x08, 0xbd, 0xc1, 0x48, 0xd0,
  0x0e, 0x49, 0x30, 0x2b, 0xd7, 0x34, 0x41, 0x8a, 0xcc, 0x25, 0xe5, 0xe3,
  0x04, 0xdc, 0xf9, 0x0c, 0xbd, 0xf5, 0x6b, 0xe5, 0xfb, 0x16, 0xec, 0xbc,
  0x29, 0x2f, 0x3a, 0x28, 0xb0, 0x8c, 0x82, 0xa1, 0x29, 0xe8, 0x20, 0x22,
  0x3d, 0x46, 0xda, 0xba, 0x96, 0x11, 0x9e, 0xdc, 0x52, 0xd6, 0xab, 0x0a,
  0x86, 0xfc, 0x26, 0x55, 0xf2, 0xb2, 0xd7, 0x4f, 0x54, 0xc8, 0xf2, 0xbd,
  0x56, 0xe1, 0x81, 0xce, 0x44, 0x67, 0xd0, 0x47, 0xfe, 0xf2, 0x17, 0x01,
  0xcb, 0x9e, 0x25, 0x39, 0x62, 0x0f, 0x6f, 0xb5, 0x2e, 0xac, 0xc5, 0x11,
  0x61, 0xf5, 0x90, 0xca, 0xa5, 0x26, 0x30, 0xc6, 0x50, 0xc6, 0xe4, 0x0c,
  0x2c, 0xc3, 0xb1, 0xbf, 0x44, 0xc1, 0x4b, 0x59, 0xde, 0x0c, 0xf0, 0xe5,
  0xb8, 0x81, 0xa6, 0xf5, 0x55, 0xd0, 0x29, 0xe7, 0xb0, 0x18, 0xf0, 0x4b,
  0xa9, 0xf7, 0xcc, 0xb4, 0xce, 0xaa, 0xdf, 0x05, 0x89, 0xed, 0xac, 0xd9,
  0x58, 0x2e, 0x29, 0xad, 0xc7, 0xf7, 0x4b, 0x34, 0x8a, 0xda, 0x18, 0x13,
  0xc1, 0xef, 0xaf, 0xad, 0x3d, 0x36, 0x04, 0xcb, 0xbd, 0x5a, 0x06, 0xfe,
  0xed, 0x2f, 0x31, 0x57, 0x2a, 0x1a, 0x13, 0x95, 0xfe, 0x4f, 0x48, 0x08,
  0x34, 0x3d, 0xd5, 0x25, 0xb2, 0x16, 0xfa, 0xcf, 0x4f, 0x32, 0xc6, 0x89,
  0xe4, 0xdc, 0xa6, 0xdb, 0xc6, 0xae, 0x99, 0x0f, 0x36, 0x02, 0x4a, 0x29,
  0xb2, 0xcb, 0xdd, 0x2e, 0xe6, 0x9e, 0x02, 0xf5, 0xcd, 0x54, 0x31, 0xd4,
  0x02, 0xfb, 0xff, 0xff, 0x04, 0x00, 0x00, 0x00, 0x80, 0x00, 0x00, 0x00,
  0x5d, 0x02, 0x00, 0x00, 0x2c, 0x04, 0x00, 0x00, 0xc3, 0x01, 0x00, 0x00,
  0x8b, 0x03, 0x00, 0x00, 0xcd, 0x00, 0x00, 0x00, 0x9a, 0x01, 0x00, 0x00,
  0xee, 0x03, 0x00, 0x00, 0x31, 0xfc, 0xff, 0xff, 0x10, 0x03, 0x00, 0x00,
  0x46, 0xfb, 0xff, 0xff, 0xee, 0x00, 0x00, 0x00, 0x22, 0x00, 0x00, 0x00,
  0x95, 0x04, 0x00, 0x00, 0x9b, 0x04, 0x00, 0x00, 0xae, 0x00, 0x00, 0x00,
  0xfc, 0xff, 0xff, 0xff, 0x92, 0x00, 0x00, 0x00, 0x62, 0x03, 0x00, 0x00,
  0xeb, 0x00, 0x00, 0x00, 0xd6, 0x01, 0x00, 0x00, 0xd9, 0xfb, 0xff, 0xff,
  0x26, 0x05, 0x00, 0x00, 0xe7, 0xfd, 0xff, 0xff, 0x57, 0x01, 0x00, 0x00,
  0xec, 0xfa, 0xff, 0xff, 0xf3, 0xfa, 0xff, 0xff, 0xb9, 0x04, 0x00, 0x00,
  0xf7, 0x01, 0x00, 0x00, 0xc7, 0x00, 0x00, 0x00, 0x65, 0xff, 0xff, 0xff,
  0x45, 0x00, 0x00, 0x00, 0xb3, 0xff, 0xff, 0xff, 0x8e, 0xfb, 0xff, 0xff,
  0x04, 0x00, 0x00, 0x00, 0x20, 0x00, 0x00, 0x00, 0xdd, 0x26, 0x0f, 0x3d,
  0xe3, 0x2c, 0xfb, 0x7f, 0xec, 0x12, 0x36, 0xe9, 0xf2, 0x1d, 0xf5, 0x0b,
  0x03, 0xcd, 0xc9, 0x04, 0x09, 0xdf, 0x32, 0x01, 0x63, 0x23, 0xfd, 0xe1,
  0xd3, 0x12, 0x43, 0x44, 0xba, 0xfb, 0xff, 0xff, 0x04, 0x00, 0x00, 0x00,
  0x20, 0x00, 0x00, 0x00, 0xd8, 0xce, 0xad, 0x80, 0xec, 0xcb, 0xb0, 0x19,
  0xc7, 0x29, 0xc8, 0xf0, 0xfe, 0xaf, 0x03, 0xeb, 0x15, 0xf0, 0xd2, 0xc8,
  0x0b, 0xb6, 0xf7, 0xcb, 0xf9, 0x06, 0xd3, 0xd2, 0xdf, 0xf1, 0xbf, 0xea,
  0xe6, 0xfb, 0xff, 0xff, 0x04, 0x00, 0x00, 0x00, 0x00, 0x02, 0x00, 0x00,
  0xb0, 0xcd, 0x48, 0x2c, 0xa2, 0xf2, 0xa3, 0x02, 0x4d, 0x44, 0x81, 0x3a,
  0x23, 0x25, 0xfe, 0xf4, 0xb3, 0xf1, 0xbf, 0xec, 0xee, 0x90, 0x94, 0xfe,
  0x6d, 0xec, 0x41, 0x14, 0xc5, 0xd6, 0x26, 0x44, 0xe8, 0x06, 0xd0, 0xb9,
  0xc2, 0x05, 0xe5, 0x7f, 0xdc, 0x62, 0x27, 0xc9, 0x38, 0x3c, 0xf9, 0x53,
  0x2e, 0x2c, 0xec, 0x6f, 0x12, 0xea, 0xb4, 0x58, 0x13, 0xe2, 0xfc, 0x4f,
  0x21, 0x46, 0xc9, 0xb5, 0x20, 0xea, 0x5f, 0x2e, 0xf6, 0x03, 0xc6, 0xda,
  0x03, 0xab, 0x10, 0xfb, 0xfa, 0x4d, 0x97, 0x32, 0xd3, 0xe7, 0x8e, 0xc3,
  0xd9, 0x13, 0xef, 0x72, 0xb2, 0x81, 0x20, 0xc2, 0xe1, 0x68, 0xca, 0x7f,
  0x4e, 0x10, 0x17, 0xbe, 0x02, 0x68, 0xae, 0x68, 0x19, 0x6b, 0x96, 0x6c,
  0xd7, 0xde, 0x71, 0x0b, 0xdb, 0x36, 0xca, 0xd8, 0x5f, 0xcd, 0xe0, 0x8f,
  0xe3, 0x5f, 0x91, 0xfb, 0x7f, 0xc8, 0x9c, 0x31, 0xcd, 0xa0, 0xf2, 0xe6,
  0x1c, 0xda, 0xb6, 0x7f, 0xe9, 0x48, 0xa1, 0xe7, 0xf8, 0x24, 0xce, 0x26,
  0xca, 0x43, 0x24, 0x5d, 0xa4, 0x34, 0x3b, 0x1a, 0x5a, 0x22, 0x0e, 0x2b,
  0xfc, 0x18, 0x5d, 0xaf, 0xfa, 0x11, 0xa3, 0x98, 0xf6, 0x9d, 0x7f, 0xc9,
  0xd4, 0xd7, 0x4d, 0x93, 0x58, 0xa4, 0xd0, 0x9f, 0xe4, 0x75, 0xf5, 0x65,
  0xd9, 0x4a, 0xb3, 0xf9, 0x9b, 0xbc, 0x56, 0x31, 0x2e, 0x4e, 0x8f, 0x85,
  0xe6, 0xef, 0x35, 0xf7, 0x53, 0x41, 0xd2, 0x04, 0xe8, 0x09, 0x99, 0x16,
  0x03, 0x17, 0x99, 0xf6, 0xdc, 0xaa, 0xc3, 0x00, 0xea, 0x9c, 0x81, 0xef,
  0x4b, 0xad, 0xec, 0x33, 0xf6, 0x9b, 0xf6, 0xe9, 0x7d, 0xee, 0x81, 0xf3,
  0x63, 0x1a, 0x79, 0xb9, 0xe2, 0x56, 0xfd, 0x29, 0x78, 0x5a, 0x68, 0xce,
  0xa3, 0x9a, 0xd4, 0x7f, 0x20, 0x49, 0x3f, 0x95, 0xd5, 0x01, 0x49, 0x21,
  0x0d, 0x34, 0xba, 0x12, 0xbe, 0x55, 0x94, 0xe0, 0x6d, 0x43, 0x01, 0xc4,
  0x5e, 0x0e, 0xd9, 0xf8, 0xfc, 0x32, 0x2a, 0x16, 0x60, 0x7f, 0x66, 0xf5,
  0x62, 0x1e, 0xe6, 0x86, 0xac, 0xf8, 0x48, 0x53, 0x52, 0x1e, 0xec, 0x84,
  0x40, 0x87, 0x73, 0xf1, 0xed, 0x31, 0xc7, 0xd1, 0x24, 0x34, 0x07, 0x4e,
  0x1e, 0x65, 0xbe, 0x5e, 0x3a, 0x8c, 0xdb, 0xed, 0x28, 0xdc, 0x7f, 0x5c,
  0x56, 0xbd, 0x47, 0x9a, 0xe5, 0x4b, 0x10, 0x6a, 0xdc, 0x35, 0xdf, 0xff,
  0x0b, 0x7b, 0xa0, 0xe9, 0xff, 0x5e, 0x86, 0x03, 0xca, 0x2f, 0x1a, 0xa5,
  0x34, 0xba, 0x05, 0xa0, 0x30, 0xab, 0xd3, 0xe1, 0xc4, 0x3d, 0x81, 0x98,
  0xea, 0xb7, 0x5e, 0x92, 0x2c, 0x72, 0xc3, 0xe3, 0xfc, 0x4b, 0xae, 0xc5,
  0xf6, 0xb7, 0x3f, 0x0b, 0x1a, 0x1a, 0x3f, 0x30, 0x7e, 0x40, 0xdc, 0xc0,
  0x23, 0x34, 0x59, 0x06, 0x87, 0x7f, 0xae, 0x2b, 0xd3, 0xbb, 0xf5, 0x06,
  0xed, 0xec, 0xd4, 0x37, 0xd4, 0x13, 0x88, 0x4d, 0x6f, 0xb8, 0xfe, 0x61,
  0x1d, 0x37, 0xe2, 0x5e, 0xb6, 0xa3, 0x9e, 0xba, 0x85, 0xc9, 0xce, 0xdf,
  0xc6, 0x87, 0xab, 0xc0, 0xef, 0x7f, 0xe3, 0x13, 0x00, 0xb1, 0xc4, 0xfc,
  0x63, 0xa2, 0x16, 0xed, 0xe2, 0x5c, 0x40, 0xae, 0xe2, 0xbf, 0xdd, 0x30,
  0x56, 0x39, 0x56, 0x7f, 0x9a, 0xfa, 0x27, 0x0c, 0xe7, 0xcd, 0x2e, 0xfc,
  0x41, 0xc0, 0x85, 0xfe, 0xd8, 0x29, 0x11, 0x03, 0xdd, 0xf9, 0xcf, 0xc9,
  0x6b, 0xed, 0x73, 0x66, 0x7f, 0xc9, 0x41, 0x69, 0xed, 0x26, 0xc7, 0xa6,
  0xe2, 0xee, 0x4b, 0x51, 0x92, 0x48, 0x3b, 0x98, 0x47, 0x7c, 0xea, 0xe7,
  0xcd, 0xf4, 0x2d, 0xbe, 0x8d, 0x3f, 0xb6, 0xc7, 0x62, 0xdd, 0x38, 0x2c,
  0x1e, 0x75, 0x98, 0x66, 0xdb, 0x2b, 0xeb, 0xb6, 0xa1, 0x0d, 0x93, 0x45,
  0x19, 0x22, 0xfb, 0xac, 0x81, 0x2f, 0xeb, 0xf3, 0xf2, 0xfd, 0xff, 0xff,
  0x04, 0x00, 0x00, 0x00, 0x40, 0x00, 0x00, 0x00, 0x91, 0x06, 0x00, 0x00,
  0xa3, 0x01, 0x00, 0x00, 0x17, 0x08, 0x00, 0x00, 0xbc, 0x02, 0x00, 0x00,
  0x59, 0x06, 0x00, 0x00, 0xfb, 0x04, 0x00, 0x00, 0x40, 0x02, 0x00, 0x00,
  0xa4, 0x06, 0x00, 0x00, 0xea, 0x09, 0x00, 0x00, 0x05, 0x07, 0x00, 0x00,
  0x76, 0x08, 0x00, 0x00, 0x9e, 0x06, 0x00, 0x00, 0x1c, 0x09, 0x00, 0x00,
  0xe3, 0x03, 0x00, 0x00, 0xb0, 0x07, 0x00, 0x00, 0x9f, 0x09, 0x00, 0x00,
  0x3e, 0xfe, 0xff, 0xff, 0x04, 0x00, 0x00, 0x00, 0x40, 0x00, 0x00, 0x00,
  0xbc, 0x56, 0xd6, 0x20, 0x70, 0x7f, 0xf6, 0x72, 0x37, 0xca, 0xad, 0xe0,
  0x9b, 0x77, 0xa8, 0xcf, 0xf5, 0xd7, 0x4d, 0x92, 0xde, 0x9e, 0xd4, 0x0c,
  0xab, 0x5c, 0x81, 0x32, 0x20, 0xe7, 0x22, 0x57, 0x35, 0x7f, 0x22, 0xa3,
  0x7c, 0xc6, 0x15, 0xa2, 0xed, 0x30, 0x33, 0xe8, 0x17, 0x10, 0x95, 0x77,
  0x9e, 0xf1, 0xa6, 0x7e, 0x99, 0x0b, 0xc7, 0xa6, 0x39, 0x08, 0x73, 0x7f,
  0xa4, 0x9e, 0x0b, 0x3e, 0x8a, 0xfe, 0xff, 0xff, 0x04, 0x00, 0x00, 0x00,
  0x10, 0x00, 0x00, 0x00, 0x34, 0xfe, 0xff, 0xff, 0xa5, 0x00, 0x00, 0x00,
  0xf9, 0x00, 0x00, 0x00, 0xba, 0xff, 0xff, 0xff, 0xa6, 0xfe, 0xff, 0xff,
  0x04, 0x00, 0x00, 0x00, 0x0c, 0x00, 0x00, 0x00, 0xff, 0xff, 0xff, 0xff,
  0x25, 0x00, 0x00, 0x00, 0x20, 0x00, 0x00, 0x00, 0xbe, 0xfe, 0xff, 0xff,
  0x04, 0x00, 0x00, 0x00, 0x0c, 0x00, 0x00, 0x00, 0xff, 0xff, 0xff, 0xff,
  0x4b, 0x00, 0x00, 0x00, 0x20, 0x00, 0x00, 0x00, 0xd6, 0xfe, 0xff, 0xff,
  0x04, 0x00, 0x00, 0x00, 0x0c, 0x00, 0x00, 0x00, 0xff, 0xff, 0xff, 0xff,
  0x4b, 0x00, 0x00, 0x00, 0x10, 0x00, 0x00, 0x00, 0xee, 0xfe, 0xff, 0xff,
  0x04, 0x00, 0x00, 0x00, 0x04, 0x00, 0x00, 0x00, 0x01, 0x00, 0x00, 0x00,
  0xfe, 0xfe, 0xff, 0xff, 0x04, 0x00, 0x00, 0x00, 0x0c, 0x00, 0x00, 0x00,
  0xff, 0xff, 0xff, 0xff, 0x96, 0x00, 0x00, 0x00, 0x10, 0x00, 0x00, 0x00,
  0x16, 0xff, 0xff, 0xff, 0x04, 0x00, 0x00, 0x00, 0x04, 0x00, 0x00, 0x00,
  0xfd, 0xff, 0xff, 0xff, 0x28, 0xce, 0xff, 0xff, 0x2c, 0xce, 0xff, 0xff,
  0x0f, 0x00, 0x00, 0x00, 0x4d, 0x4c, 0x49, 0x52, 0x20, 0x43, 0x6f, 0x6e,
  0x76, 0x65, 0x72, 0x74, 0x65, 0x64, 0x2e, 0x00, 0x01, 0x00, 0x00, 0x00,
  0x14, 0x00, 0x00, 0x00, 0x00, 0x00, 0x0e, 0x00, 0x18, 0x00, 0x14, 0x00,
  0x10, 0x00, 0x0c, 0x00, 0x08, 0x00, 0x04, 0x00, 0x0e, 0x00, 0x00, 0x00,
  0x14, 0x00, 0x00, 0x00, 0x1c, 0x00, 0x00, 0x00, 0x94, 0x05, 0x00, 0x00,
  0x98, 0x05, 0x00, 0x00, 0x9c, 0x05, 0x00, 0x00, 0x04, 0x00, 0x00, 0x00,
  0x6d, 0x61, 0x69, 0x6e, 0x00, 0x00, 0x00, 0x00, 0x19, 0x00, 0x00, 0x00,
  0x4c, 0x05, 0x00, 0x00, 0xec, 0x04, 0x00, 0x00, 0xa8, 0x04, 0x00, 0x00,
  0x74, 0x04, 0x00, 0x00, 0x4c, 0x04, 0x00, 0x00, 0x10, 0x04, 0x00, 0x00,
  0xbc, 0x03, 0x00, 0x00, 0x94, 0x03, 0x00, 0x00, 0x64, 0x03, 0x00, 0x00,
  0x20, 0x03, 0x00, 0x00, 0xec, 0x02, 0x00, 0x00, 0xb8, 0x02, 0x00, 0x00,
  0x90, 0x02, 0x00, 0x00, 0x60, 0x02, 0x00, 0x00, 0x1c, 0x02, 0x00, 0x00,
  0xf4, 0x01, 0x00, 0x00, 0xc4, 0x01, 0x00, 0x00, 0x80, 0x01, 0x00, 0x00,
  0x4c, 0x01, 0x00, 0x00, 0x18, 0x01, 0x00, 0x00, 0xf0, 0x00, 0x00, 0x00,
  0xbc, 0x00, 0x00, 0x00, 0x78, 0x00, 0x00, 0x00, 0x40, 0x00, 0x00, 0x00,
  0x04, 0x00, 0x00, 0x00, 0x82, 0xfb, 0xff, 0xff, 0x1c, 0x00, 0x00, 0x00,
  0x00, 0x00, 0x00, 0x09, 0x1c, 0x00, 0x00, 0x00, 0x20, 0x00, 0x00, 0x00,
  0x08, 0x00, 0x00, 0x00, 0x00, 0x00, 0x06, 0x00, 0x08, 0x00, 0x04, 0x00,
  0x06, 0x00, 0x00, 0x00, 0x00, 0x00, 0x80, 0x3f, 0x01, 0x00, 0x00, 0x00,
  0x2f, 0x00, 0x00, 0x00, 0x01, 0x00, 0x00, 0x00, 0x2e, 0x00, 0x00, 0x00,
  0xba, 0xfb, 0xff, 0xff, 0x14, 0x00, 0x00, 0x00, 0x00, 0x00, 0x00, 0x08,
  0x10, 0x00, 0x00, 0x00, 0x14, 0x00, 0x00, 0x00, 0x07, 0x00, 0x00, 0x00,
  0x38, 0xcf, 0xff, 0xff, 0x01, 0x00, 0x00, 0x00, 0x2e, 0x00, 0x00, 0x00,
  0x03, 0x00, 0x00, 0x00, 0x2d, 0x00, 0x00, 0x00, 0x08, 0x00, 0x00, 0x00,
  0x07, 0x00, 0x00, 0x00, 0xee, 0xfb, 0xff, 0xff, 0x1c, 0x00, 0x00, 0x00,
  0x00, 0x00, 0x00, 0x08, 0x1c, 0x00, 0x00, 0x00, 0x20, 0x00, 0x00, 0x00,
  0x07, 0x00, 0x00, 0x00, 0x00, 0x00, 0x06, 0x00, 0x08, 0x00, 0x07, 0x00,
  0x06, 0x00, 0x00, 0x00, 0x00, 0x00, 0x00, 0x01, 0x01, 0x00, 0x00, 0x00,
  0x2d, 0x00, 0x00, 0x00, 0x03, 0x00, 0x00, 0x00, 0x2c, 0x00, 0x00, 0x00,
  0x0a, 0x00, 0x00, 0x00, 0x09, 0x00, 0x00, 0x00, 0x2e, 0xfc, 0xff, 0xff,
  0x14, 0x00, 0x00, 0x00, 0x00, 0x00, 0x00, 0x1b, 0x10, 0x00, 0x00, 0x00,
  0x14, 0x00, 0x00, 0x00, 0x06, 0x00, 0x00, 0x00, 0xac, 0xcf, 0xff, 0xff,
  0x01, 0x00, 0x00, 0x00, 0x2c, 0x00, 0x00, 0x00, 0x02, 0x00, 0x00, 0x00,
  0x2b, 0x00, 0x00, 0x00, 0x03, 0x00, 0x00, 0x00, 0xee, 0xfc, 0xff, 0xff,
  0x0c, 0x00, 0x00, 0x00, 0x10, 0x00, 0x00, 0x00, 0x04, 0x00, 0x00, 0x00,
  0x01, 0x00, 0x00, 0x00, 0x2b, 0x00, 0x00, 0x00, 0x02, 0x00, 0x00, 0x00,
  0x2a, 0x00, 0x00, 0x00, 0x06, 0x00, 0x00, 0x00, 0x82, 0xfc, 0xff, 0xff,
  0x14, 0x00, 0x00, 0x00, 0x00, 0x00, 0x00, 0x0b, 0x10, 0x00, 0x00, 0x00,
  0x14, 0x00, 0x00, 0x00, 0x03, 0x00, 0x00, 0x00, 0x00, 0xd0, 0xff, 0xff,
  0x01, 0x00, 0x00, 0x00, 0x2a, 0x00, 0x00, 0x00, 0x02, 0x00, 0x00, 0x00,
  0x29, 0x00, 0x00, 0x00, 0x0b, 0x00, 0x00, 0x00, 0xb2, 0xfc, 0xff, 0xff,
  0x14, 0x00, 0x00, 0x00, 0x00, 0x00, 0x00, 0x15, 0x10, 0x00, 0x00, 0x00,
  0x14, 0x00, 0x00, 0x00, 0x02, 0x00, 0x00, 0x00, 0x30, 0xd0, 0xff, 0xff,
  0x01, 0x00, 0x00, 0x00, 0x29, 0x00, 0x00, 0x00, 0x02, 0x00, 0x00, 0x00,
  0x28, 0x00, 0x00, 0x00, 0x0c, 0x00, 0x00, 0x00, 0xe2, 0xfc, 0xff, 0xff,
  0x14, 0x00, 0x00, 0x00, 0x00, 0x00, 0x00, 0x01, 0x1c, 0x00, 0x00, 0x00,
  0x20, 0x00, 0x00, 0x00, 0x01, 0x00, 0x00, 0x00, 0xd4, 0xfc, 0xff, 0xff,
  0x00, 0x00, 0x00, 0x01, 0x01, 0x00, 0x00, 0x00, 0x01, 0x00, 0x00, 0x00,
  0x01, 0x00, 0x00, 0x00, 0x28, 0x00, 0x00, 0x00, 0x03, 0x00, 0x00, 0x00,
  0x27, 0x00, 0x00, 0x00, 0x0e, 0x00, 0x00, 0x00, 0x0d, 0x00, 0x00, 0x00,
  0xc6, 0xfc, 0xff, 0xff, 0x10, 0x00, 0x00, 0x00, 0x00, 0x00, 0x00, 0x34,
  0x0c, 0x00, 0x00, 0x00, 0x10, 0x00, 0x00, 0x00, 0x9c, 0xd0, 0xff, 0xff,
  0x01, 0x00, 0x00, 0x00, 0x27, 0x00, 0x00, 0x00, 0x02, 0x00, 0x00, 0x00,
  0x26, 0x00, 0x00, 0x00, 0x01, 0x00, 0x00, 0x00, 0xde, 0xfd, 0xff, 0xff,
  0x0c, 0x00, 0x00, 0x00, 0x10, 0x00, 0x00, 0x00, 0x04, 0x00, 0x00, 0x00,
  0x01, 0x00, 0x00, 0x00, 0x26, 0x00, 0x00, 0x00, 0x02, 0x00, 0x00, 0x00,
  0x25, 0x00, 0x00, 0x00, 0x06, 0x00, 0x00, 0x00, 0x72, 0xfd, 0xff, 0xff,
  0x14, 0x00, 0x00, 0x00, 0x00, 0x00, 0x00, 0x05, 0x24, 0x00, 0x00, 0x00,
  0x28, 0x00, 0x00, 0x00, 0x05, 0x00, 0x00, 0x00, 0x7e, 0xfe, 0xff, 0xff,
  0x01, 0x00, 0x00, 0x00, 0x02, 0x00, 0x00, 0x00, 0x01, 0x00, 0x00, 0x00,
  0x02, 0x00, 0x00, 0x00, 0x00, 0x00, 0x00, 0x01, 0x01, 0x00, 0x00, 0x00,
  0x25, 0x00, 0x00, 0x00, 0x01, 0x00, 0x00, 0x00, 0x24, 0x00, 0x00, 0x00,
  0x56, 0xfd, 0xff, 0xff, 0x10, 0x00, 0x00, 0x00, 0x00, 0x00, 0x00, 0x34,
  0x0c, 0x00, 0x00, 0x00, 0x10, 0x00, 0x00, 0x00, 0x2c, 0xd1, 0xff, 0xff,
  0x01, 0x00, 0x00, 0x00, 0x24, 0x00, 0x00, 0x00, 0x02, 0x00, 0x00, 0x00,
  0x23, 0x00, 0x00, 0x00, 0x03, 0x00, 0x00, 0x00, 0x6e, 0xfe, 0xff, 0xff,
  0x0c, 0x00, 0x00, 0x00, 0x10, 0x00, 0x00, 0x00, 0x04, 0x00, 0x00, 0x00,
  0x01, 0x00, 0x00, 0x00, 0x23, 0x00, 0x00, 0x00, 0x02, 0x00, 0x00, 0x00,
  0x22, 0x00, 0x00, 0x00, 0x05, 0x00, 0x00, 0x00, 0x02, 0xfe, 0xff, 0xff,
  0x14, 0x00, 0x00, 0x00, 0x00, 0x00, 0x00, 0x0b, 0x10, 0x00, 0x00, 0x00,
  0x14, 0x00, 0x00, 0x00, 0x03, 0x00, 0x00, 0x00, 0x80, 0xd1, 0xff, 0xff,
  0x01, 0x00, 0x00, 0x00, 0x22, 0x00, 0x00, 0x00, 0x02, 0x00, 0x00, 0x00,
  0x21, 0x00, 0x00, 0x00, 0x0f, 0x00, 0x00, 0x00, 0x32, 0xfe, 0xff, 0xff,
  0x14, 0x00, 0x00, 0x00, 0x00, 0x00, 0x00, 0x15, 0x10, 0x00, 0x00, 0x00,
  0x14, 0x00, 0x00, 0x00, 0x02, 0x00, 0x00, 0x00, 0xb0, 0xd1, 0xff, 0xff,
  0x01, 0x00, 0x00, 0x00, 0x21, 0x00, 0x00, 0x00, 0x02, 0x00, 0x00, 0x00,
  0x20, 0x00, 0x00, 0x00, 0x10, 0x00, 0x00, 0x00, 0x62, 0xfe, 0xff, 0xff,
  0x14, 0x00, 0x00, 0x00, 0x00, 0x00, 0x00, 0x01, 0x1c, 0x00, 0x00, 0x00,
  0x20, 0x00, 0x00, 0x00, 0x01, 0x00, 0x00, 0x00, 0x54, 0xfe, 0xff, 0xff,
  0x00, 0x00, 0x00, 0x01, 0x01, 0x00, 0x00, 0x00, 0x01, 0x00, 0x00, 0x00,
  0x01, 0x00, 0x00, 0x00, 0x20, 0x00, 0x00, 0x00, 0x03, 0x00, 0x00, 0x00,
  0x1f, 0x00, 0x00, 0x00, 0x12, 0x00, 0x00, 0x00, 0x11, 0x00, 0x00, 0x00,
  0x46, 0xfe, 0xff, 0xff, 0x10, 0x00, 0x00, 0x00, 0x00, 0x00, 0x00, 0x34,
  0x0c, 0x00, 0x00, 0x00, 0x10, 0x00, 0x00, 0x00, 0x1c, 0xd2, 0xff, 0xff,
  0x01, 0x00, 0x00, 0x00, 0x1f, 0x00, 0x00, 0x00, 0x02, 0x00, 0x00, 0x00,
  0x1e, 0x00, 0x00, 0x00, 0x01, 0x00, 0x00, 0x00, 0x5e, 0xff, 0xff, 0xff,
  0x0c, 0x00, 0x00, 0x00, 0x10, 0x00, 0x00, 0x00, 0x04, 0x00, 0x00, 0x00,
  0x01, 0x00, 0x00, 0x00, 0x1e, 0x00, 0x00, 0x00, 0x02, 0x00, 0x00, 0x00,
  0x1d, 0x00, 0x00, 0x00, 0x04, 0x00, 0x00, 0x00, 0xf2, 0xfe, 0xff, 0xff,
  0x24, 0x00, 0x00, 0x00, 0x00, 0x00, 0x00, 0x05, 0x34, 0x00, 0x00, 0x00,
  0x38, 0x00, 0x00, 0x00, 0x05, 0x00, 0x00, 0x00, 0x00, 0x00, 0x0e, 0x00,
  0x18, 0x00, 0x17, 0x00, 0x10, 0x00, 0x0c, 0x00, 0x08, 0x00, 0x04, 0x00,
  0x0e, 0x00, 0x00, 0x00, 0x01, 0x00, 0x00, 0x00, 0x02, 0x00, 0x00, 0x00,
  0x01, 0x00, 0x00, 0x00, 0x02, 0x00, 0x00, 0x00, 0x00, 0x00, 0x00, 0x01,
  0x01, 0x00, 0x00, 0x00, 0x1d, 0x00, 0x00, 0x00, 0x01, 0x00, 0x00, 0x00,
  0x1c, 0x00, 0x00, 0x00, 0xe6, 0xfe, 0xff, 0xff, 0x10, 0x00, 0x00, 0x00,
  0x00, 0x00, 0x00, 0x34, 0x0c, 0x00, 0x00, 0x00, 0x10, 0x00, 0x00, 0x00,
  0xbc, 0xd2, 0xff, 0xff, 0x01, 0x00, 0x00, 0x00, 0x1c, 0x00, 0x00, 0x00,
  0x02, 0x00, 0x00, 0x00, 0x1b, 0x00, 0x00, 0x00, 0x03, 0x00, 0x00, 0x00,
  0x00, 0x00, 0x0a, 0x00, 0x10, 0x00, 0x0c, 0x00, 0x08, 0x00, 0x04, 0x00,
  0x0a, 0x00, 0x00, 0x00, 0x0c, 0x00, 0x00, 0x00, 0x10, 0x00, 0x00, 0x00,
  0x04, 0x00, 0x00, 0x00, 0x01, 0x00, 0x00, 0x00, 0x1b, 0x00, 0x00, 0x00,
  0x02, 0x00, 0x00, 0x00, 0x1a, 0x00, 0x00, 0x00, 0x02, 0x00, 0x00, 0x00,
  0x9e, 0xff, 0xff, 0xff, 0x14, 0x00, 0x00, 0x00, 0x00, 0x00, 0x00, 0x0b,
  0x10, 0x00, 0x00, 0x00, 0x14, 0x00, 0x00, 0x00, 0x03, 0x00, 0x00, 0x00,
  0x1c, 0xd3, 0xff, 0xff, 0x01, 0x00, 0x00, 0x00, 0x1a, 0x00, 0x00, 0x00,
  0x02, 0x00, 0x00, 0x00, 0x19, 0x00, 0x00, 0x00, 0x13, 0x00, 0x00, 0x00,
  0xce, 0xff, 0xff, 0xff, 0x14, 0x00, 0x00, 0x00, 0x00, 0x00, 0x00, 0x15,
  0x10, 0x00, 0x00, 0x00, 0x14, 0x00, 0x00, 0x00, 0x02, 0x00, 0x00, 0x00,
  0x4c, 0xd3, 0xff, 0xff, 0x01, 0x00, 0x00, 0x00, 0x19, 0x00, 0x00, 0x00,
  0x02, 0x00, 0x00, 0x00, 0x18, 0x00, 0x00, 0x00, 0x14, 0x00, 0x00, 0x00,
  0x00, 0x00, 0x0e, 0x00, 0x18, 0x00, 0x14, 0x00, 0x10, 0x00, 0x0c, 0x00,
  0x0b, 0x00, 0x04, 0x00, 0x0e, 0x00, 0x00, 0x00, 0x20, 0x00, 0x00, 0x00,
  0x00, 0x00, 0x00, 0x01, 0x28, 0x00, 0x00, 0x00, 0x2c, 0x00, 0x00, 0x00,
  0x01, 0x00, 0x00, 0x00, 0x0c, 0x00, 0x10, 0x00, 0x00, 0x00, 0x0c, 0x00,
  0x08, 0x00, 0x07, 0x00, 0x0c, 0x00, 0x00, 0x00, 0x00, 0x00, 0x00, 0x01,
  0x01, 0x00, 0x00, 0x00, 0x01, 0x00, 0x00, 0x00, 0x01, 0x00, 0x00, 0x00,
  0x18, 0x00, 0x00, 0x00, 0x03, 0x00, 0x00, 0x00, 0x17, 0x00, 0x00, 0x00,
  0x16, 0x00, 0x00, 0x00, 0x15, 0x00, 0x00, 0x00, 0x00, 0x00, 0x0e, 0x00,
  0x14, 0x00, 0x00, 0x00, 0x10, 0x00, 0x0c, 0x00, 0x0b, 0x00, 0x04, 0x00,
  0x0e, 0x00, 0x00, 0x00, 0x10, 0x00, 0x00, 0x00, 0x00, 0x00, 0x00, 0x34,
  0x0c, 0x00, 0x00, 0x00, 0x10, 0x00, 0x00, 0x00, 0xe4, 0xd3, 0xff, 0xff,
  0x01, 0x00, 0x00, 0x00, 0x17, 0x00, 0x00, 0x00, 0x02, 0x00, 0x00, 0x00,
  0x00, 0x00, 0x00, 0x00, 0x01, 0x00, 0x00, 0x00, 0x01, 0x00, 0x00, 0x00,
  0x2f, 0x00, 0x00, 0x00, 0x01, 0x00, 0x00, 0x00, 0x00, 0x00, 0x00, 0x00,
  0x30, 0x00, 0x00, 0x00, 0x28, 0x2c, 0x00, 0x00, 0xd0, 0x2b, 0x00, 0x00,
  0x78, 0x2b, 0x00, 0x00, 0x3c, 0x2b, 0x00, 0x00, 0xfc, 0x2a, 0x00, 0x00,
  0xbc, 0x2a, 0x00, 0x00, 0x7c, 0x2a, 0x00, 0x00, 0xf4, 0x29, 0x00, 0x00,
  0x68, 0x29, 0x00, 0x00, 0x54, 0x28, 0x00, 0x00, 0x38, 0x27, 0x00, 0x00,
  0xd4, 0x26, 0x00, 0x00, 0x70, 0x26, 0x00, 0x00, 0x9c, 0x24, 0x00, 0x00,
  0xb8, 0x22, 0x00, 0x00, 0x54, 0x22, 0x00, 0x00, 0xf0, 0x21, 0x00, 0x00,
  0x1c, 0x20, 0x00, 0x00, 0x38, 0x1e, 0x00, 0x00, 0xd4, 0x1d, 0x00, 0x00,
  0x70, 0x1d, 0x00, 0x00, 0x5c, 0x1c, 0x00, 0x00, 0x38, 0x1b, 0x00, 0x00,
  0x94, 0x1a, 0x00, 0x00, 0x68, 0x19, 0x00, 0x00, 0xf4, 0x17, 0x00, 0x00,
  0x18, 0x16, 0x00, 0x00, 0x40, 0x14, 0x00, 0x00, 0x98, 0x13, 0x00, 0x00,
  0xfc, 0x12, 0x00, 0x00, 0x5c, 0x12, 0x00, 0x00, 0xb4, 0x11, 0x00, 0x00,
  0x88, 0x10, 0x00, 0x00, 0x14, 0x0f, 0x00, 0x00, 0x38, 0x0d, 0x00, 0x00,
  0x60, 0x0b, 0x00, 0x00, 0xb8, 0x0a, 0x00, 0x00, 0x1c, 0x0a, 0x00, 0x00,
  0x7c, 0x09, 0x00, 0x00, 0xd4, 0x08, 0x00, 0x00, 0xa8, 0x07, 0x00, 0x00,
  0x34, 0x06, 0x00, 0x00, 0x58, 0x04, 0x00, 0x00, 0x80, 0x02, 0x00, 0x00,
  0xe8, 0x01, 0x00, 0x00, 0x24, 0x01, 0x00, 0x00, 0x80, 0x00, 0x00, 0x00,
  0x04, 0x00, 0x00, 0x00, 0xae, 0xd4, 0xff, 0xff, 0x00, 0x00, 0x00, 0x01,
  0x18, 0x00, 0x00, 0x00, 0x20, 0x00, 0x00, 0x00, 0x3c, 0x00, 0x00, 0x00,
  0x30, 0x00, 0x00, 0x00, 0x00, 0x00, 0x00, 0x09, 0x50, 0x00, 0x00, 0x00,
  0x02, 0x00, 0x00, 0x00, 0xff, 0xff, 0xff, 0xff, 0x04, 0x00, 0x00, 0x00,
  0x94, 0xd4, 0xff, 0xff, 0x08, 0x00, 0x00, 0x00, 0x10, 0x00, 0x00, 0x00,
  0x01, 0x00, 0x00, 0x00, 0x80, 0xff, 0xff, 0xff, 0xff, 0xff, 0xff, 0xff,
  0x01, 0x00, 0x00, 0x00, 0x00, 0x00, 0x80, 0x3b, 0x1b, 0x00, 0x00, 0x00,
  0x53, 0x74, 0x61, 0x74, 0x65, 0x66, 0x75, 0x6c, 0x50, 0x61, 0x72, 0x74,
  0x69, 0x74, 0x69, 0x6f, 0x6e, 0x65, 0x64, 0x43, 0x61, 0x6c, 0x6c, 0x5f,
  0x31, 0x3a, 0x30, 0x00, 0x02, 0x00, 0x00, 0x00, 0x01, 0x00, 0x00, 0x00,
  0x04, 0x00, 0x00, 0x00, 0x26, 0xd5, 0xff, 0xff, 0x00, 0x00, 0x00, 0x01,
  0x18, 0x00, 0x00, 0x00, 0x20, 0x00, 0x00, 0x00, 0x3c, 0x00, 0x00, 0x00,
  0x2f, 0x00, 0x00, 0x00, 0x00, 0x00, 0x00, 0x09, 0x78, 0x00, 0x00, 0x00,
  0x02, 0x00, 0x00, 0x00, 0xff, 0xff, 0xff, 0xff, 0x04, 0x00, 0x00, 0x00,
  0x0c, 0xd5, 0xff, 0xff, 0x08, 0x00, 0x00, 0x00, 0x10, 0x00, 0x00, 0x00,
  0x01, 0x00, 0x00, 0x00, 0xe5, 0xff, 0xff, 0xff, 0xff, 0xff, 0xff, 0xff,
  0x01, 0x00, 0x00, 0x00, 0xb1, 0x90, 0x64, 0x3d, 0x40, 0x00, 0x00, 0x00,
  0x66, 0x75, 0x6e, 0x63, 0x74, 0x69, 0x6f, 0x6e, 0x61, 0x6c, 0x5f, 0x32,
  0x5f, 0x31, 0x2f, 0x64, 0x65, 0x6e, 0x73, 0x65, 0x5f, 0x35, 0x5f, 0x31,
  0x2f, 0x4d, 0x61, 0x74, 0x4d, 0x75, 0x6c, 0x3b, 0x66, 0x75, 0x6e, 0x63,
  0x74, 0x69, 0x6f, 0x6e, 0x61, 0x6c, 0x5f, 0x32, 0x5f, 0x31, 0x2f, 0x64,
  0x65, 0x6e, 0x73, 0x65, 0x5f, 0x35, 0x5f, 0x31, 0x2f, 0x42, 0x69, 0x61,
  0x73, 0x41, 0x64, 0x64, 0x00, 0x00, 0x00, 0x00, 0x02, 0x00, 0x00, 0x00,
  0x01, 0x00, 0x00, 0x00, 0x04, 0x00, 0x00, 0x00, 0xc6, 0xd5, 0xff, 0xff,
  0x00, 0x00, 0x00, 0x01, 0x18, 0x00, 0x00, 0x00, 0x20, 0x00, 0x00, 0x00,
  0x40, 0x00, 0x00, 0x00, 0x2e, 0x00, 0x00, 0x00, 0x00, 0x00, 0x00, 0x09,
  0x98, 0x00, 0x00, 0x00, 0x02, 0x00, 0x00, 0x00, 0xff, 0xff, 0xff, 0xff,
  0x10, 0x00, 0x00, 0x00, 0xac, 0xd5, 0xff, 0xff, 0x08, 0x00, 0x00, 0x00,
  0x14, 0x00, 0x00, 0x00, 0x01, 0x00, 0x00, 0x00, 0x80, 0xff, 0xff, 0xff,
  0xff, 0xff, 0xff, 0xff, 0x00, 0x00, 0x00, 0x00, 0x01, 0x00, 0x00, 0x00,
  0xf4, 0x30, 0xa3, 0x3c, 0x5e, 0x00, 0x00, 0x00, 0x66, 0x75, 0x6e, 0x63,
  0x74, 0x69, 0x6f, 0x6e, 0x61, 0x6c, 0x5f, 0x32, 0x5f, 0x31, 0x2f, 0x64,
  0x65, 0x6e, 0x73, 0x65, 0x5f, 0x34, 0x5f, 0x31, 0x2f, 0x4d, 0x61, 0x74,
  0x4d, 0x75, 0x6c, 0x3b, 0x66, 0x75, 0x6e, 0x63, 0x74, 0x69, 0x6f, 0x6e,
  0x61, 0x6c, 0x5f, 0x32, 0x5f, 0x31, 0x2f, 0x64, 0x65, 0x6e, 0x73, 0x65,
  0x5f, 0x34, 0x5f, 0x31, 0x2f, 0x52, 0x65, 0x6c, 0x75, 0x3b, 0x66, 0x75,
  0x6e, 0x63, 0x74, 0x69, 0x6f, 0x6e, 0x61, 0x6c, 0x5f, 0x32, 0x5f, 0x31,
  0x2f, 0x64, 0x65, 0x6e, 0x73, 0x65, 0x5f, 0x34, 0x5f, 0x31, 0x2f, 0x42,
  0x69, 0x61, 0x73, 0x41, 0x64, 0x64, 0x00, 0x00, 0x02, 0x00, 0x00, 0x00,
  0x01, 0x00, 0x00, 0x00, 0x10, 0x00, 0x00, 0x00, 0x86, 0xd6, 0xff, 0xff,
  0x00, 0x00, 0x00, 0x01, 0x18, 0x00, 0x00, 0x00, 0x20, 0x00, 0x00, 0x00,
  0x40, 0x00, 0x00, 0x00, 0x2d, 0x00, 0x00, 0x00, 0x00, 0x00, 0x00, 0x09,
  0x6c, 0x00, 0x00, 0x00, 0x02, 0x00, 0x00, 0x00, 0xff, 0xff, 0xff, 0xff,
  0x20, 0x00, 0x00, 0x00, 0x6c, 0xd6, 0xff, 0xff, 0x08, 0x00, 0x00, 0x00,
  0x14, 0x00, 0x00, 0x00, 0x01, 0x00, 0x00, 0x00, 0xcd, 0xff, 0xff, 0xff,
  0xff, 0xff, 0xff, 0xff, 0x00, 0x00, 0x00, 0x00, 0x01, 0x00, 0x00, 0x00,
  0x4e, 0x3a, 0x51, 0x3c, 0x30, 0x00, 0x00, 0x00, 0x66, 0x75, 0x6e, 0x63,
  0x74, 0x69, 0x6f, 0x6e, 0x61, 0x6c, 0x5f, 0x32, 0x5f, 0x31, 0x2f, 0x67,
  0x6c, 0x6f, 0x62, 0x61, 0x6c, 0x5f, 0x61, 0x76, 0x65, 0x72, 0x61, 0x67,
  0x65, 0x5f, 0x70, 0x6f, 0x6f, 0x6c, 0x69, 0x6e, 0x67, 0x31, 0x64, 0x5f,
  0x32, 0x5f, 0x31, 0x2f, 0x4d, 0x65, 0x61, 0x6e, 0x00, 0x00, 0x00, 0x00,
  0x02, 0x00, 0x00, 0x00, 0x01, 0x00, 0x00, 0x00, 0x20, 0x00, 0x00, 0x00,
  0x1a, 0xd7, 0xff, 0xff, 0x00, 0x00, 0x00, 0x01, 0x18, 0x00, 0x00, 0x00,
  0x24, 0x00, 0x00, 0x00, 0x44, 0x00, 0x00, 0x00, 0x2c, 0x00, 0x00, 0x00,
  0x00, 0x00, 0x00, 0x09, 0xa8, 0x01, 0x00, 0x00, 0x03, 0x00, 0x00, 0x00,
  0xff, 0xff, 0xff, 0xff, 0x25, 0x00, 0x00, 0x00, 0x20, 0x00, 0x00, 0x00,
  0x04, 0xd7, 0xff, 0xff, 0x08, 0x00, 0x00, 0x00, 0x14, 0x00, 0x00, 0x00,
  0x01, 0x00, 0x00, 0x00, 0x9d, 0xff, 0xff, 0xff, 0xff, 0xff, 0xff, 0xff,
  0x00, 0x00, 0x00, 0x00, 0x01, 0x00, 0x00, 0x00, 0xd9, 0xaf, 0x2c, 0x3d,
  0x69, 0x01, 0x00, 0x00, 0x66, 0x75, 0x6e, 0x63, 0x74, 0x69, 0x6f, 0x6e,
  0x61, 0x6c, 0x5f, 0x32, 0x5f, 0x31, 0x2f, 0x62, 0x61, 0x74, 0x63, 0x68,
  0x5f, 0x6e, 0x6f, 0x72, 0x6d, 0x61, 0x6c, 0x69, 0x7a, 0x61, 0x74, 0x69,
  0x6f, 0x6e, 0x5f, 0x38, 0x5f, 0x31, 0x2f, 0x62, 0x61, 0x74, 0x63, 0x68,
  0x6e, 0x6f, 0x72, 0x6d, 0x2f, 0x61, 0x64, 0x64, 0x5f, 0x31, 0x3b, 0x66,
  0x75, 0x6e, 0x63, 0x74, 0x69, 0x6f, 0x6e, 0x61, 0x6c, 0x5f, 0x32, 0x5f,
  0x31, 0x2f, 0x63, 0x6f, 0x6e, 0x76, 0x31, 0x64, 0x5f, 0x38, 0x5f, 0x31,
  0x2f, 0x63, 0x6f, 0x6e, 0x76, 0x6f, 0x6c, 0x75, 0x74, 0x69, 0x6f, 0x6e,
  0x2f, 0x53, 0x71, 0x75, 0x65, 0x65, 0x7a, 0x65, 0x3b, 0x66, 0x75, 0x6e,
  0x63, 0x74, 0x69, 0x6f, 0x6e, 0x61, 0x6c, 0x5f, 0x32, 0x5f, 0x31, 0x2f,
  0x62, 0x61, 0x74, 0x63, 0x68, 0x5f, 0x6e, 0x6f, 0x72, 0x6d, 0x61, 0x6c,
  0x69, 0x7a, 0x61, 0x74, 0x69, 0x6f, 0x6e, 0x5f, 0x38, 0x5f, 0x31, 0x2f,
  0x62, 0x61, 0x74, 0x63, 0x68, 0x6e, 0x6f, 0x72, 0x6d, 0x2f, 0x6d, 0x75,
  0x6c, 0x5f, 0x31, 0x3b, 0x66, 0x75, 0x6e, 0x63, 0x74, 0x69, 0x6f, 0x6e,
  0x61, 0x6c, 0x5f, 0x32, 0x5f, 0x31, 0x2f, 0x63, 0x6f, 0x6e, 0x76, 0x31,
  0x64, 0x5f, 0x38, 0x5f, 0x31, 0x2f, 0x52, 0x65, 0x6c, 0x75, 0x3b, 0x66,
  0x75, 0x6e, 0x63, 0x74, 0x69, 0x6f, 0x6e, 0x61, 0x6c, 0x5f, 0x32, 0x5f,
  0x31, 0x2f, 0x63, 0x6f, 0x6e, 0x76, 0x31, 0x64, 0x5f, 0x38, 0x5f, 0x31,
  0x2f, 0x42, 0x69, 0x61, 0x73, 0x41, 0x64, 0x64, 0x3b, 0x66, 0x75, 0x6e,
  0x63, 0x74, 0x69, 0x6f, 0x6e, 0x61, 0x6c, 0x5f, 0x32, 0x5f, 0x31, 0x2f,
  0x63, 0x6f, 0x6e, 0x76, 0x31, 0x64, 0x5f, 0x38, 0x5f, 0x31, 0x2f, 0x53,
  0x71, 0x75, 0x65, 0x65, 0x7a, 0x65, 0x3b, 0x66, 0x75, 0x6e, 0x63, 0x74,
  0x69, 0x6f, 0x6e, 0x61, 0x6c, 0x5f, 0x32, 0x5f, 0x31, 0x2f, 0x62, 0x61,
  0x74, 0x63, 0x68, 0x5f, 0x6e, 0x6f, 0x72, 0x6d, 0x61, 0x6c, 0x69, 0x7a,
  0x61, 0x74, 0x69, 0x6f, 0x6e, 0x5f, 0x38, 0x5f, 0x31, 0x2f, 0x62, 0x61,
  0x74, 0x63, 0x68, 0x6e, 0x6f, 0x72, 0x6d, 0x2f, 0x6d, 0x75, 0x6c, 0x3b,
  0x66, 0x75, 0x6e, 0x63, 0x74, 0x69, 0x6f, 0x6e, 0x61, 0x6c, 0x5f, 0x32,
  0x5f, 0x31, 0x2f, 0x62, 0x61, 0x74, 0x63, 0x68, 0x5f, 0x6e, 0x6f, 0x72,
  0x6d, 0x61, 0x6c, 0x69, 0x7a, 0x61, 0x74, 0x69, 0x6f, 0x6e, 0x5f, 0x38,
  0x5f, 0x31, 0x2f, 0x62, 0x61, 0x74, 0x63, 0x68, 0x6e, 0x6f, 0x72, 0x6d,
  0x2f, 0x73, 0x75, 0x62, 0x31, 0x00, 0x00, 0x00, 0x03, 0x00, 0x00, 0x00,
  0x01, 0x00, 0x00, 0x00, 0x25, 0x00, 0x00, 0x00, 0x20, 0x00, 0x00, 0x00,
  0xee, 0xd8, 0xff, 0xff, 0x00, 0x00, 0x00, 0x01, 0x18, 0x00, 0x00, 0x00,
  0x28, 0x00, 0x00, 0x00, 0x44, 0x00, 0x00, 0x00, 0x2b, 0x00, 0x00, 0x00,
  0x00, 0x00, 0x00, 0x09, 0xa8, 0x01, 0x00, 0x00, 0x04, 0x00, 0x00, 0x00,
  0xff, 0xff, 0xff, 0xff, 0x01, 0x00, 0x00, 0x00, 0x25, 0x00, 0x00, 0x00,
  0x20, 0x00, 0x00, 0x00, 0xdc, 0xd8, 0xff, 0xff, 0x08, 0x00, 0x00, 0x00,
  0x10, 0x00, 0x00, 0x00, 0x01, 0x00, 0x00, 0x00, 0x9d, 0xff, 0xff, 0xff,
  0xff, 0xff, 0xff, 0xff, 0x01, 0x00, 0x00, 0x00, 0xd9, 0xaf, 0x2c, 0x3d,
  0x68, 0x01, 0x00, 0x00, 0x66, 0x75, 0x6e, 0x63, 0x74, 0x69, 0x6f, 0x6e,
  0x61, 0x6c, 0x5f, 0x32, 0x5f, 0x31, 0x2f, 0x62, 0x61, 0x74, 0x63, 0x68,
  0x5f, 0x6e, 0x6f, 0x72, 0x6d, 0x61, 0x6c, 0x69, 0x7a, 0x61, 0x74, 0x69,
  0x6f, 0x6e, 0x5f, 0x38, 0x5f, 0x31, 0x2f, 0x62, 0x61, 0x74, 0x63, 0x68,
  0x6e, 0x6f, 0x72, 0x6d, 0x2f, 0x61, 0x64, 0x64, 0x5f, 0x31, 0x3b, 0x66,
  0x75, 0x6e, 0x63, 0x74, 0x69, 0x6f, 0x6e, 0x61, 0x6c, 0x5f, 0x32, 0x5f,
  0x31, 0x2f, 0x63, 0x6f, 0x6e, 0x76, 0x31, 0x64, 0x5f, 0x38, 0x5f, 0x31,
  0x2f, 0x63, 0x6f, 0x6e, 0x76, 0x6f, 0x6c, 0x75, 0x74, 0x69, 0x6f, 0x6e,
  0x2f, 0x53, 0x71, 0x75, 0x65, 0x65, 0x7a, 0x65, 0x3b, 0x66, 0x75, 0x6e,
  0x63, 0x74, 0x69, 0x6f, 0x6e, 0x61, 0x6c, 0x5f, 0x32, 0x5f, 0x31, 0x2f,
  0x62, 0x61, 0x74, 0x63, 0x68, 0x5f, 0x6e, 0x6f, 0x72, 0x6d, 0x61, 0x6c,
  0x69, 0x7a, 0x61, 0x74, 0x69, 0x6f, 0x6e, 0x5f, 0x38, 0x5f, 0x31, 0x2f,
  0x62, 0x61, 0x74, 0x63, 0x68, 0x6e, 0x6f, 0x72, 0x6d, 0x2f, 0x6d, 0x75,
  0x6c, 0x5f, 0x31, 0x3b, 0x66, 0x75, 0x6e, 0x63, 0x74, 0x69, 0x6f, 0x6e,
  0x61, 0x6c, 0x5f, 0x32, 0x5f, 0x31, 0x2f, 0x63, 0x6f, 0x6e, 0x76, 0x31,
  0x64, 0x5f, 0x38, 0x5f, 0x31, 0x2f, 0x52, 0x65, 0x6c, 0x75, 0x3b, 0x66,
  0x75, 0x6e, 0x63, 0x74, 0x69, 0x6f, 0x6e, 0x61, 0x6c, 0x5f, 0x32, 0x5f,
  0x31, 0x2f, 0x63, 0x6f, 0x6e, 0x76, 0x31, 0x64, 0x5f, 0x38, 0x5f, 0x31,
  0x2f, 0x42, 0x69, 0x61, 0x73, 0x41, 0x64, 0x64, 0x3b, 0x66, 0x75, 0x6e,
  0x63, 0x74, 0x69, 0x6f, 0x6e, 0x61, 0x6c, 0x5f, 0x32, 0x5f, 0x31, 0x2f,
  0x63, 0x6f, 0x6e, 0x76, 0x31, 0x64, 0x5f, 0x38, 0x5f, 0x31, 0x2f, 0x53,
  0x71, 0x75, 0x65, 0x65, 0x7a, 0x65, 0x3b, 0x66, 0x75, 0x6e, 0x63, 0x74,
  0x69, 0x6f, 0x6e, 0x61, 0x6c, 0x5f, 0x32, 0x5f, 0x31, 0x2f, 0x62, 0x61,
  0x74, 0x63, 0x68, 0x5f, 0x6e, 0x6f, 0x72, 0x6d, 0x61, 0x6c, 0x69, 0x7a,
  0x61, 0x74, 0x69, 0x6f, 0x6e, 0x5f, 0x38, 0x5f, 0x31, 0x2f, 0x62, 0x61,
  0x74, 0x63, 0x68, 0x6e, 0x6f, 0x72, 0x6d, 0x2f, 0x6d, 0x75, 0x6c, 0x3b,
  0x66, 0x75, 0x6e, 0x63, 0x74, 0x69, 0x6f, 0x6e, 0x61, 0x6c, 0x5f, 0x32,
  0x5f, 0x31, 0x2f, 0x62, 0x61, 0x74, 0x63, 0x68, 0x5f, 0x6e, 0x6f, 0x72,
  0x6d, 0x61, 0x6c, 0x69, 0x7a, 0x61, 0x74, 0x69, 0x6f, 0x6e, 0x5f, 0x38,
  0x5f, 0x31, 0x2f, 0x62, 0x61, 0x74, 0x63, 0x68, 0x6e, 0x6f, 0x72, 0x6d,
  0x2f, 0x73, 0x75, 0x62, 0x00, 0x00, 0x00, 0x00, 0x04, 0x00, 0x00, 0x00,
  0x01, 0x00, 0x00, 0x00, 0x01, 0x00, 0x00, 0x00, 0x25, 0x00, 0x00, 0x00,
  0x20, 0x00, 0x00, 0x00, 0xc6, 0xda, 0xff, 0xff, 0x00, 0x00, 0x00, 0x01,
  0x18, 0x00, 0x00, 0x00, 0x28, 0x00, 0x00, 0x00, 0x48, 0x00, 0x00, 0x00,
  0x2a, 0x00, 0x00, 0x00, 0x00, 0x00, 0x00, 0x09, 0x40, 0x01, 0x00, 0x00,
  0x04, 0x00, 0x00, 0x00, 0xff, 0xff, 0xff, 0xff, 0x01, 0x00, 0x00, 0x00,
  0x25, 0x00, 0x00, 0x00, 0x20, 0x00, 0x00, 0x00, 0xb4, 0xda, 0xff, 0xff,
  0x08, 0x00, 0x00, 0x00, 0x14, 0x00, 0x00, 0x00, 0x01, 0x00, 0x00, 0x00,
  0x9b, 0xff, 0xff, 0xff, 0xff, 0xff, 0xff, 0xff, 0x00, 0x00, 0x00, 0x00,
  0x01, 0x00, 0x00, 0x00, 0x57, 0x14, 0x38, 0x3d, 0xfc, 0x00, 0x00, 0x00,
  0x66, 0x75, 0x6e, 0x63, 0x74, 0x69, 0x6f, 0x6e, 0x61, 0x6c, 0x5f, 0x32,
  0x5f, 0x31, 0x2f, 0x62, 0x61, 0x74, 0x63, 0x68, 0x5f, 0x6e, 0x6f, 0x72,
  0x6d, 0x61, 0x6c, 0x69, 0x7a, 0x61, 0x74, 0x69, 0x6f, 0x6e, 0x5f, 0x38,
  0x5f, 0x31, 0x2f, 0x62, 0x61, 0x74, 0x63, 0x68, 0x6e, 0x6f, 0x72, 0x6d,
  0x2f, 0x6d, 0x75, 0x6c, 0x5f, 0x31, 0x3b, 0x66, 0x75, 0x6e, 0x63, 0x74,
  0x69, 0x6f, 0x6e, 0x61, 0x6c, 0x5f, 0x32, 0x5f, 0x31, 0x2f, 0x63, 0x6f,
  0x6e, 0x76, 0x31, 0x64, 0x5f, 0x38, 0x5f, 0x31, 0x2f, 0x63, 0x6f, 0x6e,
  0x76, 0x6f, 0x6c, 0x75, 0x74, 0x69, 0x6f, 0x6e, 0x2f, 0x53, 0x71, 0x75,
  0x65, 0x65, 0x7a, 0x65, 0x3b, 0x66, 0x75, 0x6e, 0x63, 0x74, 0x69, 0x6f,
  0x6e, 0x61, 0x6c, 0x5f, 0x32, 0x5f, 0x31, 0x2f, 0x63, 0x6f, 0x6e, 0x76,
  0x31, 0x64, 0x5f, 0x38, 0x5f, 0x31, 0x2f, 0x52, 0x65, 0x6c, 0x75, 0x3b,
  0x66, 0x75, 0x6e, 0x63, 0x74, 0x69, 0x6f, 0x6e, 0x61, 0x6c, 0x5f, 0x32,
  0x5f, 0x31, 0x2f, 0x63, 0x6f, 0x6e, 0x76, 0x31, 0x64, 0x5f, 0x38, 0x5f,
  0x31, 0x2f, 0x42, 0x69, 0x61, 0x73, 0x41, 0x64, 0x64, 0x3b, 0x66, 0x75,
  0x6e, 0x63, 0x74, 0x69, 0x6f, 0x6e, 0x61, 0x6c, 0x5f, 0x32, 0x5f, 0x31,
  0x2f, 0x63, 0x6f, 0x6e, 0x76, 0x31, 0x64, 0x5f, 0x38, 0x5f, 0x31, 0x2f,
  0x53, 0x71, 0x75, 0x65, 0x65, 0x7a, 0x65, 0x3b, 0x66, 0x75, 0x6e, 0x63,
  0x74, 0x69, 0x6f, 0x6e, 0x61, 0x6c, 0x5f, 0x32, 0x5f, 0x31, 0x2f, 0x62,
  0x61, 0x74, 0x63, 0x68, 0x5f, 0x6e, 0x6f, 0x72, 0x6d, 0x61, 0x6c, 0x69,
  0x7a, 0x61, 0x74, 0x69, 0x6f, 0x6e, 0x5f, 0x38, 0x5f, 0x31, 0x2f, 0x62,
  0x61, 0x74, 0x63, 0x68, 0x6e, 0x6f, 0x72, 0x6d, 0x2f, 0x6d, 0x75, 0x6c,
  0x00, 0x00, 0x00, 0x00, 0x04, 0x00, 0x00, 0x00, 0x01, 0x00, 0x00, 0x00,
  0x01, 0x00, 0x00, 0x00, 0x25, 0x00, 0x00, 0x00, 0x20, 0x00, 0x00, 0x00,
  0x36, 0xdc, 0xff, 0xff, 0x00, 0x00, 0x00, 0x01, 0x18, 0x00, 0x00, 0x00,
  0x28, 0x00, 0x00, 0x00, 0x48, 0x00, 0x00, 0x00, 0x29, 0x00, 0x00, 0x00,
  0x00, 0x00, 0x00, 0x09, 0xf8, 0x00, 0x00, 0x00, 0x04, 0x00, 0x00, 0x00,
  0xff, 0xff, 0xff, 0xff, 0x01, 0x00, 0x00, 0x00, 0x25, 0x00, 0x00, 0x00,
  0x20, 0x00, 0x00, 0x00, 0x24, 0xdc, 0xff, 0xff, 0x08, 0x00, 0x00, 0x00,
  0x14, 0x00, 0x00, 0x00, 0x01, 0x00, 0x00, 0x00, 0x80, 0xff, 0xff, 0xff,
  0xff, 0xff, 0xff, 0xff, 0x00, 0x00, 0x00, 0x00, 0x01, 0x00, 0x00, 0x00,
  0xa8, 0x94, 0x24, 0x3d, 0xb6, 0x00, 0x00, 0x00, 0x66, 0x75, 0x6e, 0x63,
  0x74, 0x69, 0x6f, 0x6e, 0x61, 0x6c, 0x5f, 0x32, 0x5f, 0x31, 0x2f, 0x63,
  0x6f, 0x6e, 0x76, 0x31, 0x64, 0x5f, 0x38, 0x5f, 0x31, 0x2f, 0x52, 0x65,
  0x6c, 0x75, 0x3b, 0x66, 0x75, 0x6e, 0x63, 0x74, 0x69, 0x6f, 0x6e, 0x61,
  0x6c, 0x5f, 0x32, 0x5f, 0x31, 0x2f, 0x63, 0x6f, 0x6e, 0x76, 0x31, 0x64,
  0x5f, 0x38, 0x5f, 0x31, 0x2f, 0x42, 0x69, 0x61, 0x73, 0x41, 0x64, 0x64,
  0x3b, 0x66, 0x75, 0x6e, 0x63, 0x74, 0x69, 0x6f, 0x6e, 0x61, 0x6c, 0x5f,
  0x32, 0x5f, 0x31, 0x2f, 0x63, 0x6f, 0x6e, 0x76, 0x31, 0x64, 0x5f, 0x38,
  0x5f, 0x31, 0x2f, 0x63, 0x6f, 0x6e, 0x76, 0x6f, 0x6c, 0x75, 0x74, 0x69,
  0x6f, 0x6e, 0x2f, 0x53, 0x71, 0x75, 0x65, 0x65, 0x7a, 0x65, 0x3b, 0x66,
  0x75, 0x6e, 0x63, 0x74, 0x69, 0x6f, 0x6e, 0x61, 0x6c, 0x5f, 0x32, 0x5f,
  0x31, 0x2f, 0x63, 0x6f, 0x6e, 0x76, 0x31, 0x64, 0x5f, 0x38, 0x5f, 0x31,
  0x2f, 0x53, 0x71, 0x75, 0x65, 0x65, 0x7a, 0x65, 0x3b, 0x66, 0x75, 0x6e,
  0x63, 0x74, 0x69, 0x6f, 0x6e, 0x61, 0x6c, 0x5f, 0x32, 0x5f, 0x31, 0x2f,
  0x63, 0x6f, 0x6e, 0x76, 0x31, 0x64, 0x5f, 0x38, 0x5f, 0x31, 0x2f, 0x63,
  0x6f, 0x6e, 0x76, 0x6f, 0x6c, 0x75, 0x74, 0x69, 0x6f, 0x6e, 0x00, 0x00,
  0x04, 0x00, 0x00, 0x00, 0x01, 0x00, 0x00, 0x00, 0x01, 0x00, 0x00, 0x00,
  0x25, 0x00, 0x00, 0x00, 0x20, 0x00, 0x00, 0x00, 0x5e, 0xdd, 0xff, 0xff,
  0x00, 0x00, 0x00, 0x01, 0x18, 0x00, 0x00, 0x00, 0x28, 0x00, 0x00, 0x00,
  0x48, 0x00, 0x00, 0x00, 0x28, 0x00, 0x00, 0x00, 0x00, 0x00, 0x00, 0x09,
  0x74, 0x00, 0x00, 0x00, 0x04, 0x00, 0x00, 0x00, 0xff, 0xff, 0xff, 0xff,
  0x01, 0x00, 0x00, 0x00, 0x25, 0x00, 0x00, 0x00, 0x20, 0x00, 0x00, 0x00,
  0x4c, 0xdd, 0xff, 0xff, 0x08, 0x00, 0x00, 0x00, 0x14, 0x00, 0x00, 0x00,
  0x01, 0x00, 0x00, 0x00, 0x98, 0xff, 0xff, 0xff, 0xff, 0xff, 0xff, 0xff,
  0x00, 0x00, 0x00, 0x00, 0x01, 0x00, 0x00, 0x00, 0x71, 0x7a, 0x2a, 0x3d,
  0x30, 0x00, 0x00, 0x00, 0x66, 0x75, 0x6e, 0x63, 0x74, 0x69, 0x6f, 0x6e,
  0x61, 0x6c, 0x5f, 0x32, 0x5f, 0x31, 0x2f, 0x63, 0x6f, 0x6e, 0x76, 0x31,
  0x64, 0x5f, 0x38, 0x5f, 0x31, 0x2f, 0x63, 0x6f, 0x6e, 0x76, 0x6f, 0x6c,
  0x75, 0x74, 0x69, 0x6f, 0x6e, 0x2f, 0x45, 0x78, 0x70, 0x61, 0x6e, 0x64,
  0x44, 0x69, 0x6d, 0x73, 0x00, 0x00, 0x00, 0x00, 0x04, 0x00, 0x00, 0x00,
  0x01, 0x00, 0x00, 0x00, 0x01, 0x00, 0x00, 0x00, 0x25, 0x00, 0x00, 0x00,
  0x20, 0x00, 0x00, 0x00, 0x02, 0xde, 0xff, 0xff, 0x00, 0x00, 0x00, 0x01,
  0x18, 0x00, 0x00, 0x00, 0x24, 0x00, 0x00, 0x00, 0x44, 0x00, 0x00, 0x00,
  0x27, 0x00, 0x00, 0x00, 0x00, 0x00, 0x00, 0x09, 0x70, 0x00, 0x00, 0x00,
  0x03, 0x00, 0x00, 0x00, 0xff, 0xff, 0xff, 0xff, 0x25, 0x00, 0x00, 0x00,
  0x20, 0x00, 0x00, 0x00, 0xec, 0xdd, 0xff, 0xff, 0x08, 0x00, 0x00, 0x00,
  0x14, 0x00, 0x00, 0x00, 0x01, 0x00, 0x00, 0x00, 0x98, 0xff, 0xff, 0xff,
  0xff, 0xff, 0xff, 0xff, 0x00, 0x00, 0x00, 0x00, 0x01, 0x00, 0x00, 0x00,
  0x71, 0x7a, 0x2a, 0x3d, 0x32, 0x00, 0x00, 0x00, 0x66, 0x75, 0x6e, 0x63,
  0x74, 0x69, 0x6f, 0x6e, 0x61, 0x6c, 0x5f, 0x32, 0x5f, 0x31, 0x2f, 0x6d,
  0x61, 0x78, 0x5f, 0x70, 0x6f, 0x6f, 0x6c, 0x69, 0x6e, 0x67, 0x31, 0x64,
  0x5f, 0x35, 0x5f, 0x31, 0x2f, 0x4d, 0x61, 0x78, 0x50, 0x6f, 0x6f, 0x6c,
  0x31, 0x64, 0x2f, 0x53, 0x71, 0x75, 0x65, 0x65, 0x7a, 0x65, 0x00, 0x00,
  0x03, 0x00, 0x00, 0x00, 0x01, 0x00, 0x00, 0x00, 0x25, 0x00, 0x00, 0x00,
  0x20, 0x00, 0x00, 0x00, 0x9e, 0xde, 0xff, 0xff, 0x00, 0x00, 0x00, 0x01,
  0x18, 0x00, 0x00, 0x00, 0x28, 0x00, 0x00, 0x00, 0x44, 0x00, 0x00, 0x00,
  0x26, 0x00, 0x00, 0x00, 0x00, 0x00, 0x00, 0x09, 0x68, 0x00, 0x00, 0x00,
  0x04, 0x00, 0x00, 0x00, 0xff, 0xff, 0xff, 0xff, 0x01, 0x00, 0x00, 0x00,
  0x25, 0x00, 0x00, 0x00, 0x20, 0x00, 0x00, 0x00, 0x8c, 0xde, 0xff, 0xff,
  0x08, 0x00, 0x00, 0x00, 0x10, 0x00, 0x00, 0x00, 0x01, 0x00, 0x00, 0x00,
  0x98, 0xff, 0xff, 0xff, 0xff, 0xff, 0xff, 0xff, 0x01, 0x00, 0x00, 0x00,
  0x71, 0x7a, 0x2a, 0x3d, 0x2a, 0x00, 0x00, 0x00, 0x66, 0x75, 0x6e, 0x63,
  0x74, 0x69, 0x6f, 0x6e, 0x61, 0x6c, 0x5f, 0x32, 0x5f, 0x31, 0x2f, 0x6d,
  0x61, 0x78, 0x5f, 0x70, 0x6f, 0x6f, 0x6c, 0x69, 0x6e, 0x67, 0x31, 0x64,
  0x5f, 0x35, 0x5f, 0x31, 0x2f, 0x4d, 0x61, 0x78, 0x50, 0x6f, 0x6f, 0x6c,
  0x31, 0x64, 0x00, 0x00, 0x04, 0x00, 0x00, 0x00, 0x01, 0x00, 0x00, 0x00,
  0x01, 0x00, 0x00, 0x00, 0x25, 0x00, 0x00, 0x00, 0x20, 0x00, 0x00, 0x00,
  0x36, 0xdf, 0xff, 0xff, 0x00, 0x00, 0x00, 0x01, 0x18, 0x00, 0x00, 0x00,
  0x28, 0x00, 0x00, 0x00, 0x44, 0x00, 0x00, 0x00, 0x25, 0x00, 0x00, 0x00,
  0x00, 0x00, 0x00, 0x09, 0x74, 0x00, 0x00, 0x00, 0x04, 0x00, 0x00, 0x00,
  0xff, 0xff, 0xff, 0xff, 0x01, 0x00, 0x00, 0x00, 0x4b, 0x00, 0x00, 0x00,
  0x20, 0x00, 0x00, 0x00, 0x24, 0xdf, 0xff, 0xff, 0x08, 0x00, 0x00, 0x00,
  0x10, 0x00, 0x00, 0x00, 0x01, 0x00, 0x00, 0x00, 0x98, 0xff, 0xff, 0xff,
  0xff, 0xff, 0xff, 0xff, 0x01, 0x00, 0x00, 0x00, 0x71, 0x7a, 0x2a, 0x3d,
  0x35, 0x00, 0x00, 0x00, 0x66, 0x75, 0x6e, 0x63, 0x74, 0x69, 0x6f, 0x6e,
  0x61, 0x6c, 0x5f, 0x32, 0x5f, 0x31, 0x2f, 0x6d, 0x61, 0x78, 0x5f, 0x70,
  0x6f, 0x6f, 0x6c, 0x69, 0x6e, 0x67, 0x31, 0x64, 0x5f, 0x35, 0x5f, 0x31,
  0x2f, 0x4d, 0x61, 0x78, 0x50, 0x6f, 0x6f, 0x6c, 0x31, 0x64, 0x2f, 0x45,
  0x78, 0x70, 0x61, 0x6e, 0x64, 0x44, 0x69, 0x6d, 0x73, 0x00, 0x00, 0x00,
  0x04, 0x00, 0x00, 0x00, 0x01, 0x00, 0x00, 0x00, 0x01, 0x00, 0x00, 0x00,
  0x4b, 0x00, 0x00, 0x00, 0x20, 0x00, 0x00, 0x00, 0xda, 0xdf, 0xff, 0xff,
  0x00, 0x00, 0x00, 0x01, 0x18, 0x00, 0x00, 0x00, 0x24, 0x00, 0x00, 0x00,
  0x44, 0x00, 0x00, 0x00, 0x24, 0x00, 0x00, 0x00, 0x00, 0x00, 0x00, 0x09,
  0xa8, 0x01, 0x00, 0x00, 0x03, 0x00, 0x00, 0x00, 0xff, 0xff, 0xff, 0xff,
  0x4b, 0x00, 0x00, 0x00, 0x20, 0x00, 0x00, 0x00, 0xc4, 0xdf, 0xff, 0xff,
  0x08, 0x00, 0x00, 0x00, 0x14, 0x00, 0x00, 0x00, 0x01, 0x00, 0x00, 0x00,
  0x98, 0xff, 0xff, 0xff, 0xff, 0xff, 0xff, 0xff, 0x00, 0x00, 0x00, 0x00,
  0x01, 0x00, 0x00, 0x00, 0x71, 0x7a, 0x2a, 0x3d, 0x69, 0x01, 0x00, 0x00,
  0x66, 0x75, 0x6e, 0x63, 0x74, 0x69, 0x6f, 0x6e, 0x61, 0x6c, 0x5f, 0x32,
  0x5f, 0x31, 0x2f, 0x62, 0x61, 0x74, 0x63, 0x68, 0x5f, 0x6e, 0x6f, 0x72,
  0x6d, 0x61, 0x6c, 0x69, 0x7a, 0x61, 0x74, 0x69, 0x6f, 0x6e, 0x5f, 0x37,
  0x5f, 0x31, 0x2f, 0x62, 0x61, 0x74, 0x63, 0x68, 0x6e, 0x6f, 0x72, 0x6d,
  0x2f, 0x61, 0x64, 0x64, 0x5f, 0x31, 0x3b, 0x66, 0x75, 0x6e, 0x63, 0x74,
  0x69, 0x6f, 0x6e, 0x61, 0x6c, 0x5f, 0x32, 0x5f, 0x31, 0x2f, 0x63, 0x6f,
  0x6e, 0x76, 0x31, 0x64, 0x5f, 0x37, 0x5f, 0x31, 0x2f, 0x63, 0x6f, 0x6e,
  0x76, 0x6f, 0x6c, 0x75, 0x74, 0x69, 0x6f, 0x6e, 0x2f, 0x53, 0x71, 0x75,
  0x65, 0x65, 0x7a, 0x65, 0x3b, 0x66, 0x75, 0x6e, 0x63, 0x74, 0x69, 0x6f,
  0x6e, 0x61, 0x6c, 0x5f, 0x32, 0x5f, 0x31, 0x2f, 0x62, 0x61, 0x74, 0x63,
  0x68, 0x5f, 0x6e, 0x6f, 0x72, 0x6d, 0x61, 0x6c, 0x69, 0x7a, 0x61, 0x74,
  0x69, 0x6f, 0x6e, 0x5f, 0x37, 0x5f, 0x31, 0x2f, 0x62, 0x61, 0x74, 0x63,
  0x68, 0x6e, 0x6f, 0x72, 0x6d, 0x2f, 0x6d, 0x75, 0x6c, 0x5f, 0x31, 0x3b,
  0x66, 0x75, 0x6e, 0x63, 0x74, 0x69, 0x6f, 0x6e, 0x61, 0x6c, 0x5f, 0x32,
  0x5f, 0x31, 0x2f, 0x63, 0x6f, 0x6e, 0x76, 0x31, 0x64, 0x5f, 0x37, 0x5f,
  0x31, 0x2f, 0x52, 0x65, 0x6c, 0x75, 0x3b, 0x66, 0x75, 0x6e, 0x63, 0x74,
  0x69, 0x6f, 0x6e, 0x61, 0x6c, 0x5f, 0x32, 0x5f, 0x31, 0x2f, 0x63, 0x6f,
  0x6e, 0x76, 0x31, 0x64, 0x5f, 0x37, 0x5f, 0x31, 0x2f, 0x42, 0x69, 0x61,
  0x73, 0x41, 0x64, 0x64, 0x3b, 0x66, 0x75, 0x6e, 0x63, 0x74, 0x69, 0x6f,
  0x6e, 0x61, 0x6c, 0x5f, 0x32, 0x5f, 0x31, 0x2f, 0x63, 0x6f, 0x6e, 0x76,
  0x31, 0x64, 0x5f, 0x37, 0x5f, 0x31, 0x2f, 0x53, 0x71, 0x75, 0x65, 0x65,
  0x7a, 0x65, 0x3b, 0x66, 0x75, 0x6e, 0x63, 0x74, 0x69, 0x6f, 0x6e, 0x61,
  0x6c, 0x5f, 0x32, 0x5f, 0x31, 0x2f, 0x62, 0x61, 0x74, 0x63, 0x68, 0x5f,
  0x6e, 0x6f, 0x72, 0x6d, 0x61, 0x6c, 0x69, 0x7a, 0x61, 0x74, 0x69, 0x6f,
  0x6e, 0x5f, 0x37, 0x5f, 0x31, 0x2f, 0x62, 0x61, 0x74, 0x63, 0x68, 0x6e,
  0x6f, 0x72, 0x6d, 0x2f, 0x6d, 0x75, 0x6c, 0x3b, 0x66, 0x75, 0x6e, 0x63,
  0x74, 0x69, 0x6f, 0x6e, 0x61, 0x6c, 0x5f, 0x32, 0x5f, 0x31, 0x2f, 0x62,
  0x61, 0x74, 0x63, 0x68, 0x5f, 0x6e, 0x6f, 0x72, 0x6d, 0x61, 0x6c, 0x69,
  0x7a, 0x61, 0x74, 0x69, 0x6f, 0x6e, 0x5f, 0x37, 0x5f, 0x31, 0x2f, 0x62,
  0x61, 0x74, 0x63, 0x68, 0x6e, 0x6f, 0x72, 0x6d, 0x2f, 0x73, 0x75, 0x62,
  0x31, 0x00, 0x00, 0x00, 0x03, 0x00, 0x00, 0x00, 0x01, 0x00, 0x00, 0x00,
  0x4b, 0x00, 0x00, 0x00, 0x20, 0x00, 0x00, 0x00, 0xae, 0xe1, 0xff, 0xff,
  0x00, 0x00, 0x00, 0x01, 0x18, 0x00, 0x00, 0x00, 0x28, 0x00, 0x00, 0x00,
  0x44, 0x00, 0x00, 0x00, 0x23, 0x00, 0x00, 0x00, 0x00, 0x00, 0x00, 0x09,
  0xa8, 0x01, 0x00, 0x00, 0x04, 0x00, 0x00, 0x00, 0xff, 0xff, 0xff, 0xff,
  0x01, 0x00, 0x00, 0x00, 0x4b, 0x00, 0x00, 0x00, 0x20, 0x00, 0x00, 0x00,
  0x9c, 0xe1, 0xff, 0xff, 0x08, 0x00, 0x00, 0x00, 0x10, 0x00, 0x00, 0x00,
  0x01, 0x00, 0x00, 0x00, 0x98, 0xff, 0xff, 0xff, 0xff, 0xff, 0xff, 0xff,
  0x01, 0x00, 0x00, 0x00, 0x71, 0x7a, 0x2a, 0x3d, 0x68, 0x01, 0x00, 0x00,
  0x66, 0x75, 0x6e, 0x63, 0x74, 0x69, 0x6f, 0x6e, 0x61, 0x6c, 0x5f, 0x32,
  0x5f, 0x31, 0x2f, 0x62, 0x61, 0x74, 0x63, 0x68, 0x5f, 0x6e, 0x6f, 0x72,
  0x6d, 0x61, 0x6c, 0x69, 0x7a, 0x61, 0x74, 0x69, 0x6f, 0x6e, 0x5f, 0x37,
  0x5f, 0x31, 0x2f, 0x62, 0x61, 0x74, 0x63, 0x68, 0x6e, 0x6f, 0x72, 0x6d,
  0x2f, 0x61, 0x64, 0x64, 0x5f, 0x31, 0x3b, 0x66, 0x75, 0x6e, 0x63, 0x74,
  0x69, 0x6f, 0x6e, 0x61, 0x6c, 0x5f, 0x32, 0x5f, 0x31, 0x2f, 0x63, 0x6f,
  0x6e, 0x76, 0x31, 0x64, 0x5f, 0x37, 0x5f, 0x31, 0x2f, 0x63, 0x6f, 0x6e,
  0x76, 0x6f, 0x6c, 0x75, 0x74, 0x69, 0x6f, 0x6e, 0x2f, 0x53, 0x71, 0x75,
  0x65, 0x65, 0x7a, 0x65, 0x3b, 0x66, 0x75, 0x6e, 0x63, 0x74, 0x69, 0x6f,
  0x6e, 0x61, 0x6c, 0x5f, 0x32, 0x5f, 0x31, 0x2f, 0x62, 0x61, 0x74, 0x63,
  0x68, 0x5f, 0x6e, 0x6f, 0x72, 0x6d, 0x61, 0x6c, 0x69, 0x7a, 0x61, 0x74,
  0x69, 0x6f, 0x6e, 0x5f, 0x37, 0x5f, 0x31, 0x2f, 0x62, 0x61, 0x74, 0x63,
  0x68, 0x6e, 0x6f, 0x72, 0x6d, 0x2f, 0x6d, 0x75, 0x6c, 0x5f, 0x31, 0x3b,
  0x66, 0x75, 0x6e, 0x63, 0x74, 0x69, 0x6f, 0x6e, 0x61, 0x6c, 0x5f, 0x32,
  0x5f, 0x31, 0x2f, 0x63, 0x6f, 0x6e, 0x76, 0x31, 0x64, 0x5f, 0x37, 0x5f,
  0x31, 0x2f, 0x52, 0x65, 0x6c, 0x75, 0x3b, 0x66, 0x75, 0x6e, 0x63, 0x74,
  0x69, 0x6f, 0x6e, 0x61, 0x6c, 0x5f, 0x32, 0x5f, 0x31, 0x2f, 0x63, 0x6f,
  0x6e, 0x76, 0x31, 0x64, 0x5f, 0x37, 0x5f, 0x31, 0x2f, 0x42, 0x69, 0x61,
  0x73, 0x41, 0x64, 0x64, 0x3b, 0x66, 0x75, 0x6e, 0x63, 0x74, 0x69, 0x6f,
  0x6e, 0x61, 0x6c, 0x5f, 0x32, 0x5f, 0x31, 0x2f, 0x63, 0x6f, 0x6e, 0x76,
  0x31, 0x64, 0x5f, 0x37, 0x5f, 0x31, 0x2f, 0x53, 0x71, 0x75, 0x65, 0x65,
  0x7a, 0x65, 0x3b, 0x66, 0x75, 0x6e, 0x63, 0x74, 0x69, 0x6f, 0x6e, 0x61,
  0x6c, 0x5f, 0x32, 0x5f, 0x31, 0x2f, 0x62, 0x61, 0x74, 0x63, 0x68, 0x5f,
  0x6e, 0x6f, 0x72, 0x6d, 0x61, 0x6c, 0x69, 0x7a, 0x61, 0x74, 0x69, 0x6f,
  0x6e, 0x5f, 0x37, 0x5f, 0x31, 0x2f, 0x62, 0x61, 0x74, 0x63, 0x68, 0x6e,
  0x6f, 0x72, 0x6d, 0x2f, 0x6d, 0x75, 0x6c, 0x3b, 0x66, 0x75, 0x6e, 0x63,
  0x74, 0x69, 0x6f, 0x6e, 0x61, 0x6c, 0x5f, 0x32, 0x5f, 0x31, 0x2f, 0x62,
  0x61, 0x74, 0x63, 0x68, 0x5f, 0x6e, 0x6f, 0x72, 0x6d, 0x61, 0x6c, 0x69,
  0x7a, 0x61, 0x74, 0x69, 0x6f, 0x6e, 0x5f, 0x37, 0x5f, 0x31, 0x2f, 0x62,
  0x61, 0x74, 0x63, 0x68, 0x6e, 0x6f, 0x72, 0x6d, 0x2f, 0x73, 0x75, 0x62,
  0x00, 0x00, 0x00, 0x00, 0x04, 0x00, 0x00, 0x00, 0x01, 0x00, 0x00, 0x00,
  0x01, 0x00, 0x00, 0x00, 0x4b, 0x00, 0x00, 0x00, 0x20, 0x00, 0x00, 0x00,
  0x86, 0xe3, 0xff, 0xff, 0x00, 0x00, 0x00, 0x01, 0x18, 0x00, 0x00, 0x00,
  0x28, 0x00, 0x00, 0x00, 0x48, 0x00, 0x00, 0x00, 0x22, 0x00, 0x00, 0x00,
  0x00, 0x00, 0x00, 0x09, 0x40, 0x01, 0x00, 0x00, 0x04, 0x00, 0x00, 0x00,
  0xff, 0xff, 0xff, 0xff, 0x01, 0x00, 0x00, 0x00, 0x4b, 0x00, 0x00, 0x00,
  0x20, 0x00, 0x00, 0x00, 0x74, 0xe3, 0xff, 0xff, 0x08, 0x00, 0x00, 0x00,
  0x14, 0x00, 0x00, 0x00, 0x01, 0x00, 0x00, 0x00, 0x96, 0xff, 0xff, 0xff,
  0xff, 0xff, 0xff, 0xff, 0x00, 0x00, 0x00, 0x00, 0x01, 0x00, 0x00, 0x00,
  0x67, 0x3c, 0x33, 0x3d, 0xfc, 0x00, 0x00, 0x00, 0x66, 0x75, 0x6e, 0x63,
  0x74, 0x69, 0x6f, 0x6e, 0x61, 0x6c, 0x5f, 0x32, 0x5f, 0x31, 0x2f, 0x62,
  0x61, 0x74, 0x63, 0x68, 0x5f, 0x6e, 0x6f, 0x72, 0x6d, 0x61, 0x6c, 0x69,
  0x7a, 0x61, 0x74, 0x69, 0x6f, 0x6e, 0x5f, 0x37, 0x5f, 0x31, 0x2f, 0x62,
  0x61, 0x74, 0x63, 0x68, 0x6e, 0x6f, 0x72, 0x6d, 0x2f, 0x6d, 0x75, 0x6c,
  0x5f, 0x31, 0x3b, 0x66, 0x75, 0x6e, 0x63, 0x74, 0x69, 0x6f, 0x6e, 0x61,
  0x6c, 0x5f, 0x32, 0x5f, 0x31, 0x2f, 0x63, 0x6f, 0x6e, 0x76, 0x31, 0x64,
  0x5f, 0x37, 0x5f, 0x31, 0x2f, 0x63, 0x6f, 0x6e, 0x76, 0x6f, 0x6c, 0x75,
  0x74, 0x69, 0x6f, 0x6e, 0x2f, 0x53, 0x71, 0x75, 0x65, 0x65, 0x7a, 0x65,
  0x3b, 0x66, 0x75, 0x6e, 0x63, 0x74, 0x69, 0x6f, 0x6e, 0x61, 0x6c, 0x5f,
  0x32, 0x5f, 0x31, 0x2f, 0x63, 0x6f, 0x6e, 0x76, 0x31, 0x64, 0x5f, 0x37,
  0x5f, 0x31, 0x2f, 0x52, 0x65, 0x6c, 0x75, 0x3b, 0x66, 0x75, 0x6e, 0x63,
  0x74, 0x69, 0x6f, 0x6e, 0x61, 0x6c, 0x5f, 0x32, 0x5f, 0x31, 0x2f, 0x63,
  0x6f, 0x6e, 0x76, 0x31, 0x64, 0x5f, 0x37, 0x5f, 0x31, 0x2f, 0x42, 0x69,
  0x61, 0x73, 0x41, 0x64, 0x64, 0x3b, 0x66, 0x75, 0x6e, 0x63, 0x74, 0x69,
  0x6f, 0x6e, 0x61, 0x6c, 0x5f, 0x32, 0x5f, 0x31, 0x2f, 0x63, 0x6f, 0x6e,
  0x76, 0x31, 0x64, 0x5f, 0x37, 0x5f, 0x31, 0x2f, 0x53, 0x71, 0x75, 0x65,
  0x65, 0x7a, 0x65, 0x3b, 0x66, 0x75, 0x6e, 0x63, 0x74, 0x69, 0x6f, 0x6e,
  0x61, 0x6c, 0x5f, 0x32, 0x5f, 0x31, 0x2f, 0x62, 0x61, 0x74, 0x63, 0x68,
  0x5f, 0x6e, 0x6f, 0x72, 0x6d, 0x61, 0x6c, 0x69, 0x7a, 0x61, 0x74, 0x69,
  0x6f, 0x6e, 0x5f, 0x37, 0x5f, 0x31, 0x2f, 0x62, 0x61, 0x74, 0x63, 0x68,
  0x6e, 0x6f, 0x72, 0x6d, 0x2f, 0x6d, 0x75, 0x6c, 0x00, 0x00, 0x00, 0x00,
  0x04, 0x00, 0x00, 0x00, 0x01, 0x00, 0x00, 0x00, 0x01, 0x00, 0x00, 0x00,
  0x4b, 0x00, 0x00, 0x00, 0x20, 0x00, 0x00, 0x00, 0xf6, 0xe4, 0xff, 0xff,
  0x00, 0x00, 0x00, 0x01, 0x18, 0x00, 0x00, 0x00, 0x28, 0x00, 0x00, 0x00,
  0x48, 0x00, 0x00, 0x00, 0x21, 0x00, 0x00, 0x00, 0x00, 0x00, 0x00, 0x09,
  0xf8, 0x00, 0x00, 0x00, 0x04, 0x00, 0x00, 0x00, 0xff, 0xff, 0xff, 0xff,
  0x01, 0x00, 0x00, 0x00, 0x4b, 0x00, 0x00, 0x00, 0x20, 0x00, 0x00, 0x00,
  0xe4, 0xe4, 0xff, 0xff, 0x08, 0x00, 0x00, 0x00, 0x14, 0x00, 0x00, 0x00,
  0x01, 0x00, 0x00, 0x00, 0x80, 0xff, 0xff, 0xff, 0xff, 0xff, 0xff, 0xff,
  0x00, 0x00, 0x00, 0x00, 0x01, 0x00, 0x00, 0x00, 0x8b, 0x77, 0x23, 0x3d,
  0xb6, 0x00, 0x00, 0x00, 0x66, 0x75, 0x6e, 0x63, 0x74, 0x69, 0x6f, 0x6e,
  0x61, 0x6c, 0x5f, 0x32, 0x5f, 0x31, 0x2f, 0x63, 0x6f, 0x6e, 0x76, 0x31,
  0x64, 0x5f, 0x37, 0x5f, 0x31, 0x2f, 0x52, 0x65, 0x6c, 0x75, 0x3b, 0x66,
  0x75, 0x6e, 0x63, 0x74, 0x69, 0x6f, 0x6e, 0x61, 0x6c, 0x5f, 0x32, 0x5f,
  0x31, 0x2f, 0x63, 0x6f, 0x6e, 0x76, 0x31, 0x64, 0x5f, 0x37, 0x5f, 0x31,
  0x2f, 0x42, 0x69, 0x61, 0x73, 0x41, 0x64, 0x64, 0x3b, 0x66, 0x75, 0x6e,
  0x63, 0x74, 0x69, 0x6f, 0x6e, 0x61, 0x6c, 0x5f, 0x32, 0x5f, 0x31, 0x2f,
  0x63, 0x6f, 0x6e, 0x76, 0x31, 0x64, 0x5f, 0x37, 0x5f, 0x31, 0x2f, 0x63,
  0x6f, 0x6e, 0x76, 0x6f, 0x6c, 0x75, 0x74, 0x69, 0x6f, 0x6e, 0x2f, 0x53,
  0x71, 0x75, 0x65, 0x65, 0x7a, 0x65, 0x3b, 0x66, 0x75, 0x6e, 0x63, 0x74,
  0x69, 0x6f, 0x6e, 0x61, 0x6c, 0x5f, 0x32, 0x5f, 0x31, 0x2f, 0x63, 0x6f,
  0x6e, 0x76, 0x31, 0x64, 0x5f, 0x37, 0x5f, 0x31, 0x2f, 0x53, 0x71, 0x75,
  0x65, 0x65, 0x7a, 0x65, 0x3b, 0x66, 0x75, 0x6e, 0x63, 0x74, 0x69, 0x6f,
  0x6e, 0x61, 0x6c, 0x5f, 0x32, 0x5f, 0x31, 0x2f, 0x63, 0x6f, 0x6e, 0x76,
  0x31, 0x64, 0x5f, 0x37, 0x5f, 0x31, 0x2f, 0x63, 0x6f, 0x6e, 0x76, 0x6f,
  0x6c, 0x75, 0x74, 0x69, 0x6f, 0x6e, 0x00, 0x00, 0x04, 0x00, 0x00, 0x00,
  0x01, 0x00, 0x00, 0x00, 0x01, 0x00, 0x00, 0x00, 0x4b, 0x00, 0x00, 0x00,
  0x20, 0x00, 0x00, 0x00, 0x1e, 0xe6, 0xff, 0xff, 0x00, 0x00, 0x00, 0x01,
  0x18, 0x00, 0x00, 0x00, 0x28, 0x00, 0x00, 0x00, 0x48, 0x00, 0x00, 0x00,
  0x20, 0x00, 0x00, 0x00, 0x00, 0x00, 0x00, 0x09, 0x74, 0x00, 0x00, 0x00,
  0x04, 0x00, 0x00, 0x00, 0xff, 0xff, 0xff, 0xff, 0x01, 0x00, 0x00, 0x00,
  0x4b, 0x00, 0x00, 0x00, 0x10, 0x00, 0x00, 0x00, 0x0c, 0xe6, 0xff, 0xff,
  0x08, 0x00, 0x00, 0x00, 0x14, 0x00, 0x00, 0x00, 0x01, 0x00, 0x00, 0x00,
  0x97, 0xff, 0xff, 0xff, 0xff, 0xff, 0xff, 0xff, 0x00, 0x00, 0x00, 0x00,
  0x01, 0x00, 0x00, 0x00, 0xb0, 0xee, 0x18, 0x3d, 0x30, 0x00, 0x00, 0x00,
  0x66, 0x75, 0x6e, 0x63, 0x74, 0x69, 0x6f, 0x6e, 0x61, 0x6c, 0x5f, 0x32,
  0x5f, 0x31, 0x2f, 0x63, 0x6f, 0x6e, 0x76, 0x31, 0x64, 0x5f, 0x37, 0x5f,
  0x31, 0x2f, 0x63, 0x6f, 0x6e, 0x76, 0x6f, 0x6c, 0x75, 0x74, 0x69, 0x6f,
  0x6e, 0x2f, 0x45, 0x78, 0x70, 0x61, 0x6e, 0x64, 0x44, 0x69, 0x6d, 0x73,
  0x00, 0x00, 0x00, 0x00, 0x04, 0x00, 0x00, 0x00, 0x01, 0x00, 0x00, 0x00,
  0x01, 0x00, 0x00, 0x00, 0x4b, 0x00, 0x00, 0x00, 0x10, 0x00, 0x00, 0x00,
  0xc2, 0xe6, 0xff, 0xff, 0x00, 0x00, 0x00, 0x01, 0x18, 0x00, 0x00, 0x00,
  0x24, 0x00, 0x00, 0x00, 0x44, 0x00, 0x00, 0x00, 0x1f, 0x00, 0x00, 0x00,
  0x00, 0x00, 0x00, 0x09, 0x70, 0x00, 0x00, 0x00, 0x03, 0x00, 0x00, 0x00,
  0xff, 0xff, 0xff, 0xff, 0x4b, 0x00, 0x00, 0x00, 0x10, 0x00, 0x00, 0x00,
  0xac, 0xe6, 0xff, 0xff, 0x08, 0x00, 0x00, 0x00, 0x14, 0x00, 0x00, 0x00,
  0x01, 0x00, 0x00, 0x00, 0x97, 0xff, 0xff, 0xff, 0xff, 0xff, 0xff, 0xff,
  0x00, 0x00, 0x00, 0x00, 0x01, 0x00, 0x00, 0x00, 0xb0, 0xee, 0x18, 0x3d,
  0x32, 0x00, 0x00, 0x00, 0x66, 0x75, 0x6e, 0x63, 0x74, 0x69, 0x6f, 0x6e,
  0x61, 0x6c, 0x5f, 0x32, 0x5f, 0x31, 0x2f, 0x6d, 0x61, 0x78, 0x5f, 0x70,
  0x6f, 0x6f, 0x6c, 0x69, 0x6e, 0x67, 0x31, 0x64, 0x5f, 0x34, 0x5f, 0x31,
  0x2f, 0x4d, 0x61, 0x78, 0x50, 0x6f, 0x6f, 0x6c, 0x31, 0x64, 0x2f, 0x53,
  0x71, 0x75, 0x65, 0x65, 0x7a, 0x65, 0x00, 0x00, 0x03, 0x00, 0x00, 0x00,
  0x01, 0x00, 0x00, 0x00, 0x4b, 0x00, 0x00, 0x00, 0x10, 0x00, 0x00, 0x00,
  0x5e, 0xe7, 0xff, 0xff, 0x00, 0x00, 0x00, 0x01, 0x18, 0x00, 0x00, 0x00,
  0x28, 0x00, 0x00, 0x00, 0x44, 0x00, 0x00, 0x00, 0x1e, 0x00, 0x00, 0x00,
  0x00, 0x00, 0x00, 0x09, 0x68, 0x00, 0x00, 0x00, 0x04, 0x00, 0x00, 0x00,
  0xff, 0xff, 0xff, 0xff, 0x01, 0x00, 0x00, 0x00, 0x4b, 0x00, 0x00, 0x00,
  0x10, 0x00, 0x00, 0x00, 0x4c, 0xe7, 0xff, 0xff, 0x08, 0x00, 0x00, 0x00,
  0x10, 0x00, 0x00, 0x00, 0x01, 0x00, 0x00, 0x00, 0x97, 0xff, 0xff, 0xff,
  0xff, 0xff, 0xff, 0xff, 0x01, 0x00, 0x00, 0x00, 0xb0, 0xee, 0x18, 0x3d,
  0x2a, 0x00, 0x00, 0x00, 0x66, 0x75, 0x6e, 0x63, 0x74, 0x69, 0x6f, 0x6e,
  0x61, 0x6c, 0x5f, 0x32, 0x5f, 0x31, 0x2f, 0x6d, 0x61, 0x78, 0x5f, 0x70,
  0x6f, 0x6f, 0x6c, 0x69, 0x6e, 0x67, 0x31, 0x64, 0x5f, 0x34, 0x5f, 0x31,
  0x2f, 0x4d, 0x61, 0x78, 0x50, 0x6f, 0x6f, 0x6c, 0x31, 0x64, 0x00, 0x00,
  0x04, 0x00, 0x00, 0x00, 0x01, 0x00, 0x00, 0x00, 0x01, 0x00, 0x00, 0x00,
  0x4b, 0x00, 0x00, 0x00, 0x10, 0x00, 0x00, 0x00, 0xf6, 0xe7, 0xff, 0xff,
  0x00, 0x00, 0x00, 0x01, 0x18, 0x00, 0x00, 0x00, 0x28, 0x00, 0x00, 0x00,
  0x44, 0x00, 0x00, 0x00, 0x1d, 0x00, 0x00, 0x00, 0x00, 0x00, 0x00, 0x09,
  0x74, 0x00, 0x00, 0x00, 0x04, 0x00, 0x00, 0x00, 0xff, 0xff, 0xff, 0xff,
  0x01, 0x00, 0x00, 0x00, 0x96, 0x00, 0x00, 0x00, 0x10, 0x00, 0x00, 0x00,
  0xe4, 0xe7, 0xff, 0xff, 0x08, 0x00, 0x00, 0x00, 0x10, 0x00, 0x00, 0x00,
  0x01, 0x00, 0x00, 0x00, 0x97, 0xff, 0xff, 0xff, 0xff, 0xff, 0xff, 0xff,
  0x01, 0x00, 0x00, 0x00, 0xb0, 0xee, 0x18, 0x3d, 0x35, 0x00, 0x00, 0x00,
  0x66, 0x75, 0x6e, 0x63, 0x74, 0x69, 0x6f, 0x6e, 0x61, 0x6c, 0x5f, 0x32,
  0x5f, 0x31, 0x2f, 0x6d, 0x61, 0x78, 0x5f, 0x70, 0x6f, 0x6f, 0x6c, 0x69,
  0x6e, 0x67, 0x31, 0x64, 0x5f, 0x34, 0x5f, 0x31, 0x2f, 0x4d, 0x61, 0x78,
  0x50, 0x6f, 0x6f, 0x6c, 0x31, 0x64, 0x2f, 0x45, 0x78, 0x70, 0x61, 0x6e,
  0x64, 0x44, 0x69, 0x6d, 0x73, 0x00, 0x00, 0x00, 0x04, 0x00, 0x00, 0x00,
  0x01, 0x00, 0x00, 0x00, 0x01, 0x00, 0x00, 0x00, 0x96, 0x00, 0x00, 0x00,
  0x10, 0x00, 0x00, 0x00, 0x9a, 0xe8, 0xff, 0xff, 0x00, 0x00, 0x00, 0x01,
  0x18, 0x00, 0x00, 0x00, 0x24, 0x00, 0x00, 0x00, 0x44, 0x00, 0x00, 0x00,
  0x1c, 0x00, 0x00, 0x00, 0x00, 0x00, 0x00, 0x09, 0xa8, 0x01, 0x00, 0x00,
  0x03, 0x00, 0x00, 0x00, 0xff, 0xff, 0xff, 0xff, 0x96, 0x00, 0x00, 0x00,
  0x10, 0x00, 0x00, 0x00, 0x84, 0xe8, 0xff, 0xff, 0x08, 0x00, 0x00, 0x00,
  0x14, 0x00, 0x00, 0x00, 0x01, 0x00, 0x00, 0x00, 0x97, 0xff, 0xff, 0xff,
  0xff, 0xff, 0xff, 0xff, 0x00, 0x00, 0x00, 0x00, 0x01, 0x00, 0x00, 0x00,
  0xb0, 0xee, 0x18, 0x3d, 0x69, 0x01, 0x00, 0x00, 0x66, 0x75, 0x6e, 0x63,
  0x74, 0x69, 0x6f, 0x6e, 0x61, 0x6c, 0x5f, 0x32, 0x5f, 0x31, 0x2f, 0x62,
  0x61, 0x74, 0x63, 0x68, 0x5f, 0x6e, 0x6f, 0x72, 0x6d, 0x61, 0x6c, 0x69,
  0x7a, 0x61, 0x74, 0x69, 0x6f, 0x6e, 0x5f, 0x36, 0x5f, 0x31, 0x2f, 0x62,
  0x61, 0x74, 0x63, 0x68, 0x6e, 0x6f, 0x72, 0x6d, 0x2f, 0x61, 0x64, 0x64,
  0x5f, 0x31, 0x3b, 0x66, 0x75, 0x6e, 0x63, 0x74, 0x69, 0x6f, 0x6e, 0x61,
  0x6c, 0x5f, 0x32, 0x5f, 0x31, 0x2f, 0x63, 0x6f, 0x6e, 0x76, 0x31, 0x64,
  0x5f, 0x36, 0x5f, 0x31, 0x2f, 0x63, 0x6f, 0x6e, 0x76, 0x6f, 0x6c, 0x75,
  0x74, 0x69, 0x6f, 0x6e, 0x2f, 0x53, 0x71, 0x75, 0x65, 0x65, 0x7a, 0x65,
  0x3b, 0x66, 0x75, 0x6e, 0x63, 0x74, 0x69, 0x6f, 0x6e, 0x61, 0x6c, 0x5f,
  0x32, 0x5f, 0x31, 0x2f, 0x62, 0x61, 0x74, 0x63, 0x68, 0x5f, 0x6e, 0x6f,
  0x72, 0x6d, 0x61, 0x6c, 0x69, 0x7a, 0x61, 0x74, 0x69, 0x6f, 0x6e, 0x5f,
  0x36, 0x5f, 0x31, 0x2f, 0x62, 0x61, 0x74, 0x63, 0x68, 0x6e, 0x6f, 0x72,
  0x6d, 0x2f, 0x6d, 0x75, 0x6c, 0x5f, 0x31, 0x3b, 0x66, 0x75, 0x6e, 0x63,
  0x74, 0x69, 0x6f, 0x6e, 0x61, 0x6c, 0x5f, 0x32, 0x5f, 0x31, 0x2f, 0x63,
  0x6f, 0x6e, 0x76, 0x31, 0x64, 0x5f, 0x36, 0x5f, 0x31, 0x2f, 0x52, 0x65,
  0x6c, 0x75, 0x3b, 0x66, 0x75, 0x6e, 0x63, 0x74, 0x69, 0x6f, 0x6e, 0x61,
  0x6c, 0x5f, 0x32, 0x5f, 0x31, 0x2f, 0x63, 0x6f, 0x6e, 0x76, 0x31, 0x64,
  0x5f, 0x36, 0x5f, 0x31, 0x2f, 0x42, 0x69, 0x61, 0x73, 0x41, 0x64, 0x64,
  0x3b, 0x66, 0x75, 0x6e, 0x63, 0x74, 0x69, 0x6f, 0x6e, 0x61, 0x6c, 0x5f,
  0x32, 0x5f, 0x31, 0x2f, 0x63, 0x6f, 0x6e, 0x76, 0x31, 0x64, 0x5f, 0x36,
  0x5f, 0x31, 0x2f, 0x53, 0x71, 0x75, 0x65, 0x65, 0x7a, 0x65, 0x3b, 0x66,
  0x75, 0x6e, 0x63, 0x74, 0x69, 0x6f, 0x6e, 0x61, 0x6c, 0x5f, 0x32, 0x5f,
  0x31, 0x2f, 0x62, 0x61, 0x74, 0x63, 0x68, 0x5f, 0x6e, 0x6f, 0x72, 0x6d,
  0x61, 0x6c, 0x69, 0x7a, 0x61, 0x74, 0x69, 0x6f, 0x6e, 0x5f, 0x36, 0x5f,
  0x31, 0x2f, 0x62, 0x61, 0x74, 0x63, 0x68, 0x6e, 0x6f, 0x72, 0x6d, 0x2f,
  0x6d, 0x75, 0x6c, 0x3b, 0x66, 0x75, 0x6e, 0x63, 0x74, 0x69, 0x6f, 0x6e,
  0x61, 0x6c, 0x5f, 0x32, 0x5f, 0x31, 0x2f, 0x62, 0x61, 0x74, 0x63, 0x68,
  0x5f, 0x6e, 0x6f, 0x72, 0x6d, 0x61, 0x6c, 0x69, 0x7a, 0x61, 0x74, 0x69,
  0x6f, 0x6e, 0x5f, 0x36, 0x5f, 0x31, 0x2f, 0x62, 0x61, 0x74, 0x63, 0x68,
  0x6e, 0x6f, 0x72, 0x6d, 0x2f, 0x73, 0x75, 0x62, 0x31, 0x00, 0x00, 0x00,
  0x03, 0x00, 0x00, 0x00, 0x01, 0x00, 0x00, 0x00, 0x96, 0x00, 0x00, 0x00,
  0x10, 0x00, 0x00, 0x00, 0x6e, 0xea, 0xff, 0xff, 0x00, 0x00, 0x00, 0x01,
  0x18, 0x00, 0x00, 0x00, 0x28, 0x00, 0x00, 0x00, 0x44, 0x00, 0x00, 0x00,
  0x1b, 0x00, 0x00, 0x00, 0x00, 0x00, 0x00, 0x09, 0xa8, 0x01, 0x00, 0x00,
  0x04, 0x00, 0x00, 0x00, 0xff, 0xff, 0xff, 0xff, 0x01, 0x00, 0x00, 0x00,
  0x96, 0x00, 0x00, 0x00, 0x10, 0x00, 0x00, 0x00, 0x5c, 0xea, 0xff, 0xff,
  0x08, 0x00, 0x00, 0x00, 0x10, 0x00, 0x00, 0x00, 0x01, 0x00, 0x00, 0x00,
  0x97, 0xff, 0xff, 0xff, 0xff, 0xff, 0xff, 0xff, 0x01, 0x00, 0x00, 0x00,
  0xb0, 0xee, 0x18, 0x3d, 0x68, 0x01, 0x00, 0x00, 0x66, 0x75, 0x6e, 0x63,
  0x74, 0x69, 0x6f, 0x6e, 0x61, 0x6c, 0x5f, 0x32, 0x5f, 0x31, 0x2f, 0x62,
  0x61, 0x74, 0x63, 0x68, 0x5f, 0x6e, 0x6f, 0x72, 0x6d, 0x61, 0x6c, 0x69,
  0x7a, 0x61, 0x74, 0x69, 0x6f, 0x6e, 0x5f, 0x36, 0x5f, 0x31, 0x2f, 0x62,
  0x61, 0x74, 0x63, 0x68, 0x6e, 0x6f, 0x72, 0x6d, 0x2f, 0x61, 0x64, 0x64,
  0x5f, 0x31, 0x3b, 0x66, 0x75, 0x6e, 0x63, 0x74, 0x69, 0x6f, 0x6e, 0x61,
  0x6c, 0x5f, 0x32, 0x5f, 0x31, 0x2f, 0x63, 0x6f, 0x6e, 0x76, 0x31, 0x64,
  0x5f, 0x36, 0x5f, 0x31, 0x2f, 0x63, 0x6f, 0x6e, 0x76, 0x6f, 0x6c, 0x75,
  0x74, 0x69, 0x6f, 0x6e, 0x2f, 0x53, 0x71, 0x75, 0x65, 0x65, 0x7a, 0x65,
  0x3b, 0x66, 0x75, 0x6e, 0x63, 0x74, 0x69, 0x6f, 0x6e, 0x61, 0x6c, 0x5f,
  0x32, 0x5f, 0x31, 0x2f, 0x62, 0x61, 0x74, 0x63, 0x68, 0x5f, 0x6e, 0x6f,
  0x72, 0x6d, 0x61, 0x6c, 0x69, 0x7a, 0x61, 0x74, 0x69, 0x6f, 0x6e, 0x5f,
  0x36, 0x5f, 0x31, 0x2f, 0x62, 0x61, 0x74, 0x63, 0x68, 0x6e, 0x6f, 0x72,
  0x6d, 0x2f, 0x6d, 0x75, 0x6c, 0x5f, 0x31, 0x3b, 0x66, 0x75, 0x6e, 0x63,
  0x74, 0x69, 0x6f, 0x6e, 0x61, 0x6c, 0x5f, 0x32, 0x5f, 0x31, 0x2f, 0x63,
  0x6f, 0x6e, 0x76, 0x31, 0x64, 0x5f, 0x36, 0x5f, 0x31, 0x2f, 0x52, 0x65,
  0x6c, 0x75, 0x3b, 0x66, 0x75, 0x6e, 0x63, 0x74, 0x69, 0x6f, 0x6e, 0x61,
  0x6c, 0x5f, 0x32, 0x5f, 0x31, 0x2f, 0x63, 0x6f, 0x6e, 0x76, 0x31, 0x64,
  0x5f, 0x36, 0x5f, 0x31, 0x2f, 0x42, 0x69, 0x61, 0x73, 0x41, 0x64, 0x64,
  0x3b, 0x66, 0x75, 0x6e, 0x63, 0x74, 0x69, 0x6f, 0x6e, 0x61, 0x6c, 0x5f,
  0x32, 0x5f, 0x31, 0x2f, 0x63, 0x6f, 0x6e, 0x76, 0x31, 0x64, 0x5f, 0x36,
  0x5f, 0x31, 0x2f, 0x53, 0x71, 0x75, 0x65, 0x65, 0x7a, 0x65, 0x3b, 0x66,
  0x75, 0x6e, 0x63, 0x74, 0x69, 0x6f, 0x6e, 0x61, 0x6c, 0x5f, 0x32, 0x5f,
  0x31, 0x2f, 0x62, 0x61, 0x74, 0x63, 0x68, 0x5f, 0x6e, 0x6f, 0x72, 0x6d,
  0x61, 0x6c, 0x69, 0x7a, 0x61, 0x74, 0x69, 0x6f, 0x6e, 0x5f, 0x36, 0x5f,
  0x31, 0x2f, 0x62, 0x61, 0x74, 0x63, 0x68, 0x6e, 0x6f, 0x72, 0x6d, 0x2f,
  0x6d, 0x75, 0x6c, 0x3b, 0x66, 0x75, 0x6e, 0x63, 0x74, 0x69, 0x6f, 0x6e,
  0x61, 0x6c, 0x5f, 0x32, 0x5f, 0x31, 0x2f, 0x62, 0x61, 0x74, 0x63, 0x68,
  0x5f, 0x6e, 0x6f, 0x72, 0x6d, 0x61, 0x6c, 0x69, 0x7a, 0x61, 0x74, 0x69,
  0x6f, 0x6e, 0x5f, 0x36, 0x5f, 0x31, 0x2f, 0x62, 0x61, 0x74, 0x63, 0x68,
  0x6e, 0x6f, 0x72, 0x6d, 0x2f, 0x73, 0x75, 0x62, 0x00, 0x00, 0x00, 0x00,
  0x04, 0x00, 0x00, 0x00, 0x01, 0x00, 0x00, 0x00, 0x01, 0x00, 0x00, 0x00,
  0x96, 0x00, 0x00, 0x00, 0x10, 0x00, 0x00, 0x00, 0x46, 0xec, 0xff, 0xff,
  0x00, 0x00, 0x00, 0x01, 0x18, 0x00, 0x00, 0x00, 0x28, 0x00, 0x00, 0x00,
  0x48, 0x00, 0x00, 0x00, 0x1a, 0x00, 0x00, 0x00, 0x00, 0x00, 0x00, 0x09,
  0x40, 0x01, 0x00, 0x00, 0x04, 0x00, 0x00, 0x00, 0xff, 0xff, 0xff, 0xff,
  0x01, 0x00, 0x00, 0x00, 0x96, 0x00, 0x00, 0x00, 0x10, 0x00, 0x00, 0x00,
  0x34, 0xec, 0xff, 0xff, 0x08, 0x00, 0x00, 0x00, 0x14, 0x00, 0x00, 0x00,
  0x01, 0x00, 0x00, 0x00, 0x95, 0xff, 0xff, 0xff, 0xff, 0xff, 0xff, 0xff,
  0x00, 0x00, 0x00, 0x00, 0x01, 0x00, 0x00, 0x00, 0x18, 0x41, 0x26, 0x3d,
  0xfc, 0x00, 0x00, 0x00, 0x66, 0x75, 0x6e, 0x63, 0x74, 0x69, 0x6f, 0x6e,
