// Please add your magic_wand_model_data here, you can copy paste the whole cell from colab.

unsigned char g_swing_sense_model_data[] = {
  /* Fill in */
  0x1c, 0x00, 0x00, 0x00, 0x54, 0x46, 0x4c, 0x33, 0x14, 0x00, 0x20, 0x00,
  0x1c, 0x00, 0x18, 0x00, 0x14, 0x00, 0x10, 0x00, 0x0c, 0x00, 0x00, 0x00,
  0x08, 0x00, 0x04, 0x00, 0x14, 0x00, 0x00, 0x00, 0x1c, 0x00, 0x00, 0x00,
  0x8c, 0x00, 0x00, 0x00, 0x0c, 0x01, 0x00, 0x00, 0x48, 0x20, 0x00, 0x00,
  0x58, 0x20, 0x00, 0x00, 0x58, 0x51, 0x00, 0x00, 0x03, 0x00, 0x00, 0x00,
  0x01, 0x00, 0x00, 0x00, 0x04, 0x00, 0x00, 0x00, 0x42, 0xdb, 0xff, 0xff,
  0x0c, 0x00, 0x00, 0x00, 0x1c, 0x00, 0x00, 0x00, 0x3c, 0x00, 0x00, 0x00,
  0x0f, 0x00, 0x00, 0x00, 0x73, 0x65, 0x72, 0x76, 0x69, 0x6e, 0x67, 0x5f,
  0x64, 0x65, 0x66, 0x61, 0x75, 0x6c, 0x74, 0x00, 0x01, 0x00, 0x00, 0x00,
  0x04, 0x00, 0x00, 0x00, 0x68, 0xff, 0xff, 0xff, 0x2f, 0x00, 0x00, 0x00,
  0x04, 0x00, 0x00, 0x00, 0x08, 0x00, 0x00, 0x00, 0x6f, 0x75, 0x74, 0x70,
  0x75, 0x74, 0x5f, 0x30, 0x00, 0x00, 0x00, 0x00, 0x01, 0x00, 0x00, 0x00,
  0x04, 0x00, 0x00, 0x00, 0x3e, 0xe0, 0xff, 0xff, 0x04, 0x00, 0x00, 0x00,
  0x0c, 0x00, 0x00, 0x00, 0x6b, 0x65, 0x72, 0x61, 0x73, 0x5f, 0x74, 0x65,
  0x6e, 0x73, 0x6f, 0x72, 0x00, 0x00, 0x00, 0x00, 0x03, 0x00, 0x00, 0x00,
  0x5c, 0x00, 0x00, 0x00, 0x2c, 0x00, 0x00, 0x00, 0x04, 0x00, 0x00, 0x00,
  0xb8, 0xff, 0xff, 0xff, 0x33, 0x00, 0x00, 0x00, 0x04, 0x00, 0x00, 0x00,
  0x13, 0x00, 0x00, 0x00, 0x43, 0x4f, 0x4e, 0x56, 0x45, 0x52, 0x53, 0x49,
  0x4f, 0x4e, 0x5f, 0x4d, 0x45, 0x54, 0x41, 0x44, 0x41, 0x54, 0x41, 0x00,
  0xdc, 0xff, 0xff, 0xff, 0x32, 0x00, 0x00, 0x00, 0x04, 0x00, 0x00, 0x00,
  0x13, 0x00, 0x00, 0x00, 0x6d, 0x69, 0x6e, 0x5f, 0x72, 0x75, 0x6e, 0x74,
  0x69, 0x6d, 0x65, 0x5f, 0x76, 0x65, 0x72, 0x73, 0x69, 0x6f, 0x6e, 0x00,
  0x08, 0x00, 0x0c, 0x00, 0x08, 0x00, 0x04, 0x00, 0x08, 0x00, 0x00, 0x00,
  0x31, 0x00, 0x00, 0x00, 0x04, 0x00, 0x00, 0x00, 0x13, 0x00, 0x00, 0x00,
  0x6d, 0x69, 0x6e, 0x5f, 0x72, 0x75, 0x6e, 0x74, 0x69, 0x6d, 0x65, 0x5f,
  0x76, 0x65, 0x72, 0x73, 0x69, 0x6f, 0x6e, 0x00, 0x34, 0x00, 0x00, 0x00,
  0x38, 0x1f, 0x00, 0x00, 0x30, 0x1f, 0x00, 0x00, 0x1c, 0x1f, 0x00, 0x00,
  0xf8, 0x1e, 0x00, 0x00, 0xe4, 0x1e, 0x00, 0x00, 0xc8, 0x1e, 0x00, 0x00,
  0xac, 0x1e, 0x00, 0x00, 0x90, 0x1e, 0x00, 0x00, 0x7c, 0x1e, 0x00, 0x00,
  0x5c, 0x1e, 0x00, 0x00, 0x0c, 0x1e, 0x00, 0x00, 0xfc, 0x1b, 0x00, 0x00,
  0xcc, 0x1b, 0x00, 0x00, 0x9c, 0x1b, 0x00, 0x00, 0x0c, 0x1b, 0x00, 0x00,
  0xfc, 0x0e, 0x00, 0x00, 0xcc, 0x0e, 0x00, 0x00, 0x9c, 0x0e, 0x00, 0x00,
  0x0c, 0x0e, 0x00, 0x00, 0xfc, 0x03, 0x00, 0x00, 0xdc, 0x03, 0x00, 0x00,
  0xbc, 0x03, 0x00, 0x00, 0x6c, 0x03, 0x00, 0x00, 0x7c, 0x01, 0x00, 0x00,
  0x74, 0x01, 0x00, 0x00, 0x6c, 0x01, 0x00, 0x00, 0x64, 0x01, 0x00, 0x00,
  0x5c, 0x01, 0x00, 0x00, 0x54, 0x01, 0x00, 0x00, 0x4c, 0x01, 0x00, 0x00,
  0x44, 0x01, 0x00, 0x00, 0x3c, 0x01, 0x00, 0x00, 0x34, 0x01, 0x00, 0x00,
  0x2c, 0x01, 0x00, 0x00, 0x24, 0x01, 0x00, 0x00, 0x1c, 0x01, 0x00, 0x00,
  0x14, 0x01, 0x00, 0x00, 0x0c, 0x01, 0x00, 0x00, 0x04, 0x01, 0x00, 0x00,
  0xfc, 0x00, 0x00, 0x00, 0xf4, 0x00, 0x00, 0x00, 0xec, 0x00, 0x00, 0x00,
  0xe4, 0x00, 0x00, 0x00, 0xdc, 0x00, 0x00, 0x00, 0xd4, 0x00, 0x00, 0x00,
  0xcc, 0x00, 0x00, 0x00, 0xc4, 0x00, 0x00, 0x00, 0xbc, 0x00, 0x00, 0x00,
  0xb4, 0x00, 0x00, 0x00, 0x94, 0x00, 0x00, 0x00, 0x74, 0x00, 0x00, 0x00,
  0x04, 0x00, 0x00, 0x00, 0xb2, 0xe1, 0xff, 0xff, 0x04, 0x00, 0x00, 0x00,
  0x60, 0x00, 0x00, 0x00, 0x0c, 0x00, 0x00, 0x00, 0x08, 0x00, 0x0e, 0x00,
  0x08, 0x00, 0x04, 0x00, 0x08, 0x00, 0x00, 0x00, 0x10, 0x00, 0x00, 0x00,
  0x28, 0x00, 0x00, 0x00, 0x00, 0x00, 0x06, 0x00, 0x08, 0x00, 0x04, 0x00,
  0x06, 0x00, 0x00, 0x00, 0x04, 0x00, 0x00, 0x00, 0x01, 0x00, 0x00, 0x00,
  0xeb, 0x03, 0x00, 0x00, 0x0c, 0x00, 0x18, 0x00, 0x14, 0x00, 0x10, 0x00,
  0x0c, 0x00, 0x04, 0x00, 0x0c, 0x00, 0x00, 0x00, 0x19, 0x24, 0x17, 0xc5,
  0xc7, 0x7c, 0xe6, 0x57, 0x01, 0x00, 0x00, 0x00, 0x02, 0x00, 0x00, 0x00,
  0x04, 0x00, 0x00, 0x00, 0x06, 0x00, 0x00, 0x00, 0x32, 0x2e, 0x31, 0x39,
  0x2e, 0x30, 0x00, 0x00, 0x1e, 0xe2, 0xff, 0xff, 0x04, 0x00, 0x00, 0x00,
  0x10, 0x00, 0x00, 0x00, 0x00, 0x00, 0x00, 0x00, 0x00, 0x00, 0x00, 0x00,
  0x00, 0x00, 0x00, 0x00, 0x00, 0x00, 0x00, 0x00, 0x3a, 0xe2, 0xff, 0xff,
  0x04, 0x00, 0x00, 0x00, 0x10, 0x00, 0x00, 0x00, 0x31, 0x2e, 0x31, 0x34,
  0x2e, 0x30, 0x00, 0x00, 0x00, 0x00, 0x00, 0x00, 0x00, 0x00, 0x00, 0x00,
  0xe8, 0xb1, 0xff, 0xff, 0xec, 0xb1, 0xff, 0xff, 0xf0, 0xb1, 0xff, 0xff,
  0xf4, 0xb1, 0xff, 0xff, 0xf8, 0xb1, 0xff, 0xff, 0xfc, 0xb1, 0xff, 0xff,
  0x00, 0xb2, 0xff, 0xff, 0x04, 0xb2, 0xff, 0xff, 0x08, 0xb2, 0xff, 0xff,
  0x0c, 0xb2, 0xff, 0xff, 0x10, 0xb2, 0xff, 0xff, 0x14, 0xb2, 0xff, 0xff,
  0x18, 0xb2, 0xff, 0xff, 0x1c, 0xb2, 0xff, 0xff, 0x20, 0xb2, 0xff, 0xff,
  0x24, 0xb2, 0xff, 0xff, 0x28, 0xb2, 0xff, 0xff, 0x2c, 0xb2, 0xff, 0xff,
  0x30, 0xb2, 0xff, 0xff, 0x34, 0xb2, 0xff, 0xff, 0x38, 0xb2, 0xff, 0xff,
  0x3c, 0xb2, 0xff, 0xff, 0x40, 0xb2, 0xff, 0xff, 0x44, 0xb2, 0xff, 0xff,
  0x48, 0xb2, 0xff, 0xff, 0xba, 0xe2, 0xff, 0xff, 0x04, 0x00, 0x00, 0x00,
  0xe0, 0x01, 0x00, 0x00, 0x47, 0x40, 0x55, 0x2f, 0xf9, 0x1a, 0x55, 0xdd,
  0xf6, 0x01, 0xf5, 0x7b, 0xc7, 0x62, 0x3a, 0xe2, 0x28, 0xb0, 0xf7, 0xa6,
  0x95, 0xe7, 0x2d, 0x4b, 0x60, 0x34, 0x0b, 0x66, 0x81, 0x2b, 0xaa, 0x10,
  0xce, 0x2e, 0x45, 0xd9, 0x0e, 0xb4, 0x10, 0x93, 0xed, 0x45, 0xbf, 0x5f,
  0x2e, 0x8f, 0xef, 0xeb, 0xf0, 0xf1, 0xbb, 0xd4, 0x07, 0x59, 0xca, 0xdb,
  0x9d, 0xe1, 0x3b, 0x81, 0x55, 0xfc, 0xaf, 0x1c, 0x6a, 0x48, 0xf3, 0x29,
  0xe7, 0x32, 0xda, 0xd2, 0x4e, 0x51, 0x45, 0x1a, 0xa6, 0x29, 0x43, 0x81,
  0x9a, 0xa2, 0xf9, 0x3a, 0x10, 0x6c, 0xb3, 0x55, 0x50, 0x97, 0xbb, 0xea,
  0x0d, 0x3c, 0xc4, 0x5b, 0xce, 0x61, 0x75, 0xf3, 0x68, 0x48, 0xa7, 0x67,
  0xfb, 0xf6, 0x05, 0xe2, 0xdc, 0x17, 0x57, 0x9f, 0x3d, 0xa0, 0x81, 0x65,
  0x52, 0xb8, 0x12, 0xc5, 0x4a, 0x05, 0xce, 0xca, 0xb1, 0x81, 0x8e, 0x47,
  0xc1, 0x14, 0x11, 0x32, 0xa5, 0x48, 0x11, 0xf1, 0xab, 0x4b, 0x18, 0x9f,
  0x97, 0x13, 0xce, 0x8e, 0x17, 0x67, 0x32, 0xdd, 0xed, 0x3e, 0xc9, 0x98,
  0x10, 0x9d, 0xe1, 0xc0, 0x9e, 0x22, 0xc1, 0x6c, 0xec, 0xed, 0x20, 0x58,
  0x8a, 0x08, 0x76, 0xbf, 0x7f, 0xba, 0x21, 0x25, 0x35, 0xfc, 0x68, 0xd8,
  0x6a, 0x2e, 0x3a, 0xf1, 0xbe, 0x9d, 0xdf, 0x31, 0x00, 0xca, 0x81, 0xd9,
  0x58, 0xcc, 0xb2, 0x7e, 0x16, 0x8a, 0xa6, 0xfc, 0xa1, 0x17, 0x60, 0x09,
  0x77, 0xb6, 0x68, 0xf0, 0x84, 0x9d, 0xb1, 0xc8, 0x23, 0x38, 0x6c, 0x34,
  0x1a, 0xf9, 0xd0, 0x60, 0xff, 0xfd, 0x96, 0x12, 0xb4, 0x71, 0xeb, 0xcd,
  0x07, 0x7f, 0xba, 0x33, 0x54, 0x62, 0xc3, 0xac, 0xba, 0x8c, 0x15, 0x7e,
  0xa3, 0x72, 0x97, 0x77, 0xda, 0x49, 0x33, 0x9d, 0xc5, 0x91, 0x14, 0x04,
  0x26, 0x35, 0x67, 0xd8, 0x3f, 0x5b, 0xcf, 0x6a, 0xe6, 0xc5, 0xa5, 0xe0,
  0x01, 0x34, 0xe9, 0x35, 0xe5, 0x02, 0xce, 0x7f, 0x1e, 0xb8, 0x81, 0xc7,
  0x74, 0xa1, 0xf6, 0xdf, 0x9e, 0xc4, 0x2f, 0x62, 0xce, 0xd9, 0xa5, 0x27,
  0xd7, 0x2a, 0xfe, 0xd6, 0x0d, 0xf4, 0x09, 0x21, 0xe0, 0xdb, 0xe0, 0x0e,
  0xd8, 0xc4, 0xd0, 0xfa, 0x58, 0x77, 0x6a, 0x47, 0xba, 0xf4, 0x78, 0xb0,
  0xa0, 0x58, 0x81, 0x1a, 0x5a, 0x47, 0x9f, 0x39, 0x3d, 0xf5, 0xbb, 0x59,
  0x98, 0xec, 0xf0, 0xba, 0x1b, 0x79, 0x32, 0x83, 0x67, 0x3c, 0xb5, 0xd5,
  0xbe, 0xe8, 0x0a, 0x9e, 0x57, 0x03, 0x5b, 0xb2, 0x97, 0xb8, 0xd0, 0xf5,
  0x0c, 0xcb, 0x97, 0xa5, 0x1c, 0x3e, 0x94, 0x3a, 0x6f, 0x70, 0x00, 0x5b,
  0xfa, 0x81, 0x11, 0xb2, 0x79, 0xb0, 0xf8, 0xe9, 0xa0, 0x47, 0xb3, 0xbb,
  0x81, 0xec, 0x7d, 0xda, 0x30, 0x22, 0xfc, 0x69, 0x96, 0x59, 0x61, 0xc5,
  0xcd, 0xfb, 0x21, 0x42, 0x66, 0x99, 0x3e, 0x7a, 0x66, 0xb5, 0xd1, 0x57,
  0xf1, 0xdc, 0x8c, 0x81, 0x30, 0x84, 0xe1, 0xe6, 0x69, 0x52, 0x79, 0x38,
  0xd2, 0x67, 0x04, 0x5b, 0xbe, 0x86, 0x4c, 0xc7, 0xe9, 0xc9, 0x26, 0x81,
  0xc3, 0x85, 0x91, 0x87, 0xbd, 0x7f, 0x9b, 0xf1, 0xf0, 0xef, 0x99, 0xb5,
  0x78, 0xc5, 0xcd, 0xf9, 0x70, 0xd0, 0x91, 0x25, 0x72, 0xbe, 0x6e, 0xd7,
  0xd3, 0x01, 0x78, 0xaf, 0x08, 0x48, 0xd4, 0xed, 0x65, 0xe2, 0x28, 0xe7,
  0xff, 0xa0, 0x04, 0xee, 0x0d, 0xd5, 0xd8, 0x4d, 0xdd, 0xb9, 0x4f, 0x63,
  0xc2, 0xb7, 0xd6, 0x2a, 0x7d, 0x0f, 0x5e, 0xae, 0x43, 0x8e, 0x7f, 0x5e,
  0xc3, 0x5d, 0x4c, 0x2e, 0xa6, 0xe4, 0xff, 0xff, 0x04, 0x00, 0x00, 0x00,
  0x40, 0x00, 0x00, 0x00, 0xa2, 0xff, 0xff, 0xff, 0xee, 0xff, 0xff, 0xff,
  0xbb, 0x02, 0x00, 0x00, 0x74, 0xff, 0xff, 0xff, 0x75, 0xfb, 0xff, 0xff,
  0x26, 0xfe, 0xff, 0xff, 0x03, 0x01, 0x00, 0x00, 0x7d, 0x01, 0x00, 0x00,
  0xa1, 0xfd, 0xff, 0xff, 0xd5, 0x01, 0x00, 0x00, 0x15, 0x01, 0x00, 0x00,
  0x06, 0xfd, 0xff, 0xff, 0x15, 0x03, 0x00, 0x00, 0xc3, 0x00, 0x00, 0x00,
  0x06, 0x01, 0x00, 0x00, 0xbc, 0xfd, 0xff, 0xff, 0xf2, 0xe4, 0xff, 0xff,
  0x04, 0x00, 0x00, 0x00, 0x10, 0x00, 0x00, 0x00, 0x68, 0x51, 0x4c, 0x58,
  0x69, 0x7f, 0x0a, 0x1a, 0x5b, 0x21, 0x59, 0x71, 0x2c, 0x56, 0x58, 0x44,
  0x0e, 0xe5, 0xff, 0xff, 0x04, 0x00, 0x00, 0x00, 0x10, 0x00, 0x00, 0x00,
  0xef, 0xdd, 0xad, 0xab, 0xf6, 0x04, 0xde, 0xb3, 0xba, 0xc7, 0x80, 0x05,
  0xf9, 0xfb, 0xcb, 0xda, 0x2a, 0xe5, 0xff, 0xff, 0x04, 0x00, 0x00, 0x00,
  0x00, 0x0a, 0x00, 0x00, 0x37, 0xc5, 0xae, 0x61, 0xf0, 0x90, 0xcd, 0x00,
  0xa2, 0x05, 0x26, 0xdd, 0x1b, 0x5d, 0x73, 0xbb, 0x09, 0xd0, 0xf1, 0x5d,
  0x7f, 0x12, 0xc1, 0xc7, 0xc6, 0xd9, 0x3a, 0x58, 0x5e, 0xbf, 0xb7, 0xd7,
  0xcc, 0x2d, 0x20, 0xdd, 0x62, 0x1b, 0x57, 0x32, 0x09, 0xda, 0x1b, 0xdd,
  0x91, 0x07, 0x2f, 0xac, 0x30, 0x5d, 0x9a, 0xf7, 0xed, 0x42, 0x28, 0x3b,
  0xa2, 0xf6, 0xa2, 0x41, 0x1e, 0x75, 0xa0, 0x02, 0x46, 0x59, 0x55, 0x9b,
  0x4a, 0xa6, 0xd5, 0xdd, 0x0d, 0xdd, 0xbb, 0x66, 0xf1, 0xdf, 0x20, 0x9f,
  0x47, 0x3d, 0xd3, 0x53, 0x02, 0x6c, 0x48, 0x98, 0x71, 0x9a, 0xd2, 0x3d,
  0x14, 0xea, 0xdc, 0x38, 0xbf, 0xf2, 0xc7, 0x9c, 0x38, 0xe1, 0xde, 0x31,
  0x33, 0x95, 0x1f, 0x7f, 0xfe, 0xc7, 0x46, 0xb9, 0x12, 0x14, 0x0e, 0xb6,
  0xa5, 0xfb, 0x8b, 0x26, 0xdc, 0x15, 0xed, 0x46, 0x2b, 0x37, 0xf2, 0x00,
  0x2e, 0xf1, 0x9b, 0xf1, 0xed, 0xb2, 0x5d, 0x21, 0x52, 0x48, 0x6b, 0x4c,
  0xb2, 0xf2, 0x5b, 0x43, 0xc3, 0xf7, 0xa6, 0x02, 0x09, 0x3a, 0x38, 0xc5,
  0x88, 0xb7, 0xb5, 0x5d, 0x4a, 0x54, 0x14, 0x57, 0x8e, 0xd8, 0x14, 0xd9,
  0xf5, 0xda, 0x66, 0x4e, 0xbb, 0x4e, 0xeb, 0x41, 0xd2, 0xf5, 0x5b, 0xde,
  0xb5, 0x58, 0x96, 0x98, 0xbf, 0x94, 0xe9, 0xa3, 0xe9, 0x87, 0x4f, 0x86,
  0x56, 0xf7, 0x2c, 0x5a, 0xcc, 0x2e, 0xd5, 0x26, 0x1b, 0x63, 0xf5, 0xd1,
  0x15, 0xfc, 0xdd, 0xaf, 0x09, 0x01, 0x62, 0x50, 0x21, 0xe3, 0x22, 0x3b,
  0x81, 0xd4, 0xcd, 0x1a, 0xae, 0x12, 0x3a, 0x4b, 0xeb, 0xec, 0xfb, 0xa2,
  0xfd, 0x6a, 0xe2, 0x1e, 0x87, 0xf1, 0x4f, 0x23, 0x9b, 0xbd, 0x4c, 0xff,
  0x9c, 0x35, 0x19, 0xc6, 0x46, 0xf9, 0x3a, 0x7a, 0xd6, 0x26, 0xc0, 0x96,
  0x07, 0x06, 0x96, 0xc3, 0xb4, 0x3c, 0xcf, 0xa5, 0xe9, 0xa4, 0xda, 0x57,
  0xc0, 0xf3, 0x28, 0xb9, 0xa0, 0xdc, 0xd5, 0x62, 0x1b, 0xdf, 0xc8, 0x6e,
  0x63, 0xfa, 0x46, 0x28, 0x2a, 0x2e, 0x45, 0xd1, 0x28, 0x7b, 0xec, 0x57,
  0x26, 0xd4, 0x2c, 0x10, 0x26, 0x81, 0xcb, 0x5c, 0x90, 0xba, 0x9c, 0x4d,
  0x00, 0xef, 0x26, 0xb6, 0x06, 0x54, 0x0d, 0xad, 0xac, 0x53, 0xce, 0xa4,
  0x39, 0xb9, 0x64, 0x59, 0x7e, 0x73, 0xd7, 0xbf, 0x0c, 0x13, 0xdc, 0xc9,
  0x57, 0x22, 0x76, 0x1b, 0x55, 0x0a, 0x91, 0x5d, 0xb2, 0x99, 0xdf, 0xe2,
  0x58, 0xd0, 0x05, 0xae, 0x27, 0x29, 0x25, 0xcd, 0xd1, 0xf2, 0x73, 0xb5,
  0x64, 0x53, 0x62, 0xf6, 0x6a, 0xf3, 0x7c, 0xc8, 0xb7, 0xbd, 0x7f, 0xa1,
  0x02, 0x0e, 0x58, 0x90, 0xdf, 0x90, 0x3e, 0x4e, 0xe5, 0xa2, 0xf6, 0x72,
  0x9a, 0x4e, 0x41, 0x9d, 0x33, 0x1a, 0x33, 0xb3, 0xd1, 0x38, 0x35, 0x52,
  0x41, 0x06, 0x3b, 0x67, 0x1d, 0x4b, 0x2c, 0x6b, 0x3f, 0x28, 0x05, 0xba,
  0x6c, 0xa3, 0xe6, 0x11, 0xc7, 0x0c, 0x7f, 0x97, 0xe5, 0x24, 0xa8, 0xc7,
  0x91, 0x29, 0x90, 0xdb, 0xcd, 0xc6, 0xef, 0xe6, 0x2d, 0xd0, 0x5f, 0x1d,
  0xa9, 0x03, 0x2e, 0x39, 0xfa, 0xc6, 0xf9, 0xd2, 0xfb, 0x11, 0x04, 0x6b,
  0x97, 0x4a, 0xd0, 0xe6, 0xe3, 0x50, 0x5a, 0x16, 0xad, 0x03, 0x0f, 0xca,
  0x82, 0xc8, 0xfd, 0xc8, 0xba, 0xb7, 0x98, 0x31, 0xf2, 0x7f, 0x53, 0x36,
  0x11, 0xbd, 0x71, 0xfa, 0x4a, 0x6b, 0x09, 0x73, 0xb7, 0xe8, 0xfd, 0x37,
  0x2d, 0x20, 0x32, 0x5b, 0x54, 0xfd, 0x71, 0x45, 0x94, 0xa4, 0xb5, 0xb3,
  0x3b, 0x06, 0x48, 0xf2, 0x20, 0xcf, 0x04, 0x40, 0x13, 0xac, 0x81, 0x65,
  0xc0, 0x0c, 0x15, 0xad, 0xed, 0xb8, 0xc2, 0x61, 0x1a, 0xe2, 0xab, 0xbc,
  0x4a, 0xba, 0xcf, 0x06, 0x9c, 0x0b, 0x65, 0x76, 0x29, 0xc4, 0xdc, 0x21,
  0x18, 0xd6, 0xe0, 0xfe, 0x09, 0x32, 0xa8, 0x58, 0x2a, 0x4b, 0x70, 0xbf,
  0x02, 0x02, 0x50, 0xca, 0xb3, 0xb0, 0xfe, 0x3b, 0x1c, 0x37, 0x13, 0xc9,
  0x4a, 0xcf, 0x00, 0x52, 0x0d, 0x4a, 0x2a, 0xe1, 0xd5, 0x51, 0x0d, 0xbf,
  0x04, 0x13, 0xee, 0x3d, 0x19, 0xcd, 0x7d, 0x38, 0x22, 0x5e, 0x48, 0x23,
  0x43, 0x5b, 0xf5, 0xa9, 0xb1, 0x8b, 0x5b, 0x24, 0x6d, 0x03, 0x0d, 0x2b,
  0x22, 0xf6, 0x02, 0x4f, 0x28, 0x0c, 0xed, 0xf1, 0x22, 0x57, 0xa9, 0x89,
  0xb4, 0xca, 0x23, 0xf8, 0x57, 0xb0, 0x44, 0xc4, 0xb3, 0x4a, 0xe6, 0xea,
  0x11, 0xef, 0xcc, 0x41, 0x10, 0x97, 0x90, 0xde, 0x9d, 0x5e, 0xf6, 0x91,
  0x9b, 0x94, 0xda, 0xc8, 0x96, 0x2e, 0x1a, 0xa7, 0x23, 0x1e, 0xb2, 0x91,
  0x3f, 0xe2, 0xf8, 0x8a, 0x81, 0xe9, 0x14, 0x34, 0x10, 0xf0, 0xd2, 0xcf,
  0xda, 0x49, 0x39, 0xda, 0x43, 0x03, 0xf8, 0xc9, 0xa2, 0x42, 0x4e, 0xcb,
  0x25, 0x37, 0xf9, 0xea, 0xed, 0xcb, 0x0e, 0xe0, 0xa5, 0xdc, 0x35, 0xd0,
  0xac, 0xaa, 0xea, 0xb6, 0x14, 0x30, 0xdc, 0x9f, 0x42, 0xfd, 0xbc, 0x22,
  0x53, 0xed, 0x98, 0xe5, 0xac, 0x54, 0xd1, 0x5a, 0x81, 0x1f, 0xca, 0x07,
  0xea, 0x63, 0xa6, 0xcd, 0x35, 0xf7, 0xa4, 0x42, 0x4d, 0x2a, 0x99, 0xd6,
  0x1e, 0xc1, 0x16, 0xfe, 0x32, 0xa4, 0xb3, 0xee, 0x08, 0xc8, 0x25, 0xb8,
  0xf9, 0x1e, 0xb9, 0xa0, 0x15, 0x1f, 0x2f, 0x40, 0x44, 0x60, 0xbb, 0x08,
  0xce, 0x61, 0xb4, 0xf3, 0x41, 0x04, 0xd4, 0xaa, 0x61, 0xa2, 0x5b, 0x4f,
  0x46, 0x56, 0x48, 0x59, 0xce, 0xd0, 0xf5, 0xf1, 0x01, 0x40, 0x09, 0x39,
  0x1f, 0x00, 0x8c, 0x39, 0xbb, 0x37, 0xa8, 0x16, 0xed, 0x4a, 0x53, 0x51,
  0xdf, 0x65, 0x0c, 0xd5, 0x51, 0x17, 0xf5, 0xf1, 0xf5, 0xfc, 0x0b, 0x70,
  0x29, 0xf4, 0xd5, 0x94, 0xc2, 0x37, 0xa5, 0xde, 0x0c, 0xd8, 0xf0, 0x7e,
  0x49, 0x64, 0x12, 0xc2, 0xd1, 0xfb, 0x18, 0xa7, 0xf2, 0x4e, 0xce, 0xae,
  0xdc, 0x43, 0xb5, 0x3c, 0xb4, 0x3b, 0x30, 0x7f, 0x3a, 0x8f, 0xa5, 0x24,
  0xeb, 0x61, 0xd6, 0x53, 0x47, 0x3d, 0x02, 0x1a, 0x04, 0xe8, 0xdc, 0xcc,
  0xb0, 0x2f, 0x5f, 0xbc, 0xe2, 0xb6, 0xe1, 0x29, 0x76, 0xdc, 0xef, 0x63,
  0xd6, 0x4f, 0xaf, 0x11, 0xd9, 0xd8, 0x27, 0x3b, 0x4d, 0xa2, 0xf1, 0xb5,
  0xf0, 0xc6, 0xc8, 0xb4, 0xf7, 0xfe, 0x33, 0x7f, 0x6f, 0xb7, 0x95, 0x4e,
  0xcf, 0x06, 0xfb, 0x5f, 0x76, 0xaa, 0x55, 0xa4, 0x16, 0xea, 0x17, 0x0d,
  0x32, 0x0b, 0x56, 0x59, 0x57, 0x39, 0x70, 0xfa, 0xd9, 0x42, 0xe1, 0x51,
  0x0b, 0x49, 0xa2, 0x6b, 0xea, 0x29, 0x43, 0xf4, 0xbf, 0xcb, 0xa9, 0xe6,
  0x40, 0x38, 0xab, 0xe9, 0x19, 0xf8, 0xa9, 0xd0, 0xd5, 0x3a, 0x7f, 0x6e,
  0x3a, 0x15, 0xdf, 0xc4, 0xeb, 0x3a, 0xfe, 0xea, 0x10, 0x43, 0x38, 0xa7,
  0x20, 0x62, 0x5e, 0xc8, 0xed, 0x34, 0x3c, 0xa3, 0xb5, 0x25, 0x93, 0x35,
  0xe4, 0x1e, 0xb7, 0x2f, 0xcf, 0xc5, 0x6f, 0x41, 0xb6, 0x2f, 0x2b, 0xb7,
  0x61, 0x9e, 0x92, 0xba, 0x04, 0xf4, 0x75, 0x2a, 0xb6, 0xc5, 0x0c, 0x1c,
  0x6c, 0x29, 0x4e, 0x64, 0x98, 0x1f, 0xa2, 0xb6, 0x56, 0x8f, 0xc8, 0xc6,
  0x50, 0x17, 0xcb, 0xe6, 0x5f, 0x1e, 0x59, 0xab, 0xec, 0xdc, 0xe3, 0x6c,
  0xb6, 0x05, 0xed, 0xf2, 0xa1, 0xaf, 0xd9, 0x01, 0x94, 0x81, 0xcb, 0x38,
  0x3c, 0xbb, 0xa3, 0x53, 0xbd, 0xc1, 0x91, 0xf9, 0x6c, 0x12, 0x5f, 0x40,
  0xb9, 0xe2, 0x49, 0x55, 0x37, 0x9f, 0x92, 0x30, 0x65, 0xe9, 0x8f, 0x84,
  0xb6, 0x55, 0xf9, 0x4e, 0x8f, 0x0d, 0x36, 0x3e, 0xa9, 0x6f, 0xea, 0x9b,
  0xc2, 0x1f, 0x0d, 0xb1, 0x27, 0xbb, 0xff, 0xcb, 0xc1, 0x73, 0x0d, 0xad,
  0x19, 0xac, 0xa2, 0xe5, 0x0c, 0xa5, 0x99, 0xbe, 0x8b, 0x26, 0xd5, 0xf8,
  0xa7, 0x1d, 0x38, 0x0a, 0xb8, 0x60, 0x84, 0xbe, 0xcd, 0xfb, 0xe4, 0x15,
  0xd3, 0x44, 0xbe, 0x0c, 0x59, 0x59, 0x16, 0x12, 0x59, 0xd1, 0x42, 0x31,
  0x51, 0xfe, 0x52, 0xbf, 0xd2, 0x0c, 0x1a, 0x4c, 0x66, 0x9c, 0x4c, 0x57,
  0x03, 0x2d, 0xba, 0x58, 0x11, 0x73, 0xd7, 0x45, 0x01, 0xb8, 0x13, 0x25,
  0x16, 0x59, 0x54, 0xff, 0x66, 0xc8, 0xc4, 0x1d, 0xd5, 0xc5, 0x12, 0xdf,
  0x03, 0x2b, 0xe1, 0x37, 0xac, 0xbd, 0x93, 0x49, 0xfb, 0x2c, 0xe7, 0xc9,
  0x4a, 0x23, 0x7f, 0x23, 0xc6, 0xd0, 0x0f, 0x4e, 0x64, 0xb4, 0x86, 0x44,
  0xf6, 0x67, 0xbf, 0x30, 0xde, 0x40, 0xb1, 0x8b, 0x37, 0xfb, 0x64, 0x8b,
  0x16, 0xf9, 0xfd, 0xfb, 0xbb, 0x50, 0xd5, 0x6d, 0x51, 0x1a, 0x35, 0x51,
  0x64, 0x3a, 0x54, 0x14, 0x83, 0xec, 0x37, 0x9a, 0x3b, 0xe1, 0xb7, 0x0a,
  0x45, 0x2c, 0xbb, 0xf9, 0x46, 0x4f, 0x88, 0xca, 0xa1, 0x4d, 0x07, 0x31,
  0x95, 0xa0, 0x3d, 0x29, 0xe8, 0xc7, 0xd5, 0x04, 0x12, 0x4c, 0x67, 0xd8,
  0x2c, 0xb5, 0xd6, 0xc2, 0x4f, 0xbf, 0xf7, 0x1c, 0x1a, 0x52, 0x21, 0xbd,
  0xdb, 0x0d, 0x45, 0x81, 0x30, 0xd0, 0x39, 0x9e, 0xe6, 0x68, 0xfb, 0xdd,
  0x06, 0x33, 0xc5, 0xda, 0x21, 0x93, 0xd7, 0xec, 0xcb, 0xa3, 0x4c, 0x2c,
  0xdd, 0x62, 0x53, 0x23, 0xe1, 0x87, 0x32, 0x17, 0xf1, 0x36, 0x36, 0x99,
  0x5d, 0x46, 0xc9, 0xc1, 0x7f, 0xea, 0xc7, 0x74, 0x8e, 0x6c, 0x54, 0xf9,
  0x85, 0x23, 0x53, 0x26, 0xa8, 0xb6, 0x85, 0xf7, 0x71, 0x9f, 0x67, 0x35,
  0x54, 0x0a, 0x31, 0x6d, 0x52, 0xe7, 0x45, 0x58, 0xfb, 0xd2, 0x02, 0x8d,
  0x11, 0x42, 0x2d, 0x0e, 0xc1, 0xde, 0x5c, 0xcb, 0x09, 0xf5, 0xa1, 0xfd,
  0xab, 0x32, 0xec, 0x5c, 0xaf, 0x82, 0x0a, 0x25, 0xee, 0x3b, 0xe8, 0x59,
  0xd2, 0xd6, 0xd6, 0xd7, 0x9c, 0xf2, 0xa1, 0xc6, 0xfc, 0x3b, 0x24, 0x62,
  0x05, 0x11, 0x17, 0xfe, 0xfd, 0xd4, 0x17, 0xaa, 0x62, 0xc2, 0x55, 0x6a,
  0x49, 0x48, 0xc3, 0x76, 0x13, 0x32, 0x22, 0xf5, 0xd1, 0xac, 0x93, 0x1e,
  0xc4, 0xc1, 0x6b, 0x7f, 0xfe, 0x30, 0x21, 0x35, 0x82, 0xef, 0xec, 0x39,
  0xae, 0xd7, 0x3c, 0x1e, 0x6b, 0x6b, 0xc1, 0x49, 0x02, 0x84, 0x59, 0xeb,
  0xb7, 0x01, 0x9a, 0x2d, 0xbf, 0x0d, 0xcd, 0x08, 0xc2, 0x35, 0x96, 0xca,
  0x44, 0x06, 0x25, 0x3e, 0xdc, 0xff, 0xfd, 0xb9, 0xf4, 0x8e, 0x59, 0xcf,
  0x89, 0xb8, 0x22, 0xce, 0xba, 0x6f, 0x60, 0x1a, 0xec, 0x76, 0x6a, 0xe0,
  0x1e, 0x63, 0x8d, 0x81, 0xa6, 0x4e, 0xb7, 0x9e, 0x48, 0x75, 0x77, 0xf8,
  0x2b, 0x0f, 0xf3, 0x51, 0xb8, 0x39, 0x09, 0x86, 0x31, 0x1b, 0xe7, 0x20,
  0x83, 0x65, 0x69, 0xd5, 0x10, 0x9f, 0xa0, 0x94, 0xa5, 0x43, 0x96, 0x5d,
  0xf5, 0x77, 0x4b, 0x27, 0xca, 0xb0, 0xeb, 0x25, 0x64, 0x53, 0x34, 0xe4,
  0x74, 0xaf, 0xe1, 0x18, 0x99, 0x74, 0xa1, 0xad, 0x70, 0x93, 0x36, 0xb7,
  0xd6, 0x74, 0x29, 0x01, 0x09, 0xfd, 0xf7, 0xb7, 0xfc, 0xa5, 0xf3, 0x60,
  0x0c, 0x3b, 0x11, 0xcb, 0x7f, 0x42, 0x49, 0xf6, 0xff, 0x52, 0x69, 0xf6,
  0xea, 0x4f, 0x47, 0xb3, 0x1f, 0x33, 0x58, 0x97, 0xce, 0x65, 0x23, 0xce,
  0x65, 0x5e, 0xab, 0x03, 0x4c, 0x3e, 0x92, 0x68, 0xe6, 0x53, 0x47, 0xd6,
  0x09, 0xe3, 0x2d, 0xee, 0x91, 0x56, 0x01, 0x1c, 0x5f, 0x21, 0xd0, 0x24,
  0x22, 0x90, 0x71, 0xfa, 0xd2, 0xe2, 0x39, 0xb9, 0x36, 0xe4, 0x4d, 0x0e,
  0x6d, 0x0b, 0x49, 0x71, 0x45, 0x28, 0xf7, 0xb8, 0xb5, 0x92, 0x36, 0xb3,
  0x0a, 0x4a, 0x0a, 0xc7, 0xf7, 0x12, 0x77, 0x71, 0x44, 0x10, 0x31, 0x25,
  0x25, 0xee, 0xb2, 0x7f, 0x24, 0x05, 0xbc, 0x1a, 0xd4, 0x84, 0x9a, 0xa6,
  0xfb, 0x22, 0x1a, 0x3a, 0xe8, 0xb1, 0x42, 0xf8, 0x2b, 0x1b, 0xc8, 0x36,
  0x58, 0xc9, 0x2a, 0x83, 0x9f, 0x20, 0x21, 0x99, 0x51, 0x99, 0x39, 0x89,
  0xaf, 0xc0, 0x98, 0x32, 0xaf, 0x81, 0xbe, 0xb9, 0x67, 0x29, 0xc3, 0x71,
  0xd5, 0xb8, 0x6d, 0x16, 0xfd, 0x2e, 0xeb, 0xd2, 0x63, 0xfb, 0xc2, 0x06,
  0x36, 0xfa, 0xad, 0x88, 0x60, 0x52, 0x5d, 0x28, 0x85, 0xb0, 0x3a, 0x5c,
  0x0b, 0x92, 0xf7, 0xd0, 0xa0, 0x3e, 0xe6, 0x0f, 0xd0, 0x11, 0x94, 0xde,
  0x15, 0xe9, 0xf5, 0x0c, 0xee, 0xa7, 0x68, 0xfd, 0xc4, 0x14, 0xef, 0xf5,
  0x39, 0x07, 0xdd, 0xde, 0xda, 0x96, 0x1b, 0x47, 0x81, 0xa6, 0xf5, 0xd6,
  0x21, 0xd9, 0xe5, 0x82, 0x24, 0x18, 0x04, 0xa0, 0x85, 0x4a, 0xca, 0x20,
  0x03, 0x39, 0x81, 0x10, 0x53, 0xd3, 0xf6, 0x8b, 0xbd, 0xcc, 0xd3, 0x58,
  0x9c, 0xf9, 0x47, 0xb8, 0x4b, 0xa7, 0x18, 0xc6, 0x10, 0x75, 0xa8, 0xfe,
  0x7d, 0x47, 0xa5, 0x22, 0xc1, 0x6c, 0xe0, 0xce, 0x9d, 0xa9, 0x3f, 0x0a,
  0x75, 0xb1, 0x44, 0xc3, 0x68, 0xbd, 0x1a, 0xf8, 0x8a, 0x5f, 0xb8, 0x22,
  0x3e, 0x9a, 0xac, 0xa3, 0x7e, 0x4d, 0xbc, 0xcc, 0xe1, 0x20, 0x3b, 0x17,
  0x00, 0x58, 0xa7, 0x37, 0xd1, 0xef, 0x70, 0xf0, 0x98, 0x39, 0x52, 0x14,
  0x64, 0xb3, 0x23, 0xb6, 0x28, 0x90, 0x35, 0x0c, 0x25, 0xcf, 0x13, 0x81,
  0xe6, 0xdb, 0xd5, 0xa6, 0x4f, 0x64, 0xdf, 0xe7, 0x39, 0x24, 0x23, 0xba,
  0xc3, 0xeb, 0x54, 0x61, 0x88, 0xab, 0xd5, 0x4d, 0x75, 0x14, 0x1c, 0xe4,
  0x0c, 0x9e, 0x9e, 0x5b, 0x11, 0xb7, 0xbb, 0x30, 0x15, 0xc0, 0x81, 0xd3,
  0xe3, 0xdf, 0x11, 0x26, 0x1f, 0xda, 0x06, 0x93, 0x39, 0x33, 0xfa, 0x4f,
  0xe6, 0x29, 0x8f, 0xbf, 0xd4, 0xe5, 0xe5, 0x19, 0x0d, 0xd9, 0x55, 0x36,
  0xe7, 0x23, 0xe3, 0x76, 0x57, 0xd8, 0x28, 0x56, 0x51, 0x55, 0x4d, 0x08,
  0x4f, 0x55, 0x99, 0xda, 0xbe, 0x99, 0x98, 0xae, 0xe4, 0x02, 0x23, 0xbb,
  0xcf, 0xd2, 0x91, 0x43, 0xc6, 0x99, 0x0f, 0x48, 0xd6, 0xc8, 0x5b, 0x0a,
  0xed, 0x01, 0x0a, 0x8b, 0x13, 0xee, 0x27, 0xb5, 0xff, 0x25, 0xdb, 0x9d,
  0xd0, 0x42, 0xc5, 0x81, 0x03, 0x44, 0x65, 0x84, 0x19, 0xd9, 0xc6, 0xd1,
  0x4b, 0x06, 0xdc, 0x8c, 0xdc, 0x5d, 0xe8, 0x41, 0x00, 0xe2, 0x57, 0x0d,
  0x4a, 0x50, 0x01, 0x46, 0xd5, 0xc5, 0xf5, 0xce, 0x07, 0x37, 0x6e, 0x08,
  0x44, 0xfb, 0x9b, 0xe4, 0xe4, 0x71, 0xac, 0xe3, 0x4d, 0xe9, 0xc1, 0x11,
  0xfa, 0x03, 0x8b, 0xd6, 0x06, 0x5f, 0xff, 0xc1, 0xbd, 0xe7, 0x4b, 0x9c,
  0x50, 0x75, 0xfd, 0xf4, 0x4e, 0xa4, 0xf0, 0xbc, 0xba, 0xe7, 0x46, 0x00,
  0xc6, 0xe1, 0xf4, 0xeb, 0xf5, 0x43, 0xe2, 0x65, 0x31, 0x26, 0x9f, 0xb0,
  0x12, 0x5d, 0xea, 0xeb, 0xf8, 0xbe, 0xb3, 0x44, 0x2b, 0xd0, 0x0b, 0xf2,
  0x67, 0x33, 0xbd, 0xc6, 0x15, 0xfc, 0x87, 0x45, 0x52, 0x70, 0x4f, 0xdd,
  0xff, 0xe9, 0xb2, 0x79, 0x51, 0xaf, 0x02, 0x22, 0xde, 0xb1, 0x0b, 0xbe,
  0xcc, 0xe4, 0xd2, 0x71, 0x16, 0xce, 0xd0, 0x47, 0x7b, 0x04, 0x5e, 0x1e,
  0x7f, 0xff, 0x18, 0x0e, 0x38, 0xe9, 0xf5, 0xe2, 0x34, 0xf4, 0x52, 0x24,
  0xca, 0x1c, 0x45, 0xdd, 0x06, 0x5f, 0x11, 0x59, 0x07, 0xc1, 0x03, 0x6a,
  0x81, 0xb6, 0xcf, 0xd0, 0x0c, 0x4e, 0x51, 0x5f, 0x7e, 0xd2, 0x79, 0xbd,
  0x17, 0xe9, 0xc9, 0x39, 0xd3, 0xca, 0x19, 0x3a, 0x07, 0xc2, 0x32, 0x73,
  0x52, 0x4b, 0x77, 0xbc, 0xf7, 0xcc, 0x20, 0xb1, 0xbe, 0xdb, 0xcb, 0x3e,
  0xa4, 0x00, 0xae, 0xf5, 0xe5, 0xa7, 0xb4, 0x6e, 0x28, 0x47, 0xbc, 0x31,
  0xf0, 0xfb, 0x23, 0xbc, 0x59, 0x2f, 0xd5, 0x2f, 0x63, 0x36, 0x19, 0x77,
  0x9c, 0xcf, 0x65, 0x34, 0x13, 0x25, 0x21, 0xdc, 0x8e, 0x69, 0x63, 0xfe,
  0xf0, 0x3e, 0x24, 0x09, 0x39, 0xb3, 0x20, 0x2e, 0xa7, 0xde, 0x0d, 0xc2,
  0x19, 0x5b, 0x19, 0x6c, 0xb7, 0xcd, 0x40, 0xf0, 0xdd, 0xdc, 0x60, 0x42,
  0x17, 0x17, 0x14, 0x6b, 0x34, 0xa5, 0x3b, 0x62, 0x45, 0x8a, 0xce, 0xae,
  0x2b, 0xba, 0xff, 0x72, 0x34, 0x06, 0xe4, 0x99, 0x17, 0x86, 0x8e, 0x61,
  0x39, 0xa4, 0x0b, 0x81, 0x5b, 0x4c, 0x9c, 0x50, 0x51, 0x60, 0xc5, 0xc1,
  0xf2, 0x99, 0x5d, 0xe6, 0xbf, 0xf8, 0xfc, 0x83, 0x41, 0x36, 0x04, 0xbc,
  0x98, 0xfb, 0xd6, 0x8d, 0x6b, 0x7f, 0xb0, 0x2f, 0x24, 0x1c, 0x43, 0x1e,
  0x47, 0x9f, 0x49, 0x5c, 0x05, 0x07, 0x19, 0x38, 0x2d, 0xe3, 0xd5, 0xd6,
  0x6f, 0xe5, 0xc1, 0x89, 0xec, 0xe1, 0x95, 0xd7, 0x4c, 0xf9, 0x33, 0xb6,
  0xeb, 0xd4, 0x06, 0xc8, 0xf9, 0xdb, 0x22, 0x57, 0x3a, 0x3e, 0x6c, 0x25,
  0xfa, 0x3f, 0x13, 0x28, 0x95, 0xb6, 0x2c, 0x66, 0x5c, 0x8a, 0xde, 0x34,
  0x55, 0xd0, 0x03, 0x6b, 0xad, 0x24, 0x6e, 0x2e, 0xac, 0x44, 0x00, 0x21,
  0x7b, 0x01, 0xfa, 0x16, 0x1e, 0x3c, 0x76, 0xa5, 0xb0, 0xb1, 0xfe, 0xcd,
  0xc0, 0x3a, 0x7b, 0x90, 0x49, 0xcd, 0x5d, 0x67, 0xe4, 0x34, 0x0f, 0x11,
  0xed, 0x0e, 0x57, 0x61, 0xb3, 0x4b, 0xe3, 0x26, 0xe5, 0x67, 0x68, 0x3b,
  0xe7, 0xa9, 0xf6, 0xca, 0xa6, 0x37, 0x3e, 0xff, 0x96, 0x3a, 0x0a, 0xeb,
  0x9f, 0xc2, 0x58, 0xd9, 0xb4, 0x9f, 0x0b, 0x10, 0x66, 0xa1, 0x3e, 0x3e,
  0x2e, 0xb1, 0xf1, 0x19, 0xe5, 0x74, 0xeb, 0xdc, 0x81, 0x96, 0xbc, 0x06,
  0x87, 0x2e, 0xbd, 0xb1, 0x06, 0x5d, 0xcf, 0xf0, 0x99, 0xeb, 0x33, 0x0c,
  0xed, 0x89, 0x2c, 0xbf, 0x66, 0xf4, 0x71, 0xa8, 0xa4, 0x05, 0xb2, 0x02,
  0x66, 0x72, 0xd5, 0x6e, 0x06, 0x82, 0x37, 0x6e, 0x33, 0x5b, 0xb6, 0xc2,
  0xda, 0x75, 0x71, 0xdc, 0x63, 0xb4, 0xb2, 0x0e, 0xe0, 0xf1, 0xcf, 0xd1,
  0x55, 0xbc, 0x74, 0x50, 0x86, 0x76, 0xe9, 0xa6, 0x0e, 0x7f, 0x19, 0xfb,
  0x95, 0x52, 0xc8, 0x7a, 0x3f, 0xc9, 0xf3, 0xda, 0x44, 0xc4, 0x70, 0xf2,
  0x9d, 0x76, 0x4d, 0x5f, 0x13, 0x18, 0x6f, 0x18, 0xaf, 0xc5, 0x30, 0x47,
  0x22, 0x9a, 0x15, 0x07, 0xc7, 0x5c, 0x28, 0x6a, 0x8a, 0xdc, 0x35, 0x3d,
  0x9e, 0x68, 0x64, 0x4f, 0x4f, 0xcd, 0x1c, 0x62, 0x3b, 0xe5, 0xb5, 0xd7,
  0xa6, 0x24, 0x69, 0x38, 0x3d, 0x12, 0x93, 0x79, 0x3c, 0xe6, 0x38, 0x1d,
  0xc5, 0x39, 0x3e, 0x39, 0xf9, 0x7a, 0xaa, 0x09, 0xec, 0x0d, 0x17, 0x5a,
  0x36, 0x75, 0xbb, 0x71, 0x18, 0xe5, 0x4b, 0x96, 0xb1, 0xe9, 0x03, 0x30,
  0xfe, 0x86, 0x54, 0x70, 0x3a, 0x33, 0x9e, 0xf9, 0x03, 0x3a, 0x7a, 0x20,
  0x96, 0xc8, 0x39, 0xdb, 0xe2, 0x39, 0x99, 0x0f, 0x5c, 0x94, 0x10, 0x60,
  0x05, 0x24, 0xfb, 0x6b, 0xaf, 0x7f, 0xf4, 0x58, 0x4e, 0x03, 0xeb, 0x70,
  0x03, 0x6e, 0xcf, 0x53, 0xe6, 0x0e, 0x1b, 0xc8, 0xf6, 0x19, 0xa4, 0x39,
  0xd4, 0x82, 0xae, 0xcf, 0x55, 0xe8, 0xe1, 0x05, 0x90, 0xee, 0xb0, 0xc0,
  0xf9, 0x60, 0x5b, 0x20, 0x43, 0xf1, 0x9e, 0x74, 0x4c, 0x8a, 0xcb, 0x2e,
  0x40, 0x49, 0x1f, 0xe7, 0xf3, 0x58, 0x22, 0xa9, 0x65, 0xb6, 0x2e, 0x2a,
  0x6f, 0x28, 0x60, 0xd8, 0x8d, 0xbc, 0xd7, 0xec, 0x02, 0xb7, 0xca, 0xc4,
  0xf5, 0x90, 0x25, 0x67, 0xa4, 0x67, 0xd0, 0x0f, 0xd7, 0xad, 0x9b, 0x3e,
  0xf9, 0x81, 0xc6, 0x0c, 0x2c, 0x15, 0x4d, 0x2f, 0x36, 0xef, 0xff, 0xff,
  0x04, 0x00, 0x00, 0x00, 0x80, 0x00, 0x00, 0x00, 0x43, 0x01, 0x00, 0x00,
  0xb2, 0xfa, 0xff, 0xff, 0x25, 0xfe, 0xff, 0xff, 0x8d, 0x00, 0x00, 0x00,
  0x1c, 0x07, 0x00, 0x00, 0xb3, 0x01, 0x00, 0x00, 0x72, 0x03, 0x00, 0x00,
  0x38, 0x04, 0x00, 0x00, 0xb4, 0xff, 0xff, 0xff, 0x78, 0xfd, 0xff, 0xff,
  0xe6, 0xfd, 0xff, 0xff, 0x8c, 0xfd, 0xff, 0xff, 0xfb, 0xff, 0xff, 0xff,
  0x52, 0x00, 0x00, 0x00, 0x5a, 0x04, 0x00, 0x00, 0xe7, 0x03, 0x00, 0x00,
  0x6d, 0xfd, 0xff, 0xff, 0xfd, 0x01, 0x00, 0x00, 0x4a, 0xfe, 0xff, 0xff,
  0x01, 0x05, 0x00, 0x00, 0x02, 0x03, 0x00, 0x00, 0xd0, 0x01, 0x00, 0x00,
  0x41, 0xfd, 0xff, 0xff, 0x78, 0x02, 0x00, 0x00, 0xb4, 0x05, 0x00, 0x00,
  0x08, 0x01, 0x00, 0x00, 0x75, 0x02, 0x00, 0x00, 0xb9, 0xfd, 0xff, 0xff,
  0x61, 0x03, 0x00, 0x00, 0xc0, 0xfe, 0xff, 0xff, 0x6b, 0x05, 0x00, 0x00,
  0x4c, 0x03, 0x00, 0x00, 0xc2, 0xef, 0xff, 0xff, 0x04, 0x00, 0x00, 0x00,
  0x20, 0x00, 0x00, 0x00, 0x17, 0x40, 0x32, 0x31, 0xf6, 0x30, 0x0b, 0x7f,
  0x2e, 0x0b, 0x42, 0x27, 0x71, 0x56, 0x61, 0x37, 0x35, 0x2b, 0xf3, 0x3c,
  0x47, 0x22, 0x62, 0x3a, 0x0f, 0x42, 0x2b, 0x3f, 0x1a, 0x11, 0x20, 0x4e,
  0xee, 0xef, 0xff, 0xff, 0x04, 0x00, 0x00, 0x00, 0x20, 0x00, 0x00, 0x00,
  0xab, 0xef, 0xd4, 0xb4, 0x99, 0xb7, 0x98, 0x9d, 0x8b, 0xc5, 0xf7, 0xa9,
  0xae, 0xaa, 0xbb, 0x91, 0xc1, 0xaf, 0xf0, 0x9a, 0x90, 0xc8, 0xc3, 0xa0,
  0xb9, 0xa9, 0x91, 0xc0, 0x98, 0x85, 0x80, 0x9a, 0x1a, 0xf0, 0xff, 0xff,
  0x04, 0x00, 0x00, 0x00, 0x00, 0x0c, 0x00, 0x00, 0x5e, 0xaf, 0x0c, 0x51,
  0xa6, 0x8a, 0x39, 0x35, 0x73, 0xe1, 0xcb, 0x39, 0xd0, 0x2d, 0xe1, 0x47,
  0x29, 0xda, 0x49, 0xb5, 0x66, 0x66, 0x0b, 0x3c, 0xc2, 0x81, 0x1c, 0x3f,
  0xba, 0x14, 0xbf, 0xcd, 0x8e, 0xd7, 0xc6, 0x77, 0xbf, 0xd8, 0x9b, 0xeb,
  0x26, 0x45, 0x91, 0x2a, 0x33, 0x05, 0x05, 0x89, 0x11, 0x43, 0x05, 0x4a,
  0x17, 0x2b, 0xc8, 0x14, 0x5e, 0xbd, 0x67, 0xe8, 0x5b, 0x0c, 0xd1, 0x44,
  0xcf, 0x53, 0x19, 0xd9, 0x39, 0x8d, 0x36, 0xd2, 0xb7, 0x50, 0x5b, 0xc5,
  0x6d, 0xad, 0x55, 0x9b, 0x48, 0xe9, 0xbe, 0x31, 0x61, 0xac, 0x3b, 0xf5,
  0xa6, 0xef, 0xf2, 0xb4, 0xd6, 0xdc, 0x55, 0xe5, 0x21, 0x08, 0x50, 0x9e,
  0x29, 0xca, 0xe2, 0xa4, 0xd6, 0x3c, 0xfd, 0xf2, 0x3b, 0xee, 0x5c, 0xb7,
  0xdf, 0x8e, 0xbb, 0x1e, 0xf5, 0xca, 0x29, 0xa8, 0xdd, 0x6d, 0xdf, 0x13,
  0x0e, 0xf3, 0xe7, 0xcb, 0xa9, 0x25, 0xd7, 0x1e, 0xc2, 0x22, 0x35, 0xb5,
  0xcc, 0xec, 0xfb, 0x42, 0xbd, 0x23, 0x2b, 0xec, 0x05, 0x29, 0xf4, 0x48,
  0xd4, 0x1f, 0xdf, 0x81, 0x62, 0xb5, 0xc2, 0x3e, 0x4b, 0x16, 0x10, 0x01,
  0x37, 0x52, 0xbe, 0x09, 0xb8, 0xf9, 0x49, 0xfb, 0x46, 0x18, 0xdd, 0x5c,
  0xe1, 0x6a, 0xa6, 0x8b, 0x4e, 0xd4, 0x28, 0x2c, 0x11, 0x28, 0x6e, 0xa5,
  0xe5, 0x0c, 0xa3, 0x4e, 0xe2, 0x50, 0xba, 0x27, 0x1c, 0xc0, 0xfb, 0x3e,
  0x51, 0x50, 0xad, 0x24, 0xbc, 0x0b, 0xd4, 0x13, 0xaa, 0xf3, 0xc8, 0x63,
  0x40, 0xd7, 0x6b, 0x20, 0x37, 0x49, 0x05, 0xe5, 0xed, 0x64, 0x3f, 0x77,
  0x21, 0x28, 0xd9, 0x52, 0xad, 0xc9, 0xed, 0xe4, 0xd5, 0xf2, 0x5f, 0x4f,
  0x81, 0x04, 0xfa, 0xc3, 0xbe, 0xd7, 0xc3, 0xed, 0x61, 0xc1, 0x63, 0xf1,
  0x23, 0x2c, 0xd2, 0x98, 0xe1, 0xca, 0xb8, 0x38, 0xd0, 0xc5, 0xdf, 0xec,
  0xe0, 0xc5, 0x37, 0xde, 0x58, 0xaa, 0xf8, 0xb3, 0xf5, 0xd2, 0xc2, 0x60,
  0x10, 0x38, 0x52, 0xea, 0x2b, 0xb7, 0x55, 0x62, 0x39, 0xaf, 0x30, 0x1f,
  0xe9, 0x51, 0x2e, 0x05, 0xec, 0xfb, 0x2a, 0xb2, 0x89, 0xf7, 0x9c, 0x51,
  0xb6, 0x36, 0xd7, 0xd7, 0x2d, 0xb2, 0x3f, 0xe5, 0x36, 0xf6, 0xc5, 0xdc,
  0x4e, 0xb1, 0x4e, 0x1d, 0xd3, 0x31, 0x67, 0xe8, 0x2b, 0x02, 0x81, 0x31,
  0x5f, 0x53, 0x6e, 0xb2, 0x4b, 0x60, 0x4a, 0x1e, 0xe3, 0xac, 0x59, 0x9e,
  0x86, 0xec, 0x20, 0x70, 0xff, 0x33, 0x0d, 0xba, 0xe9, 0x8e, 0x22, 0xdf,
  0xf3, 0x6e, 0xaa, 0x94, 0x65, 0x00, 0xa9, 0x33, 0xcb, 0x04, 0x72, 0xd2,
  0x35, 0xd5, 0x5f, 0x3f, 0x54, 0x98, 0x47, 0xe2, 0x3c, 0xa9, 0x02, 0xbc,
  0xbc, 0xd9, 0x0e, 0xa8, 0xd2, 0xbc, 0xf0, 0x6d, 0xba, 0x4a, 0xc2, 0xf2,
  0x02, 0x0c, 0xed, 0x46, 0xe5, 0xa0, 0xc2, 0x28, 0x09, 0xdb, 0xa8, 0x42,
  0x9c, 0x8c, 0x93, 0x45, 0xf7, 0x07, 0xfb, 0x3a, 0x5b, 0x5e, 0x3c, 0x44,
  0xe7, 0x0b, 0xec, 0xe3, 0x12, 0x47, 0x48, 0x87, 0x0e, 0x28, 0x15, 0x11,
  0xe4, 0xd4, 0x91, 0x43, 0x9a, 0x01, 0x0c, 0xab, 0x6f, 0x1d, 0x51, 0xb9,
  0xd6, 0x02, 0xbd, 0xf5, 0x47, 0x99, 0xed, 0x99, 0x3c, 0xd1, 0x41, 0x01,
  0xb3, 0x6c, 0xf7, 0x4a, 0xed, 0x91, 0x2d, 0x1e, 0x3d, 0xe9, 0xf1, 0x18,
  0x06, 0xdb, 0x59, 0x78, 0xf5, 0x24, 0x40, 0x46, 0xce, 0xbb, 0x8a, 0xd4,
  0xef, 0x58, 0x36, 0xa4, 0xc3, 0x9b, 0x36, 0xb5, 0x60, 0x5f, 0x53, 0x4c,
  0x16, 0x37, 0x3c, 0xe7, 0x3c, 0xe8, 0x81, 0x54, 0xff, 0x49, 0x44, 0xe2,
  0xc8, 0x2a, 0xe8, 0x8b, 0x3d, 0xdb, 0x2f, 0xc3, 0xe6, 0xf0, 0x65, 0xb6,
  0xb6, 0xa5, 0x4d, 0x18, 0x31, 0x3f, 0xe4, 0x02, 0x58, 0x63, 0xcc, 0x4c,
  0xd3, 0xbf, 0xfb, 0xd1, 0xe2, 0x49, 0x12, 0xb6, 0x4d, 0xc0, 0x06, 0x1a,
  0xfd, 0x6a, 0xf8, 0xbf, 0x4a, 0x5c, 0x0f, 0x29, 0x0c, 0xbf, 0xb3, 0xc4,
  0x85, 0xe3, 0x17, 0x04, 0x24, 0x70, 0x39, 0x00, 0xd6, 0xca, 0xc0, 0xcc,
  0xfb, 0xf6, 0x56, 0x0c, 0x0a, 0xd4, 0x2a, 0xd9, 0x36, 0x36, 0xce, 0xea,
  0xd5, 0xca, 0xe7, 0x24, 0x13, 0xc4, 0xc0, 0x42, 0x81, 0xe7, 0x67, 0x95,
  0xce, 0x28, 0x31, 0x0e, 0xa8, 0x47, 0x60, 0x0d, 0x46, 0x0d, 0x97, 0xae,
  0xcd, 0x4e, 0x0b, 0xf4, 0x3d, 0xe1, 0xc7, 0xb5, 0x4d, 0x76, 0xf0, 0xf1,
  0xc2, 0xda, 0xc3, 0xda, 0x4b, 0x28, 0x6c, 0xd3, 0x69, 0x10, 0x84, 0xd8,
  0x3e, 0xd8, 0x02, 0x5c, 0x19, 0x5a, 0xbd, 0x06, 0x11, 0xa6, 0x78, 0x99,
  0x17, 0x64, 0x0a, 0xf2, 0x5b, 0x59, 0xe4, 0x68, 0xae, 0x22, 0x10, 0x74,
  0xb9, 0xd3, 0xbd, 0x1c, 0x6c, 0xc8, 0x8e, 0x7f, 0x4c, 0x0c, 0x19, 0x4f,
  0x25, 0x1e, 0x45, 0x0b, 0xd8, 0xb1, 0x3c, 0x23, 0xdf, 0xa8, 0x6a, 0xdc,
  0x3d, 0x1c, 0x18, 0x45, 0x19, 0xd6, 0x45, 0xba, 0x39, 0x72, 0xa7, 0x05,
  0x15, 0xae, 0x2c, 0x7b, 0x37, 0x3c, 0xbc, 0x0e, 0x79, 0xaf, 0xb5, 0x3e,
  0x5d, 0x94, 0x26, 0x21, 0xfc, 0xb2, 0xcf, 0x14, 0xd0, 0x23, 0x55, 0xdb,
  0x44, 0xb7, 0xa6, 0x76, 0x18, 0x28, 0x87, 0xf1, 0xd5, 0xdf, 0xd4, 0x31,
  0x60, 0xf5, 0xb2, 0xf5, 0x6f, 0x46, 0x36, 0x95, 0x40, 0x4e, 0xf9, 0xbd,
  0x05, 0x66, 0x66, 0x09, 0x0f, 0xd3, 0xf8, 0x31, 0x4b, 0x1e, 0x3d, 0x2a,
  0x02, 0xdd, 0x2f, 0x81, 0x1c, 0x58, 0xc6, 0xc5, 0x9a, 0x02, 0x6d, 0x4f,
  0xc4, 0xe5, 0xc3, 0xc3, 0xb4, 0x30, 0x7c, 0x2f, 0xbc, 0xb3, 0xe0, 0x18,
  0x84, 0x63, 0x00, 0xa2, 0xea, 0xe7, 0x0e, 0x7e, 0x45, 0xc8, 0xcc, 0x3e,
  0xae, 0xc3, 0xc1, 0x03, 0x97, 0x0f, 0xf4, 0xbc, 0x27, 0x57, 0xc9, 0xfc,
  0x6a, 0x4c, 0x02, 0x86, 0x09, 0x49, 0xc7, 0x62, 0x20, 0x0a, 0x5c, 0x54,
  0x60, 0x2b, 0xc4, 0xe4, 0xf2, 0xd1, 0xd9, 0xa7, 0x6a, 0xb8, 0xc0, 0x4b,
  0xba, 0x3a, 0x7f, 0x12, 0x4f, 0xb3, 0x94, 0xc7, 0xdf, 0x92, 0xc7, 0x3d,
  0x51, 0xd3, 0x79, 0xa2, 0x18, 0x47, 0xc9, 0xe0, 0xde, 0xaf, 0xe6, 0xd2,
  0xad, 0x1e, 0x22, 0x5a, 0x25, 0x67, 0x29, 0xda, 0x49, 0xe5, 0xcd, 0x58,
  0x45, 0x6e, 0x0b, 0xba, 0x0a, 0xf2, 0x0f, 0xd4, 0xaa, 0xba, 0xee, 0x0e,
  0xc4, 0x4e, 0x0e, 0x77, 0x05, 0xe1, 0x9b, 0xc7, 0x46, 0xfe, 0x3b, 0x9d,
  0x5a, 0xdf, 0xb8, 0xc3, 0xe8, 0x9f, 0xd6, 0x04, 0xf7, 0x5d, 0x88, 0xe5,
  0xcc, 0xea, 0xf7, 0x99, 0xbb, 0xa4, 0xc9, 0x1c, 0x5e, 0x7d, 0xde, 0xe6,
  0xcb, 0x44, 0x3d, 0x41, 0x1a, 0x16, 0x34, 0x41, 0x7a, 0x2e, 0x7c, 0x27,
  0x35, 0x69, 0x6a, 0xa7, 0xb3, 0x65, 0x4a, 0xf9, 0xf8, 0xc4, 0x70, 0xfd,
  0x16, 0x46, 0xbd, 0xce, 0xb1, 0x5a, 0xb5, 0xc7, 0x10, 0x3f, 0x0c, 0x35,
  0xd8, 0x9c, 0x62, 0xd0, 0x21, 0x1c, 0x14, 0x7f, 0x8e, 0x66, 0xcc, 0x2e,
  0xd7, 0x61, 0x26, 0x40, 0xc4, 0xf0, 0xeb, 0xb1, 0x8f, 0x19, 0x13, 0x37,
  0x3e, 0x18, 0xd7, 0x61, 0x48, 0x40, 0x60, 0x44, 0xa2, 0x9b, 0x61, 0xf7,
  0x3f, 0x00, 0xe2, 0x41, 0xef, 0x6d, 0x69, 0x9f, 0xb1, 0xcb, 0x5a, 0xd4,
  0x51, 0xc7, 0xda, 0x01, 0x27, 0x1b, 0x1c, 0x0b, 0x20, 0x19, 0x3f, 0x08,
  0xb3, 0xfe, 0x17, 0x42, 0x28, 0x17, 0x1a, 0x66, 0xcd, 0x81, 0xe3, 0x2a,
  0x1f, 0xf1, 0xc9, 0x9e, 0xb4, 0x29, 0x34, 0xfd, 0x04, 0xe7, 0x27, 0xf2,
  0x67, 0xdf, 0xfa, 0xad, 0xb1, 0x15, 0x5f, 0xed, 0xac, 0x1e, 0x27, 0x1a,
  0x0e, 0xe9, 0xf2, 0x46, 0xb5, 0x1a, 0x06, 0x04, 0x58, 0xcc, 0x18, 0x28,
  0x2b, 0x31, 0x60, 0x16, 0xb4, 0xd9, 0xa8, 0xef, 0x04, 0xc2, 0xc8, 0xb7,
  0x05, 0x31, 0x5d, 0xe2, 0x0f, 0x4b, 0x1c, 0x17, 0xf1, 0x45, 0xd3, 0xdc,
  0x1a, 0xe0, 0xb9, 0xe5, 0x15, 0xca, 0xa0, 0x98, 0x42, 0xe5, 0xb0, 0xe8,
  0x05, 0x4e, 0xe3, 0x23, 0xf4, 0x4b, 0xc8, 0xad, 0xa5, 0xf6, 0xc5, 0x16,
  0xc3, 0xde, 0xff, 0x9d, 0x12, 0x62, 0x32, 0x9a, 0x3c, 0xa0, 0xc6, 0x48,
  0x34, 0x8c, 0x8a, 0x25, 0xf0, 0x51, 0xe0, 0x2d, 0xe9, 0x39, 0xf9, 0x92,
  0x3d, 0x90, 0x51, 0x5a, 0x2c, 0xf5, 0x81, 0xbc, 0xc2, 0x58, 0xdf, 0x89,
  0xc6, 0x2d, 0xf2, 0x48, 0x8d, 0xb0, 0xd0, 0xc3, 0x2f, 0x84, 0x17, 0x8f,
  0x72, 0x4a, 0xc0, 0xe6, 0x32, 0x4f, 0x4a, 0xf4, 0x78, 0xcb, 0x31, 0x8f,
  0x6e, 0xa1, 0x59, 0x05, 0x42, 0xf0, 0x46, 0xc9, 0x49, 0x0b, 0xe7, 0x1c,
  0xf0, 0xe1, 0x26, 0x0f, 0x70, 0xe7, 0xac, 0xa4, 0xc0, 0xf1, 0x12, 0x30,
  0x1e, 0x62, 0x58, 0x46, 0xcf, 0x5e, 0x62, 0xe1, 0xab, 0x6d, 0xa8, 0x37,
  0xbf, 0xf2, 0x19, 0x05, 0x1f, 0xb1, 0x60, 0x34, 0xf5, 0x47, 0xc0, 0xfe,
  0x4b, 0x17, 0x0b, 0x1d, 0x9a, 0x1f, 0xd6, 0xe0, 0x1d, 0x12, 0x21, 0xb4,
  0x1f, 0x50, 0x14, 0xae, 0x20, 0x17, 0x5a, 0x28, 0xc2, 0x31, 0xb5, 0xdc,
  0xbb, 0x59, 0xc6, 0x88, 0xe6, 0x1a, 0x5a, 0x75, 0x91, 0xf7, 0x7c, 0x0b,
  0xe5, 0x39, 0x45, 0xe1, 0x32, 0x4d, 0xe4, 0xa3, 0xf0, 0x3a, 0xd6, 0x2e,
  0xac, 0x05, 0xdf, 0x26, 0xba, 0x86, 0xea, 0xc1, 0xd1, 0xa5, 0x6f, 0x17,
  0x30, 0x26, 0xfb, 0xd3, 0x15, 0x8d, 0x78, 0x7f, 0xee, 0x5a, 0xb4, 0x3b,
  0xc8, 0x16, 0x22, 0x08, 0x37, 0x67, 0x13, 0xc7, 0xb9, 0xfa, 0xfb, 0x36,
  0xfd, 0x0c, 0x6c, 0xfa, 0x81, 0xf9, 0x72, 0xcb, 0xd4, 0xaa, 0x67, 0x54,
  0x1c, 0x79, 0x52, 0x5e, 0x25, 0xed, 0x65, 0x26, 0x9e, 0x68, 0x13, 0x45,
  0x97, 0xf0, 0xe1, 0x1b, 0xc9, 0x58, 0xaa, 0xbe, 0x27, 0x3b, 0xa2, 0xfd,
  0x67, 0x48, 0xc7, 0x05, 0xa4, 0x67, 0xcf, 0x25, 0xbf, 0x74, 0xed, 0x74,
  0x09, 0x4a, 0x1c, 0xec, 0xb7, 0xb3, 0x4b, 0x2b, 0x4f, 0x3a, 0x2c, 0x18,
  0x9f, 0x51, 0xb0, 0xe2, 0xaf, 0x8e, 0xd1, 0x56, 0xa4, 0x0d, 0xe8, 0xb1,
  0x16, 0xf9, 0xe0, 0x2b, 0x54, 0x5b, 0xf5, 0x41, 0xb8, 0x34, 0xb9, 0x07,
  0xc1, 0x20, 0x65, 0x0f, 0xe1, 0xf4, 0xe7, 0x03, 0xb2, 0x6f, 0x4a, 0x1f,
  0x52, 0x2b, 0x29, 0x5e, 0x6b, 0xce, 0x4f, 0xdd, 0x69, 0x17, 0xce, 0x34,
  0xf9, 0xbf, 0x74, 0x9f, 0x33, 0x16, 0x43, 0x9c, 0x59, 0xae, 0x0c, 0x2f,
  0xfb, 0xf2, 0x5e, 0x4c, 0xfd, 0x64, 0xa2, 0xfd, 0xcc, 0x37, 0x40, 0x69,
  0xac, 0x4c, 0x39, 0x3c, 0x42, 0x16, 0x08, 0xb8, 0x24, 0xd3, 0xf6, 0x4e,
  0x21, 0xa7, 0xdd, 0x13, 0x23, 0x1a, 0x21, 0xad, 0x08, 0xc5, 0x7f, 0x64,
  0xe9, 0xeb, 0x56, 0xd8, 0x59, 0xee, 0x4d, 0xbe, 0x02, 0xc2, 0x5a, 0xb5,
  0xd3, 0x0f, 0x23, 0xcc, 0x9e, 0xb0, 0x67, 0xaf, 0xe2, 0x9c, 0x30, 0xc1,
  0x40, 0xc8, 0x98, 0x0b, 0x5c, 0x0f, 0x41, 0x3a, 0xab, 0xab, 0x51, 0xaa,
  0x40, 0xc7, 0x8d, 0x9d, 0x3e, 0xfa, 0xec, 0x1f, 0xee, 0xc5, 0x10, 0x96,
  0x17, 0xb5, 0xce, 0xf7, 0xce, 0x45, 0x52, 0x59, 0xa6, 0xcd, 0x2d, 0x20,
  0x26, 0x2f, 0xbe, 0xe4, 0xfb, 0x47, 0x12, 0x44, 0x10, 0x5d, 0x3f, 0xb1,
  0xf8, 0x49, 0x2c, 0x47, 0x24, 0xf1, 0x35, 0xab, 0xe0, 0x41, 0xee, 0xf6,
  0xa6, 0x1c, 0x5e, 0x1e, 0xdd, 0x4e, 0x52, 0xc1, 0x58, 0xac, 0x1d, 0x5c,
  0x21, 0x24, 0x14, 0xe8, 0x81, 0xec, 0x16, 0x02, 0xb1, 0x25, 0x4a, 0x2b,
  0xfd, 0x11, 0x09, 0x1d, 0x46, 0x18, 0xec, 0x09, 0xf3, 0xcf, 0xb7, 0x0f,
  0xe9, 0xe1, 0x61, 0x9b, 0x45, 0x48, 0x27, 0x3d, 0xb8, 0x6c, 0x08, 0x0a,
  0x63, 0x39, 0xd7, 0xe5, 0xcc, 0xd9, 0xa9, 0x4a, 0x74, 0x2f, 0xee, 0x0d,
  0xa6, 0x04, 0xe2, 0x1f, 0x1f, 0xef, 0x2e, 0xdd, 0x1d, 0xf6, 0xc1, 0x43,
  0xf7, 0x2b, 0xd9, 0xd0, 0x2d, 0x73, 0xfb, 0x7f, 0x33, 0x15, 0xcb, 0xc7,
  0xe2, 0x9e, 0xb9, 0x91, 0x2b, 0x04, 0x44, 0x61, 0xa9, 0x60, 0x30, 0xce,
  0xc1, 0xa0, 0xa4, 0xfa, 0xd1, 0xae, 0xc3, 0xbc, 0xd6, 0x40, 0x07, 0x6c,
  0x5c, 0x0f, 0x17, 0x72, 0x2b, 0x0d, 0x59, 0xc5, 0x53, 0xc2, 0x29, 0x06,
  0xff, 0xb5, 0x41, 0x41, 0x1f, 0x2b, 0x59, 0x55, 0x61, 0x54, 0x65, 0xd5,
  0xbf, 0xd9, 0x6a, 0x96, 0xfb, 0x54, 0x3b, 0x5a, 0xa0, 0xdc, 0xf2, 0x45,
  0x7f, 0xb8, 0xb0, 0x11, 0xf6, 0xc3, 0xbe, 0x1f, 0x13, 0xf0, 0x94, 0x39,
  0xdf, 0x19, 0x7b, 0xc7, 0x2f, 0x9a, 0xec, 0xfe, 0x7c, 0xa7, 0xce, 0xfc,
  0xe5, 0x57, 0x3b, 0x44, 0xa0, 0xd0, 0x0e, 0x41, 0x43, 0x53, 0x3f, 0x24,
  0xf1, 0x1a, 0x0b, 0xcb, 0x5b, 0xb5, 0x17, 0xe6, 0xf6, 0x75, 0xc2, 0x53,
  0x57, 0xd6, 0xc6, 0x49, 0x15, 0xf8, 0x1e, 0x46, 0x5b, 0xb1, 0xa7, 0xfd,
  0x40, 0xe9, 0x90, 0xc2, 0x39, 0xd4, 0xb4, 0x28, 0xe6, 0x20, 0x99, 0x60,
  0x66, 0x13, 0x26, 0xb4, 0x90, 0xfd, 0x43, 0xde, 0xe7, 0x0c, 0xc0, 0x37,
  0xca, 0x06, 0xfe, 0xf7, 0x36, 0x02, 0x9e, 0x53, 0x38, 0x8e, 0x56, 0x3c,
  0x1b, 0xa1, 0xb3, 0x1e, 0x4f, 0x41, 0x75, 0x37, 0x90, 0x81, 0x0d, 0x42,
  0x15, 0x94, 0x3b, 0xd1, 0xea, 0xc0, 0xfa, 0xd4, 0xf6, 0xc0, 0xc3, 0x07,
  0x5a, 0x57, 0x13, 0xb7, 0xf2, 0xe2, 0x8f, 0xb6, 0xc9, 0x56, 0x39, 0xb8,
  0xec, 0xee, 0x4e, 0x3c, 0xc9, 0x9b, 0xfe, 0xc7, 0xe0, 0xc8, 0x06, 0x6a,
  0x50, 0x07, 0x26, 0x34, 0xe8, 0xe5, 0x1b, 0x07, 0xc9, 0x18, 0xda, 0x47,
  0xd9, 0x82, 0xbd, 0xa9, 0xb4, 0x13, 0x91, 0xea, 0x18, 0xf8, 0xbc, 0xad,
  0x9d, 0xf4, 0xb8, 0xa2, 0x1c, 0xf2, 0x94, 0xbb, 0xd9, 0xda, 0xb3, 0x0b,
  0xb4, 0xff, 0x05, 0xf6, 0x81, 0xa1, 0x68, 0x61, 0xd9, 0x52, 0x9a, 0x97,
  0xf8, 0xe3, 0x0a, 0x09, 0x37, 0xb6, 0xef, 0x0e, 0xd9, 0x35, 0x1c, 0x26,
  0xf5, 0x0e, 0x0c, 0x79, 0xf2, 0x10, 0x53, 0xd0, 0xe6, 0x57, 0x2d, 0x2f,
  0xe5, 0x49, 0x45, 0x70, 0xdf, 0xe9, 0x36, 0xc9, 0x43, 0x21, 0x67, 0x6e,
  0xcc, 0x72, 0x26, 0xb4, 0x42, 0x07, 0xfb, 0x24, 0x5b, 0xf3, 0xd1, 0xfe,
  0xfe, 0xd8, 0x35, 0x00, 0x52, 0xd0, 0x55, 0x94, 0xc9, 0x0c, 0x6b, 0x0b,
  0xd8, 0x7a, 0xd1, 0xda, 0x70, 0xcb, 0x29, 0x3e, 0x04, 0x0f, 0x96, 0x72,
  0x6c, 0x1e, 0x6b, 0x21, 0x89, 0xb0, 0xa8, 0x36, 0x6a, 0x2c, 0x55, 0xac,
  0xd8, 0xe9, 0x5a, 0x94, 0xac, 0x5c, 0x61, 0xe1, 0x5f, 0x31, 0xf2, 0xb6,
  0x19, 0x23, 0x53, 0xdd, 0x83, 0xc8, 0x35, 0x3b, 0x46, 0xc0, 0xfe, 0x20,
  0x1c, 0xb8, 0x04, 0xe5, 0xee, 0xa5, 0xb0, 0x39, 0xa4, 0xe4, 0x19, 0xa1,
  0x8a, 0x2f, 0x77, 0xc8, 0x6c, 0xa8, 0x05, 0xcc, 0xae, 0xc3, 0xd7, 0xe3,
  0x8c, 0xe3, 0xcd, 0xd2, 0x4d, 0x36, 0x1b, 0x71, 0xb1, 0xf3, 0x1b, 0x07,
  0x0c, 0x72, 0x8f, 0xca, 0x1f, 0x4d, 0xf5, 0x89, 0xca, 0xa1, 0xdb, 0xbf,
  0xeb, 0x70, 0xed, 0x7f, 0x75, 0xe1, 0x03, 0x52, 0xa4, 0x4e, 0xb2, 0xdf,
  0x5a, 0x19, 0x2a, 0x26, 0x99, 0x9c, 0xb7, 0x75, 0x09, 0x4c, 0x48, 0xea,
  0x19, 0x59, 0x23, 0x00, 0xf0, 0xde, 0xa2, 0x20, 0x69, 0x1c, 0x33, 0x37,
  0xea, 0x4a, 0xd4, 0xe1, 0x14, 0xc8, 0xc5, 0x19, 0x9b, 0x41, 0xc3, 0x17,
  0x01, 0x91, 0x17, 0x55, 0x13, 0x26, 0x1b, 0x02, 0xcb, 0x8e, 0x2e, 0x56,
  0xeb, 0x3e, 0x90, 0xeb, 0x48, 0xf3, 0xd3, 0xed, 0x1b, 0xd9, 0x0d, 0xcc,
  0x11, 0xd7, 0x20, 0x11, 0x37, 0xa5, 0xce, 0x81, 0xc4, 0xe3, 0xd5, 0xf0,
  0x3e, 0x16, 0x25, 0xda, 0x23, 0x10, 0xbb, 0x49, 0xb4, 0xb3, 0x5c, 0xd5,
  0x25, 0xda, 0xb4, 0x3e, 0x0a, 0xd7, 0x2a, 0x89, 0xcc, 0xb0, 0xed, 0xaf,
  0x41, 0xeb, 0xd9, 0xea, 0x2c, 0x12, 0x36, 0xca, 0xdb, 0xf2, 0xb3, 0xbe,
  0x12, 0x0b, 0xd0, 0x6e, 0xdc, 0x7f, 0xa5, 0x35, 0x62, 0x45, 0xb7, 0x57,
  0x2d, 0x6a, 0x17, 0xa5, 0x99, 0xbf, 0x66, 0xd5, 0xf4, 0x4b, 0x0f, 0x95,
  0x1f, 0x39, 0x5e, 0x01, 0x11, 0x92, 0xf6, 0xe5, 0x00, 0x10, 0x10, 0x5e,
  0x74, 0x67, 0xc1, 0x52, 0x32, 0x05, 0x16, 0x3a, 0xe5, 0xdf, 0xdc, 0xc1,
  0xf2, 0x2f, 0x07, 0x00, 0x75, 0x4a, 0x64, 0x05, 0x29, 0x91, 0x23, 0x5f,
  0x05, 0x8a, 0xeb, 0x30, 0x6a, 0x9a, 0x16, 0xe1, 0xdd, 0xc3, 0x70, 0x50,
  0xc8, 0xf0, 0x24, 0xdc, 0x00, 0xe1, 0x3f, 0x3f, 0x40, 0x27, 0x38, 0x3a,
  0xa3, 0x21, 0xbe, 0xdf, 0x31, 0xaf, 0x73, 0x13, 0x15, 0xd2, 0x3c, 0x39,
  0xd6, 0xad, 0x24, 0xe8, 0x81, 0xb6, 0xdf, 0x1d, 0xc2, 0xe2, 0xad, 0xef,
  0x15, 0x25, 0xbb, 0x41, 0xaf, 0x04, 0x92, 0xb4, 0xdb, 0x69, 0x08, 0x10,
  0x2e, 0xe9, 0x38, 0x0c, 0xd2, 0xa6, 0x4c, 0x4a, 0x6d, 0xca, 0x31, 0x40,
  0xc6, 0x39, 0xc1, 0x5d, 0xed, 0x0c, 0xb7, 0xee, 0x52, 0xa4, 0xa7, 0x51,
  0x11, 0x42, 0x32, 0x05, 0xad, 0x2c, 0x13, 0xdd, 0x2c, 0xf4, 0x06, 0x28,
  0xf8, 0xf3, 0xc2, 0xe6, 0xbd, 0x5b, 0x40, 0xaa, 0xca, 0x32, 0x67, 0xce,
  0xeb, 0x55, 0xce, 0x66, 0xc5, 0xda, 0x00, 0xf3, 0x15, 0xd7, 0xbf, 0xe4,
  0x04, 0xd5, 0x1e, 0x47, 0xa6, 0xcb, 0x71, 0x12, 0xe9, 0x3c, 0xac, 0x4b,
  0x21, 0x35, 0xe6, 0x81, 0x39, 0xe1, 0xf7, 0x15, 0xc2, 0xc4, 0x15, 0xf3,
  0x1d, 0x13, 0x5d, 0xcf, 0x09, 0xce, 0xa0, 0xc5, 0x20, 0xea, 0x02, 0xc5,
  0x1d, 0x3a, 0x05, 0xbf, 0xc9, 0x24, 0x54, 0x02, 0xf4, 0x27, 0x01, 0x33,
  0xe3, 0x10, 0xed, 0x5f, 0x43, 0x17, 0x08, 0x4b, 0x65, 0x9d, 0xb7, 0x4c,
  0x0b, 0x34, 0xe0, 0xc5, 0x64, 0xdb, 0x47, 0xd2, 0x07, 0xf4, 0x55, 0x37,
  0x93, 0xf8, 0x1b, 0x2e, 0x2a, 0x09, 0xf2, 0xd9, 0xbb, 0xd0, 0x14, 0xa6,
  0xd3, 0x14, 0xb2, 0xd9, 0x2f, 0xd7, 0xd8, 0xe0, 0xc1, 0x5c, 0x07, 0x4b,
  0xda, 0x37, 0x9e, 0xc0, 0xc0, 0x1e, 0xdd, 0x5e, 0x14, 0xe8, 0x11, 0x4e,
  0xd1, 0x0a, 0xcb, 0x32, 0xb0, 0x0d, 0x5e, 0x41, 0x60, 0x33, 0xcd, 0xbb,
  0xcd, 0x57, 0xc0, 0x22, 0x5b, 0xf2, 0x44, 0xbc, 0x12, 0xd8, 0x59, 0xd5,
  0x38, 0x60, 0x9f, 0xc8, 0x03, 0x13, 0xf6, 0xff, 0x22, 0x1b, 0xcf, 0x26,
  0xbe, 0xba, 0xcd, 0x99, 0xca, 0x25, 0x5d, 0xa3, 0x46, 0x1f, 0xee, 0xa4,
  0x22, 0x17, 0xf5, 0x0e, 0xc5, 0x9f, 0xe9, 0x98, 0x37, 0x14, 0xf0, 0xc8,
  0x56, 0xc0, 0xdf, 0x2b, 0x12, 0xc1, 0xe4, 0x51, 0xb9, 0xcd, 0xb3, 0x4d,
  0x41, 0x37, 0xdc, 0x94, 0x81, 0x44, 0x4f, 0xec, 0xfa, 0xca, 0xb0, 0xed,
  0xcb, 0xdf, 0x0f, 0xe3, 0xea, 0xed, 0x9a, 0xa6, 0x52, 0x30, 0x27, 0x4d,
  0x29, 0xef, 0x59, 0x81, 0xb1, 0xfb, 0x5b, 0xf3, 0xaf, 0xbc, 0xe9, 0x03,
  0xd5, 0xfa, 0xaf, 0xde, 0xcd, 0x06, 0xdd, 0x38, 0xf9, 0xdb, 0x8e, 0x67,
  0xe8, 0x0b, 0x5e, 0x21, 0xfd, 0x07, 0xcb, 0x21, 0x37, 0xdd, 0xbe, 0xde,
  0xbf, 0xcd, 0x4c, 0x34, 0xf6, 0x2a, 0xa9, 0xd4, 0x7f, 0xc7, 0x45, 0x66,
  0x37, 0x36, 0x66, 0xa1, 0x21, 0x25, 0xce, 0xdc, 0xe7, 0x73, 0x2d, 0xd6,
  0x4a, 0xc4, 0xa0, 0x96, 0x4e, 0x0c, 0xf9, 0x82, 0x2b, 0x51, 0xe2, 0xec,
  0xdd, 0x2c, 0x5e, 0xbb, 0x3a, 0x36, 0x94, 0xbc, 0x32, 0xc4, 0x05, 0xd0,
  0x13, 0xce, 0x4b, 0xb6, 0xc2, 0xd8, 0x26, 0xbc, 0xeb, 0xdc, 0xcb, 0x31,
  0x69, 0xee, 0xe6, 0xc5, 0xba, 0xe8, 0xc9, 0x61, 0x51, 0xc4, 0x60, 0xcc,
  0xe0, 0x83, 0x3d, 0xcc, 0x5d, 0xd5, 0xce, 0xa8, 0x44, 0x5b, 0x01, 0x10,
  0x02, 0x5e, 0x15, 0x43, 0x2d, 0xcf, 0x3f, 0x01, 0x5c, 0xe3, 0x43, 0x95,
  0xd4, 0x2d, 0xe4, 0xb3, 0xd3, 0x75, 0xb9, 0x5f, 0xbd, 0x3d, 0x26, 0x33,
  0xf7, 0xcd, 0xce, 0xb2, 0xec, 0xb8, 0xde, 0x37, 0xde, 0x0b, 0xac, 0x34,
  0x17, 0xe6, 0xa1, 0xbf, 0x17, 0xac, 0x7f, 0x37, 0x50, 0xe2, 0x18, 0x41,
  0x0d, 0x3d, 0xc7, 0x46, 0xef, 0xcd, 0xca, 0xec, 0x27, 0x21, 0x14, 0xde,
  0x5c, 0x34, 0x3c, 0x60, 0x92, 0xc4, 0xb2, 0xd5, 0xf3, 0x53, 0xc1, 0x45,
  0x23, 0xe4, 0xc0, 0xb2, 0x25, 0x10, 0x10, 0xed, 0xee, 0x0e, 0xb2, 0x2a,
  0xf9, 0xf2, 0x54, 0x4c, 0xf8, 0x3c, 0x01, 0x19, 0x26, 0x17, 0x04, 0x59,
  0x3b, 0xe9, 0xff, 0xc5, 0x19, 0x44, 0x57, 0x84, 0xe7, 0xf7, 0xce, 0xab,
  0x01, 0xf8, 0xb7, 0xad, 0xd1, 0x65, 0xa7, 0xc9, 0x4a, 0x99, 0x74, 0xe5,
  0xd0, 0xf2, 0xc8, 0xa3, 0xdc, 0x08, 0x25, 0x3d, 0x07, 0x1a, 0x35, 0x5c,
  0xbd, 0xad, 0x5c, 0x2d, 0x69, 0xed, 0x16, 0x81, 0xd1, 0x6d, 0x6e, 0x0d,
  0xa0, 0xfe, 0x47, 0xef, 0x17, 0x94, 0xd9, 0x45, 0x33, 0xbf, 0xd0, 0xbc,
  0xc1, 0xbb, 0xc3, 0x47, 0x47, 0xb0, 0xde, 0x2e, 0x51, 0x41, 0x4a, 0x3c,
  0xcd, 0x02, 0xa4, 0x59, 0x30, 0x9f, 0xcd, 0xbd, 0xcc, 0x9c, 0x25, 0xdb,
  0xb9, 0xf5, 0x59, 0x13, 0x2f, 0xa0, 0x2a, 0xa1, 0xfa, 0x9a, 0xb5, 0x2d,
  0xca, 0x46, 0x82, 0xaf, 0x81, 0x3e, 0x64, 0xe5, 0xf7, 0xf1, 0x1d, 0x62,
  0xcb, 0xd3, 0x83, 0xc3, 0x27, 0x82, 0x5c, 0x3f, 0x23, 0xab, 0x05, 0x3b,
  0xfb, 0xd2, 0x3c, 0x3f, 0x82, 0xa3, 0x4e, 0xa0, 0x92, 0x51, 0xe6, 0xf2,
  0x35, 0xef, 0xeb, 0xc8, 0xdf, 0x5e, 0xc2, 0x4e, 0x7a, 0x37, 0xb2, 0x38,
  0xbc, 0xd0, 0x16, 0xd4, 0x2d, 0xf4, 0x49, 0x0c, 0x44, 0x0d, 0x45, 0x35,
  0xaf, 0xb8, 0x9e, 0x2f, 0x3d, 0x19, 0x0d, 0x1b, 0xe1, 0xdf, 0xc8, 0x36,
  0x12, 0x60, 0x04, 0x27, 0x09, 0x50, 0x17, 0xb3, 0xe2, 0xdc, 0x2e, 0x0c,
  0x32, 0x0a, 0xd4, 0x37, 0xe8, 0xd2, 0xe0, 0x2a, 0xcd, 0x7f, 0x4e, 0xf3,
  0xc8, 0xcf, 0xf1, 0x15, 0xd4, 0x43, 0x2f, 0x5d, 0xe3, 0xc4, 0xff, 0x30,
  0xe5, 0x0a, 0x36, 0xe3, 0xc0, 0x04, 0x48, 0xf6, 0x10, 0xc9, 0xf9, 0xe5,
  0xa8, 0x04, 0xb7, 0x33, 0xd9, 0xe0, 0xd3, 0x1f, 0xcd, 0x6a, 0x28, 0xb4,
  0x6e, 0x36, 0x07, 0xe5, 0x3d, 0xbb, 0x57, 0xef, 0xa1, 0xe2, 0xe4, 0x27,
  0xf1, 0x4e, 0xbd, 0x15, 0xfd, 0x99, 0xc4, 0xda, 0x9f, 0x2c, 0x5b, 0xca,
  0x2c, 0xcf, 0x59, 0x1a, 0x45, 0xea, 0x5d, 0x4b, 0xe0, 0xb4, 0x51, 0x08,
  0x5e, 0xd7, 0xd9, 0x19, 0x5f, 0xd2, 0x3f, 0xaf, 0x6b, 0x8a, 0x3e, 0x30,
  0xc1, 0x13, 0xd9, 0x97, 0x45, 0xf1, 0x39, 0x1a, 0xe0, 0x91, 0xb2, 0x47,
  0x08, 0xa4, 0xd4, 0xc4, 0xe4, 0x0f, 0xd6, 0xf6, 0x38, 0x26, 0xd3, 0x3e,
  0x17, 0x98, 0x27, 0xba, 0x15, 0xee, 0x5b, 0x0b, 0xc4, 0xd8, 0x21, 0x93,
  0xf5, 0x1d, 0xaa, 0x61, 0x27, 0x19, 0x11, 0xde, 0xd3, 0x50, 0xb0, 0x55,
  0xc1, 0x3f, 0xcf, 0x58, 0x0f, 0x34, 0x2a, 0x7f, 0x22, 0xc7, 0x1c, 0x5d,
  0x0c, 0xa3, 0x8e, 0xbc, 0xba, 0x18, 0x56, 0x16, 0x32, 0xba, 0xb3, 0xd1,
  0x18, 0x97, 0x60, 0xfd, 0xfd, 0xae, 0x2c, 0xc1, 0x26, 0xfc, 0xff, 0xff,
  0x04, 0x00, 0x00, 0x00, 0x80, 0x00, 0x00, 0x00, 0xf1, 0x02, 0x00, 0x00,
  0x8a, 0x04, 0x00, 0x00, 0x03, 0x05, 0x00, 0x00, 0x5d, 0x03, 0x00, 0x00,
  0xda, 0xfe, 0xff, 0xff, 0x1c, 0xff, 0xff, 0xff, 0x26, 0x02, 0x00, 0x00,
  0xe0, 0x03, 0x00, 0x00, 0x99, 0xfe, 0xff, 0xff, 0xac, 0x05, 0x00, 0x00,
  0x5d, 0xfe, 0xff, 0xff, 0xc7, 0x02, 0x00, 0x00, 0xfc, 0x02, 0x00, 0x00,
  0xaa, 0x03, 0x00, 0x00, 0xe7, 0x09, 0x00, 0x00, 0xe5, 0xfc, 0xff, 0xff,
  0xe5, 0x04, 0x00, 0x00, 0x3f, 0x0b, 0x00, 0x00, 0xb1, 0x02, 0x00, 0x00,
  0x25, 0x06, 0x00, 0x00, 0xb8, 0xfd, 0xff, 0xff, 0x35, 0x03, 0x00, 0x00,
  0x04, 0xfd, 0xff, 0xff, 0x77, 0x08, 0x00, 0x00, 0x84, 0xfb, 0xff, 0xff,
  0x0d, 0x05, 0x00, 0x00, 0xb0, 0x07, 0x00, 0x00, 0xd1, 0xff, 0xff, 0xff,
  0x82, 0x06, 0x00, 0x00, 0x04, 0x09, 0x00, 0x00, 0xb0, 0x01, 0x00, 0x00,
  0x6d, 0x08, 0x00, 0x00, 0xb2, 0xfc, 0xff, 0xff, 0x04, 0x00, 0x00, 0x00,
  0x20, 0x00, 0x00, 0x00, 0x1d, 0x2c, 0x62, 0x46, 0x2f, 0x1e, 0x08, 0x47,
  0x44, 0x09, 0x10, 0x41, 0x49, 0x54, 0x3d, 0x1d, 0x14, 0x28, 0x29, 0x3b,
  0x0d, 0x7a, 0x7f, 0x2d, 0x4e, 0x47, 0x46, 0x0b, 0x55, 0x2b, 0x3c, 0x2a,
  0xde, 0xfc, 0xff, 0xff, 0x04, 0x00, 0x00, 0x00, 0x20, 0x00, 0x00, 0x00,
  0xcd, 0x95, 0xbf, 0x99, 0xa7, 0xda, 0xbb, 0xb0, 0xb5, 0x93, 0xbf, 0xc0,
  0xaa, 0x96, 0xaf, 0xba, 0x9c, 0xae, 0xa1, 0x89, 0x9f, 0xc1, 0xaf, 0x97,
  0xda, 0x8a, 0xa1, 0x9a, 0x96, 0x80, 0xbc, 0x8f, 0x0a, 0xfd, 0xff, 0xff,
  0x04, 0x00, 0x00, 0x00, 0x00, 0x02, 0x00, 0x00, 0xfa, 0x59, 0xdf, 0xfe,
  0xf4, 0xd3, 0x8d, 0x58, 0xdf, 0x13, 0xab, 0xbe, 0xc4, 0x28, 0x33, 0xbe,
  0x95, 0x59, 0x4b, 0x81, 0xf6, 0x28, 0xc3, 0x5d, 0xb3, 0x5c, 0x35, 0xe5,
  0xf3, 0x31, 0xcd, 0xf7, 0x2a, 0x54, 0x5a, 0xf6, 0xc9, 0xf0, 0x4d, 0xfc,
  0x14, 0x5f, 0xf0, 0xca, 0xdd, 0xf7, 0x22, 0xe0, 0x06, 0x6a, 0xa2, 0x46,
  0xf4, 0xce, 0xba, 0xff, 0xbc, 0x24, 0x6b, 0x66, 0x06, 0xd0, 0x7f, 0x0a,
  0x3a, 0xdf, 0x5d, 0xfc, 0x6d, 0x56, 0xa7, 0x88, 0x57, 0x81, 0x6c, 0xee,
  0x4e, 0x95, 0xa2, 0x7a, 0x13, 0x9c, 0x56, 0x20, 0x6a, 0xea, 0xe6, 0x4f,
  0x5d, 0x69, 0x0f, 0xfe, 0x0a, 0x6f, 0x37, 0xec, 0xe8, 0x35, 0xe9, 0xbd,
  0xea, 0xef, 0xe3, 0x2f, 0xba, 0xc7, 0x6d, 0x7f, 0x1c, 0x86, 0x21, 0xba,
  0x27, 0xd9, 0xa0, 0x91, 0xc3, 0x7d, 0x08, 0xf4, 0xbb, 0xb9, 0xe1, 0x5a,
  0xa3, 0xd4, 0xb9, 0x02, 0xaf, 0xac, 0x4b, 0x36, 0x3f, 0x84, 0x81, 0xb2,
  0xea, 0xaa, 0xcb, 0xe6, 0x29, 0x8a, 0xe0, 0xfa, 0xc4, 0x18, 0xe0, 0x90,
  0x24, 0x07, 0x91, 0xbe, 0xcb, 0x22, 0xb2, 0xa6, 0x95, 0xd4, 0xf4, 0x38,
  0xf0, 0x55, 0x30, 0x54, 0xde, 0x42, 0xe3, 0xe4, 0x4e, 0x47, 0xbc, 0x3f,
  0xea, 0x04, 0xf8, 0xb3, 0x02, 0x22, 0x97, 0x7f, 0xdc, 0xc2, 0x4f, 0x41,
  0x21, 0x1f, 0x08, 0x5a, 0xd1, 0xf7, 0xfe, 0xe8, 0x89, 0x7f, 0x6a, 0x0b,
  0x8f, 0x5e, 0x11, 0xd8, 0x68, 0xb8, 0xae, 0x38, 0x40, 0x3d, 0x1c, 0x02,
  0xb8, 0xe4, 0x4e, 0x6a, 0x46, 0x2c, 0xd9, 0x4a, 0x75, 0xa5, 0xbb, 0x6b,
  0x54, 0xf7, 0xef, 0xd0, 0xbd, 0x61, 0x12, 0xfc, 0x25, 0x13, 0xf7, 0x4f,
  0xed, 0xb1, 0x9c, 0x2b, 0xfc, 0x1a, 0x1d, 0x81, 0x07, 0x61, 0xc7, 0x56,
  0xab, 0x9b, 0x98, 0x7f, 0x43, 0xdc, 0x4c, 0x64, 0x67, 0xaa, 0xea, 0x83,
  0x44, 0x3b, 0x53, 0x2f, 0xb2, 0x55, 0x6d, 0x75, 0xb9, 0x4b, 0xad, 0xe6,
  0x19, 0xc9, 0x4c, 0xab, 0x7f, 0x72, 0xbc, 0x6d, 0xf5, 0x15, 0xdc, 0x60,
  0x6e, 0xfe, 0x41, 0xb8, 0x30, 0xc6, 0x5f, 0xfb, 0x01, 0x93, 0x3a, 0x21,
  0x70, 0x1d, 0x58, 0x81, 0x01, 0xaa, 0xa6, 0x25, 0xf4, 0xca, 0x43, 0x3d,
  0xe5, 0xd3, 0x6b, 0xaf, 0x9a, 0x06, 0xa2, 0x11, 0xf5, 0x4f, 0xed, 0x3a,
  0x31, 0xc2, 0xe1, 0xe9, 0xfd, 0x5d, 0x44, 0x02, 0x46, 0x81, 0xba, 0x1e,
  0xa4, 0xee, 0xad, 0x68, 0x37, 0xbc, 0x91, 0x1c, 0xed, 0x29, 0xbb, 0x98,
  0xa2, 0x48, 0x12, 0x99, 0xc8, 0xf3, 0x43, 0x46, 0x9b, 0x00, 0x43, 0xdd,
  0x37, 0xb2, 0x1e, 0xe3, 0x59, 0x36, 0xd1, 0x40, 0xa7, 0x83, 0x41, 0x1b,
  0x81, 0x36, 0xe7, 0x7f, 0xbf, 0xe9, 0xb8, 0xa7, 0xc5, 0x24, 0x83, 0xdd,
  0xb7, 0x28, 0x2d, 0xc3, 0xf9, 0x5e, 0x9f, 0xfa, 0xd3, 0xc6, 0xf3, 0x29,
  0xdd, 0x3f, 0xe0, 0x71, 0x2f, 0xb0, 0xdb, 0x8d, 0x7f, 0x13, 0xe9, 0xf0,
  0x2f, 0xbe, 0xa3, 0x00, 0x5d, 0x91, 0xb9, 0x20, 0x17, 0x1a, 0x6e, 0x33,
  0x69, 0x89, 0x54, 0xe3, 0x32, 0xab, 0xbf, 0x00, 0x6c, 0x2e, 0x4b, 0xc2,
  0x14, 0xa2, 0x3e, 0x6e, 0xdc, 0x17, 0x2a, 0xc4, 0x1b, 0x9b, 0x58, 0x99,
  0x42, 0xfb, 0x29, 0x42, 0x46, 0x6d, 0x81, 0x12, 0x28, 0x68, 0x54, 0xbf,
  0x53, 0x31, 0x5d, 0x8a, 0x6d, 0xad, 0xab, 0x89, 0x39, 0xbd, 0x2e, 0xb2,
  0x81, 0xac, 0x86, 0xd1, 0xb4, 0xbc, 0x27, 0x40, 0xaa, 0x2a, 0xf7, 0xaa,
  0x2f, 0x7f, 0xac, 0xc8, 0xf0, 0x65, 0x2f, 0x7d, 0x2e, 0xf1, 0xb6, 0x9e,
  0x7a, 0x19, 0x14, 0xea, 0xa5, 0x5c, 0xce, 0xce, 0xb3, 0xfe, 0xb8, 0x60,
  0x8d, 0x34, 0x5c, 0x4b, 0x99, 0x7f, 0xc3, 0xe9, 0x48, 0x6a, 0x87, 0x8d,
  0x0d, 0xd0, 0x87, 0x3c, 0x16, 0xff, 0xff, 0xff, 0x04, 0x00, 0x00, 0x00,
  0x40, 0x00, 0x00, 0x00, 0x5c, 0xfb, 0xff, 0xff, 0xb1, 0x08, 0x00, 0x00,
  0xf8, 0x04, 0x00, 0x00, 0xbe, 0x02, 0x00, 0x00, 0x2e, 0x06, 0x00, 0x00,
  0xc7, 0x09, 0x00, 0x00, 0x42, 0x07, 0x00, 0x00, 0x92, 0x07, 0x00, 0x00,
  0x04, 0x09, 0x00, 0x00, 0x5f, 0x05, 0x00, 0x00, 0x3d, 0x00, 0x00, 0x00,
  0xed, 0x04, 0x00, 0x00, 0x49, 0x08, 0x00, 0x00, 0xce, 0x04, 0x00, 0x00,
  0x0b, 0x05, 0x00, 0x00, 0x04, 0x05, 0x00, 0x00, 0x62, 0xff, 0xff, 0xff,
  0x04, 0x00, 0x00, 0x00, 0x10, 0x00, 0x00, 0x00, 0xeb, 0x5d, 0xd6, 0x81,
  0xd2, 0x5a, 0x74, 0x4c, 0x4d, 0xbb, 0x9c, 0xa2, 0x22, 0xcc, 0xa7, 0x99,
  0x7e, 0xff, 0xff, 0xff, 0x04, 0x00, 0x00, 0x00, 0x04, 0x00, 0x00, 0x00,
  0xd8, 0x01, 0x00, 0x00, 0x8e, 0xff, 0xff, 0xff, 0x04, 0x00, 0x00, 0x00,
  0x0c, 0x00, 0x00, 0x00, 0xff, 0xff, 0xff, 0xff, 0x25, 0x00, 0x00, 0x00,
  0x20, 0x00, 0x00, 0x00, 0xa6, 0xff, 0xff, 0xff, 0x04, 0x00, 0x00, 0x00,
  0x0c, 0x00, 0x00, 0x00, 0xff, 0xff, 0xff, 0xff, 0x4b, 0x00, 0x00, 0x00,
  0x20, 0x00, 0x00, 0x00, 0xbe, 0xff, 0xff, 0xff, 0x04, 0x00, 0x00, 0x00,
  0x0c, 0x00, 0x00, 0x00, 0xff, 0xff, 0xff, 0xff, 0x4b, 0x00, 0x00, 0x00,
  0x10, 0x00, 0x00, 0x00, 0xd6, 0xff, 0xff, 0xff, 0x04, 0x00, 0x00, 0x00,
  0x04, 0x00, 0x00, 0x00, 0x01, 0x00, 0x00, 0x00, 0xe6, 0xff, 0xff, 0xff,
  0x04, 0x00, 0x00, 0x00, 0x0c, 0x00, 0x00, 0x00, 0xff, 0xff, 0xff, 0xff,
  0x96, 0x00, 0x00, 0x00, 0x10, 0x00, 0x00, 0x00, 0x00, 0x00, 0x06, 0x00,
  0x08, 0x00, 0x04, 0x00, 0x06, 0x00, 0x00, 0x00, 0x04, 0x00, 0x00, 0x00,
  0x04, 0x00, 0x00, 0x00, 0xfd, 0xff, 0xff, 0xff, 0xa8, 0xcf, 0xff, 0xff,
  0xac, 0xcf, 0xff, 0xff, 0x0f, 0x00, 0x00, 0x00, 0x4d, 0x4c, 0x49, 0x52,
  0x20, 0x43, 0x6f, 0x6e, 0x76, 0x65, 0x72, 0x74, 0x65, 0x64, 0x2e, 0x00,
  0x01, 0x00, 0x00, 0x00, 0x14, 0x00, 0x00, 0x00, 0x00, 0x00, 0x0e, 0x00,
  0x18, 0x00, 0x14, 0x00, 0x10, 0x00, 0x0c, 0x00, 0x08, 0x00, 0x04, 0x00,
  0x0e, 0x00, 0x00, 0x00, 0x14, 0x00, 0x00, 0x00, 0x1c, 0x00, 0x00, 0x00,
  0x7c, 0x05, 0x00, 0x00, 0x80, 0x05, 0x00, 0x00, 0x84, 0x05, 0x00, 0x00,
  0x04, 0x00, 0x00, 0x00, 0x6d, 0x61, 0x69, 0x6e, 0x00, 0x00, 0x00, 0x00,
  0x19, 0x00, 0x00, 0x00, 0x34, 0x05, 0x00, 0x00, 0xd4, 0x04, 0x00, 0x00,
  0x90, 0x04, 0x00, 0x00, 0x5c, 0x04, 0x00, 0x00, 0x34, 0x04, 0x00, 0x00,
  0xf8, 0x03, 0x00, 0x00, 0xa4, 0x03, 0x00, 0x00, 0x7c, 0x03, 0x00, 0x00,
  0x4c, 0x03, 0x00, 0x00, 0x08, 0x03, 0x00, 0x00, 0xd4, 0x02, 0x00, 0x00,
  0xa0, 0x02, 0x00, 0x00, 0x78, 0x02, 0x00, 0x00, 0x48, 0x02, 0x00, 0x00,
  0x04, 0x02, 0x00, 0x00, 0xdc, 0x01, 0x00, 0x00, 0xac, 0x01, 0x00, 0x00,
  0x68, 0x01, 0x00, 0x00, 0x34, 0x01, 0x00, 0x00, 0x00, 0x01, 0x00, 0x00,
  0xd8, 0x00, 0x00, 0x00, 0xa4, 0x00, 0x00, 0x00, 0x60, 0x00, 0x00, 0x00,
  0x28, 0x00, 0x00, 0x00, 0x04, 0x00, 0x00, 0x00, 0x2a, 0xfc, 0xff, 0xff,
  0x0c, 0x00, 0x00, 0x00, 0x10, 0x00, 0x00, 0x00, 0x08, 0x00, 0x00, 0x00,
  0x01, 0x00, 0x00, 0x00, 0x2f, 0x00, 0x00, 0x00, 0x01, 0x00, 0x00, 0x00,
  0x2e, 0x00, 0x00, 0x00, 0xba, 0xfb, 0xff, 0xff, 0x14, 0x00, 0x00, 0x00,
  0x00, 0x00, 0x00, 0x08, 0x10, 0x00, 0x00, 0x00, 0x14, 0x00, 0x00, 0x00,
  0x07, 0x00, 0x00, 0x00, 0xa0, 0xd0, 0xff, 0xff, 0x01, 0x00, 0x00, 0x00,
  0x2e, 0x00, 0x00, 0x00, 0x03, 0x00, 0x00, 0x00, 0x2d, 0x00, 0x00, 0x00,
  0x08, 0x00, 0x00, 0x00, 0x07, 0x00, 0x00, 0x00, 0xee, 0xfb, 0xff, 0xff,
  0x1c, 0x00, 0x00, 0x00, 0x00, 0x00, 0x00, 0x08, 0x1c, 0x00, 0x00, 0x00,
  0x20, 0x00, 0x00, 0x00, 0x07, 0x00, 0x00, 0x00, 0x00, 0x00, 0x06, 0x00,
  0x08, 0x00, 0x07, 0x00, 0x06, 0x00, 0x00, 0x00, 0x00, 0x00, 0x00, 0x01,
  0x01, 0x00, 0x00, 0x00, 0x2d, 0x00, 0x00, 0x00, 0x03, 0x00, 0x00, 0x00,
  0x2c, 0x00, 0x00, 0x00, 0x0a, 0x00, 0x00, 0x00, 0x09, 0x00, 0x00, 0x00,
  0x2e, 0xfc, 0xff, 0xff, 0x14, 0x00, 0x00, 0x00, 0x00, 0x00, 0x00, 0x1b,
  0x10, 0x00, 0x00, 0x00, 0x14, 0x00, 0x00, 0x00, 0x06, 0x00, 0x00, 0x00,
  0x14, 0xd1, 0xff, 0xff, 0x01, 0x00, 0x00, 0x00, 0x2c, 0x00, 0x00, 0x00,
  0x02, 0x00, 0x00, 0x00, 0x2b, 0x00, 0x00, 0x00, 0x03, 0x00, 0x00, 0x00,
  0xee, 0xfc, 0xff, 0xff, 0x0c, 0x00, 0x00, 0x00, 0x10, 0x00, 0x00, 0x00,
  0x04, 0x00, 0x00, 0x00, 0x01, 0x00, 0x00, 0x00, 0x2b, 0x00, 0x00, 0x00,
  0x02, 0x00, 0x00, 0x00, 0x2a, 0x00, 0x00, 0x00, 0x06, 0x00, 0x00, 0x00,
  0x82, 0xfc, 0xff, 0xff, 0x14, 0x00, 0x00, 0x00, 0x00, 0x00, 0x00, 0x0b,
  0x10, 0x00, 0x00, 0x00, 0x14, 0x00, 0x00, 0x00, 0x03, 0x00, 0x00, 0x00,
  0x68, 0xd1, 0xff, 0xff, 0x01, 0x00, 0x00, 0x00, 0x2a, 0x00, 0x00, 0x00,
  0x02, 0x00, 0x00, 0x00, 0x29, 0x00, 0x00, 0x00, 0x0b, 0x00, 0x00, 0x00,
  0xb2, 0xfc, 0xff, 0xff, 0x14, 0x00, 0x00, 0x00, 0x00, 0x00, 0x00, 0x15,
  0x10, 0x00, 0x00, 0x00, 0x14, 0x00, 0x00, 0x00, 0x02, 0x00, 0x00, 0x00,
  0x98, 0xd1, 0xff, 0xff, 0x01, 0x00, 0x00, 0x00, 0x29, 0x00, 0x00, 0x00,
  0x02, 0x00, 0x00, 0x00, 0x28, 0x00, 0x00, 0x00, 0x0c, 0x00, 0x00, 0x00,
  0xe2, 0xfc, 0xff, 0xff, 0x14, 0x00, 0x00, 0x00, 0x00, 0x00, 0x00, 0x01,
  0x1c, 0x00, 0x00, 0x00, 0x20, 0x00, 0x00, 0x00, 0x01, 0x00, 0x00, 0x00,
  0xd4, 0xfc, 0xff, 0xff, 0x00, 0x00, 0x00, 0x01, 0x01, 0x00, 0x00, 0x00,
  0x01, 0x00, 0x00, 0x00, 0x01, 0x00, 0x00, 0x00, 0x28, 0x00, 0x00, 0x00,
  0x03, 0x00, 0x00, 0x00, 0x27, 0x00, 0x00, 0x00, 0x0e, 0x00, 0x00, 0x00,
  0x0d, 0x00, 0x00, 0x00, 0xc6, 0xfc, 0xff, 0xff, 0x10, 0x00, 0x00, 0x00,
  0x00, 0x00, 0x00, 0x34, 0x0c, 0x00, 0x00, 0x00, 0x10, 0x00, 0x00, 0x00,
  0x04, 0xd2, 0xff, 0xff, 0x01, 0x00, 0x00, 0x00, 0x27, 0x00, 0x00, 0x00,
  0x02, 0x00, 0x00, 0x00, 0x26, 0x00, 0x00, 0x00, 0x01, 0x00, 0x00, 0x00,
  0xde, 0xfd, 0xff, 0xff, 0x0c, 0x00, 0x00, 0x00, 0x10, 0x00, 0x00, 0x00,
  0x04, 0x00, 0x00, 0x00, 0x01, 0x00, 0x00, 0x00, 0x26, 0x00, 0x00, 0x00,
  0x02, 0x00, 0x00, 0x00, 0x25, 0x00, 0x00, 0x00, 0x06, 0x00, 0x00, 0x00,
  0x72, 0xfd, 0xff, 0xff, 0x14, 0x00, 0x00, 0x00, 0x00, 0x00, 0x00, 0x05,
  0x24, 0x00, 0x00, 0x00, 0x28, 0x00, 0x00, 0x00, 0x05, 0x00, 0x00, 0x00,
  0x7e, 0xfe, 0xff, 0xff, 0x01, 0x00, 0x00, 0x00, 0x02, 0x00, 0x00, 0x00,
  0x01, 0x00, 0x00, 0x00, 0x02, 0x00, 0x00, 0x00, 0x00, 0x00, 0x00, 0x01,
  0x01, 0x00, 0x00, 0x00, 0x25, 0x00, 0x00, 0x00, 0x01, 0x00, 0x00, 0x00,
  0x24, 0x00, 0x00, 0x00, 0x56, 0xfd, 0xff, 0xff, 0x10, 0x00, 0x00, 0x00,
  0x00, 0x00, 0x00, 0x34, 0x0c, 0x00, 0x00, 0x00, 0x10, 0x00, 0x00, 0x00,
  0x94, 0xd2, 0xff, 0xff, 0x01, 0x00, 0x00, 0x00, 0x24, 0x00, 0x00, 0x00,
  0x02, 0x00, 0x00, 0x00, 0x23, 0x00, 0x00, 0x00, 0x03, 0x00, 0x00, 0x00,
  0x6e, 0xfe, 0xff, 0xff, 0x0c, 0x00, 0x00, 0x00, 0x10, 0x00, 0x00, 0x00,
  0x04, 0x00, 0x00, 0x00, 0x01, 0x00, 0x00, 0x00, 0x23, 0x00, 0x00, 0x00,
  0x02, 0x00, 0x00, 0x00, 0x22, 0x00, 0x00, 0x00, 0x05, 0x00, 0x00, 0x00,
  0x02, 0xfe, 0xff, 0xff, 0x14, 0x00, 0x00, 0x00, 0x00, 0x00, 0x00, 0x0b,
  0x10, 0x00, 0x00, 0x00, 0x14, 0x00, 0x00, 0x00, 0x03, 0x00, 0x00, 0x00,
  0xe8, 0xd2, 0xff, 0xff, 0x01, 0x00, 0x00, 0x00, 0x22, 0x00, 0x00, 0x00,
  0x02, 0x00, 0x00, 0x00, 0x21, 0x00, 0x00, 0x00, 0x0f, 0x00, 0x00, 0x00,
  0x32, 0xfe, 0xff, 0xff, 0x14, 0x00, 0x00, 0x00, 0x00, 0x00, 0x00, 0x15,
  0x10, 0x00, 0x00, 0x00, 0x14, 0x00, 0x00, 0x00, 0x02, 0x00, 0x00, 0x00,
  0x18, 0xd3, 0xff, 0xff, 0x01, 0x00, 0x00, 0x00, 0x21, 0x00, 0x00, 0x00,
  0x02, 0x00, 0x00, 0x00, 0x20, 0x00, 0x00, 0x00, 0x10, 0x00, 0x00, 0x00,
  0x62, 0xfe, 0xff, 0xff, 0x14, 0x00, 0x00, 0x00, 0x00, 0x00, 0x00, 0x01,
  0x1c, 0x00, 0x00, 0x00, 0x20, 0x00, 0x00, 0x00, 0x01, 0x00, 0x00, 0x00,
  0x54, 0xfe, 0xff, 0xff, 0x00, 0x00, 0x00, 0x01, 0x01, 0x00, 0x00, 0x00,
  0x01, 0x00, 0x00, 0x00, 0x01, 0x00, 0x00, 0x00, 0x20, 0x00, 0x00, 0x00,
  0x03, 0x00, 0x00, 0x00, 0x1f, 0x00, 0x00, 0x00, 0x12, 0x00, 0x00, 0x00,
  0x11, 0x00, 0x00, 0x00, 0x46, 0xfe, 0xff, 0xff, 0x10, 0x00, 0x00, 0x00,
  0x00, 0x00, 0x00, 0x34, 0x0c, 0x00, 0x00, 0x00, 0x10, 0x00, 0x00, 0x00,
  0x84, 0xd3, 0xff, 0xff, 0x01, 0x00, 0x00, 0x00, 0x1f, 0x00, 0x00, 0x00,
  0x02, 0x00, 0x00, 0x00, 0x1e, 0x00, 0x00, 0x00, 0x01, 0x00, 0x00, 0x00,
  0x5e, 0xff, 0xff, 0xff, 0x0c, 0x00, 0x00, 0x00, 0x10, 0x00, 0x00, 0x00,
  0x04, 0x00, 0x00, 0x00, 0x01, 0x00, 0x00, 0x00, 0x1e, 0x00, 0x00, 0x00,
  0x02, 0x00, 0x00, 0x00, 0x1d, 0x00, 0x00, 0x00, 0x04, 0x00, 0x00, 0x00,
  0xf2, 0xfe, 0xff, 0xff, 0x24, 0x00, 0x00, 0x00, 0x00, 0x00, 0x00, 0x05,
  0x34, 0x00, 0x00, 0x00, 0x38, 0x00, 0x00, 0x00, 0x05, 0x00, 0x00, 0x00,
  0x00, 0x00, 0x0e, 0x00, 0x18, 0x00, 0x17, 0x00, 0x10, 0x00, 0x0c, 0x00,
  0x08, 0x00, 0x04, 0x00, 0x0e, 0x00, 0x00, 0x00, 0x01, 0x00, 0x00, 0x00,
  0x02, 0x00, 0x00, 0x00, 0x01, 0x00, 0x00, 0x00, 0x02, 0x00, 0x00, 0x00,
  0x00, 0x00, 0x00, 0x01, 0x01, 0x00, 0x00, 0x00, 0x1d, 0x00, 0x00, 0x00,
  0x01, 0x00, 0x00, 0x00, 0x1c, 0x00, 0x00, 0x00, 0xe6, 0xfe, 0xff, 0xff,
  0x10, 0x00, 0x00, 0x00, 0x00, 0x00, 0x00, 0x34, 0x0c, 0x00, 0x00, 0x00,
  0x10, 0x00, 0x00, 0x00, 0x24, 0xd4, 0xff, 0xff, 0x01, 0x00, 0x00, 0x00,
  0x1c, 0x00, 0x00, 0x00, 0x02, 0x00, 0x00, 0x00, 0x1b, 0x00, 0x00, 0x00,
  0x03, 0x00, 0x00, 0x00, 0x00, 0x00, 0x0a, 0x00, 0x10, 0x00, 0x0c, 0x00,
  0x08, 0x00, 0x04, 0x00, 0x0a, 0x00, 0x00, 0x00, 0x0c, 0x00, 0x00, 0x00,
  0x10, 0x00, 0x00, 0x00, 0x04, 0x00, 0x00, 0x00, 0x01, 0x00, 0x00, 0x00,
  0x1b, 0x00, 0x00, 0x00, 0x02, 0x00, 0x00, 0x00, 0x1a, 0x00, 0x00, 0x00,
  0x02, 0x00, 0x00, 0x00, 0x9e, 0xff, 0xff, 0xff, 0x14, 0x00, 0x00, 0x00,
  0x00, 0x00, 0x00, 0x0b, 0x10, 0x00, 0x00, 0x00, 0x14, 0x00, 0x00, 0x00,
  0x03, 0x00, 0x00, 0x00, 0x84, 0xd4, 0xff, 0xff, 0x01, 0x00, 0x00, 0x00,
  0x1a, 0x00, 0x00, 0x00, 0x02, 0x00, 0x00, 0x00, 0x19, 0x00, 0x00, 0x00,
  0x13, 0x00, 0x00, 0x00, 0xce, 0xff, 0xff, 0xff, 0x14, 0x00, 0x00, 0x00,
  0x00, 0x00, 0x00, 0x15, 0x10, 0x00, 0x00, 0x00, 0x14, 0x00, 0x00, 0x00,
  0x02, 0x00, 0x00, 0x00, 0xb4, 0xd4, 0xff, 0xff, 0x01, 0x00, 0x00, 0x00,
  0x19, 0x00, 0x00, 0x00, 0x02, 0x00, 0x00, 0x00, 0x18, 0x00, 0x00, 0x00,
  0x14, 0x00, 0x00, 0x00, 0x00, 0x00, 0x0e, 0x00, 0x18, 0x00, 0x14, 0x00,
  0x10, 0x00, 0x0c, 0x00, 0x0b, 0x00, 0x04, 0x00, 0x0e, 0x00, 0x00, 0x00,
  0x20, 0x00, 0x00, 0x00, 0x00, 0x00, 0x00, 0x01, 0x28, 0x00, 0x00, 0x00,
  0x2c, 0x00, 0x00, 0x00, 0x01, 0x00, 0x00, 0x00, 0x0c, 0x00, 0x10, 0x00,
  0x00, 0x00, 0x0c, 0x00, 0x08, 0x00, 0x07, 0x00, 0x0c, 0x00, 0x00, 0x00,
  0x00, 0x00, 0x00, 0x01, 0x01, 0x00, 0x00, 0x00, 0x01, 0x00, 0x00, 0x00,
  0x01, 0x00, 0x00, 0x00, 0x18, 0x00, 0x00, 0x00, 0x03, 0x00, 0x00, 0x00,
  0x17, 0x00, 0x00, 0x00, 0x16, 0x00, 0x00, 0x00, 0x15, 0x00, 0x00, 0x00,
  0x00, 0x00, 0x0e, 0x00, 0x14, 0x00, 0x00, 0x00, 0x10, 0x00, 0x0c, 0x00,
  0x0b, 0x00, 0x04, 0x00, 0x0e, 0x00, 0x00, 0x00, 0x10, 0x00, 0x00, 0x00,
  0x00, 0x00, 0x00, 0x34, 0x0c, 0x00, 0x00, 0x00, 0x10, 0x00, 0x00, 0x00,
  0x4c, 0xd5, 0xff, 0xff, 0x01, 0x00, 0x00, 0x00, 0x17, 0x00, 0x00, 0x00,
  0x02, 0x00, 0x00, 0x00, 0x00, 0x00, 0x00, 0x00, 0x01, 0x00, 0x00, 0x00,
  0x01, 0x00, 0x00, 0x00, 0x2f, 0x00, 0x00, 0x00, 0x01, 0x00, 0x00, 0x00,
  0x00, 0x00, 0x00, 0x00, 0x30, 0x00, 0x00, 0x00, 0xc0, 0x2a, 0x00, 0x00,
  0x68, 0x2a, 0x00, 0x00, 0x10, 0x2a, 0x00, 0x00, 0xd4, 0x29, 0x00, 0x00,
  0x94, 0x29, 0x00, 0x00, 0x54, 0x29, 0x00, 0x00, 0x14, 0x29, 0x00, 0x00,
  0xb4, 0x28, 0x00, 0x00, 0x50, 0x28, 0x00, 0x00, 0x3c, 0x27, 0x00, 0x00,
  0x20, 0x26, 0x00, 0x00, 0xbc, 0x25, 0x00, 0x00, 0x58, 0x25, 0x00, 0x00,
  0x84, 0x23, 0x00, 0x00, 0xa0, 0x21, 0x00, 0x00, 0x3c, 0x21, 0x00, 0x00,
  0xd8, 0x20, 0x00, 0x00, 0x04, 0x1f, 0x00, 0x00, 0x20, 0x1d, 0x00, 0x00,
  0xbc, 0x1c, 0x00, 0x00, 0x58, 0x1c, 0x00, 0x00, 0x44, 0x1b, 0x00, 0x00,
  0x20, 0x1a, 0x00, 0x00, 0x7c, 0x19, 0x00, 0x00, 0x68, 0x18, 0x00, 0x00,
  0x0c, 0x17, 0x00, 0x00, 0x50, 0x15, 0x00, 0x00, 0x98, 0x13, 0x00, 0x00,
  0xf0, 0x12, 0x00, 0x00, 0x54, 0x12, 0x00, 0x00, 0xbc, 0x11, 0x00, 0x00,
  0x1c, 0x11, 0x00, 0x00, 0xf8, 0x0f, 0x00, 0x00, 0x94, 0x0e, 0x00, 0x00,
  0xc8, 0x0c, 0x00, 0x00, 0x00, 0x0b, 0x00, 0x00, 0x58, 0x0a, 0x00, 0x00,
  0xbc, 0x09, 0x00, 0x00, 0x1c, 0x09, 0x00, 0x00, 0x7c, 0x08, 0x00, 0x00,
  0x58, 0x07, 0x00, 0x00, 0xf4, 0x05, 0x00, 0x00, 0x28, 0x04, 0x00, 0x00,
  0x60, 0x02, 0x00, 0x00, 0xd0, 0x01, 0x00, 0x00, 0x1c, 0x01, 0x00, 0x00,
  0x80, 0x00, 0x00, 0x00, 0x04, 0x00, 0x00, 0x00, 0x16, 0xd6, 0xff, 0xff,
  0x00, 0x00, 0x00, 0x01, 0x18, 0x00, 0x00, 0x00, 0x20, 0x00, 0x00, 0x00,
  0x3c, 0x00, 0x00, 0x00, 0x30, 0x00, 0x00, 0x00, 0x00, 0x00, 0x00, 0x09,
  0x50, 0x00, 0x00, 0x00, 0x02, 0x00, 0x00, 0x00, 0xff, 0xff, 0xff, 0xff,
  0x01, 0x00, 0x00, 0x00, 0xfc, 0xd5, 0xff, 0xff, 0x08, 0x00, 0x00, 0x00,
  0x10, 0x00, 0x00, 0x00, 0x01, 0x00, 0x00, 0x00, 0x80, 0xff, 0xff, 0xff,
  0xff, 0xff, 0xff, 0xff, 0x01, 0x00, 0x00, 0x00, 0x00, 0x00, 0x80, 0x3b,
  0x1b, 0x00, 0x00, 0x00, 0x53, 0x74, 0x61, 0x74, 0x65, 0x66, 0x75, 0x6c,
  0x50, 0x61, 0x72, 0x74, 0x69, 0x74, 0x69, 0x6f, 0x6e, 0x65, 0x64, 0x43,
  0x61, 0x6c, 0x6c, 0x5f, 0x31, 0x3a, 0x30, 0x00, 0x02, 0x00, 0x00, 0x00,
  0x01, 0x00, 0x00, 0x00, 0x01, 0x00, 0x00, 0x00, 0x8e, 0xd6, 0xff, 0xff,
  0x00, 0x00, 0x00, 0x01, 0x18, 0x00, 0x00, 0x00, 0x20, 0x00, 0x00, 0x00,
  0x3c, 0x00, 0x00, 0x00, 0x2f, 0x00, 0x00, 0x00, 0x00, 0x00, 0x00, 0x09,
  0x70, 0x00, 0x00, 0x00, 0x02, 0x00, 0x00, 0x00, 0xff, 0xff, 0xff, 0xff,
  0x01, 0x00, 0x00, 0x00, 0x74, 0xd6, 0xff, 0xff, 0x08, 0x00, 0x00, 0x00,
  0x10, 0x00, 0x00, 0x00, 0x01, 0x00, 0x00, 0x00, 0xf6, 0xff, 0xff, 0xff,
  0xff, 0xff, 0xff, 0xff, 0x01, 0x00, 0x00, 0x00, 0xfb, 0x9a, 0x32, 0x3d,
  0x38, 0x00, 0x00, 0x00, 0x66, 0x75, 0x6e, 0x63, 0x74, 0x69, 0x6f, 0x6e,
  0x61, 0x6c, 0x5f, 0x31, 0x2f, 0x64, 0x65, 0x6e, 0x73, 0x65, 0x5f, 0x31,
  0x5f, 0x32, 0x2f, 0x4d, 0x61, 0x74, 0x4d, 0x75, 0x6c, 0x3b, 0x66, 0x75,
  0x6e, 0x63, 0x74, 0x69, 0x6f, 0x6e, 0x61, 0x6c, 0x5f, 0x31, 0x2f, 0x64,
  0x65, 0x6e, 0x73, 0x65, 0x5f, 0x31, 0x5f, 0x32, 0x2f, 0x41, 0x64, 0x64,
  0x00, 0x00, 0x00, 0x00, 0x02, 0x00, 0x00, 0x00, 0x01, 0x00, 0x00, 0x00,
  0x01, 0x00, 0x00, 0x00, 0x26, 0xd7, 0xff, 0xff, 0x00, 0x00, 0x00, 0x01,
  0x18, 0x00, 0x00, 0x00, 0x20, 0x00, 0x00, 0x00, 0x3c, 0x00, 0x00, 0x00,
  0x2e, 0x00, 0x00, 0x00, 0x00, 0x00, 0x00, 0x09, 0x88, 0x00, 0x00, 0x00,
  0x02, 0x00, 0x00, 0x00, 0xff, 0xff, 0xff, 0xff, 0x10, 0x00, 0x00, 0x00,
  0x0c, 0xd7, 0xff, 0xff, 0x08, 0x00, 0x00, 0x00, 0x10, 0x00, 0x00, 0x00,
  0x01, 0x00, 0x00, 0x00, 0x80, 0xff, 0xff, 0xff, 0xff, 0xff, 0xff, 0xff,
  0x01, 0x00, 0x00, 0x00, 0xc5, 0x09, 0x71, 0x3c, 0x52, 0x00, 0x00, 0x00,
  0x66, 0x75, 0x6e, 0x63, 0x74, 0x69, 0x6f, 0x6e, 0x61, 0x6c, 0x5f, 0x31,
  0x2f, 0x64, 0x65, 0x6e, 0x73, 0x65, 0x5f, 0x31, 0x2f, 0x4d, 0x61, 0x74,
  0x4d, 0x75, 0x6c, 0x3b, 0x66, 0x75, 0x6e, 0x63, 0x74, 0x69, 0x6f, 0x6e,
  0x61, 0x6c, 0x5f, 0x31, 0x2f, 0x64, 0x65, 0x6e, 0x73, 0x65, 0x5f, 0x31,
  0x2f, 0x52, 0x65, 0x6c, 0x75, 0x3b, 0x66, 0x75, 0x6e, 0x63, 0x74, 0x69,
  0x6f, 0x6e, 0x61, 0x6c, 0x5f, 0x31, 0x2f, 0x64, 0x65, 0x6e, 0x73, 0x65,
  0x5f, 0x31, 0x2f, 0x42, 0x69, 0x61, 0x73, 0x41, 0x64, 0x64, 0x00, 0x00,
  0x02, 0x00, 0x00, 0x00, 0x01, 0x00, 0x00, 0x00, 0x10, 0x00, 0x00, 0x00,
  0xd6, 0xd7, 0xff, 0xff, 0x00, 0x00, 0x00, 0x01, 0x18, 0x00, 0x00, 0x00,
  0x20, 0x00, 0x00, 0x00, 0x3c, 0x00, 0x00, 0x00, 0x2d, 0x00, 0x00, 0x00,
  0x00, 0x00, 0x00, 0x09, 0x64, 0x00, 0x00, 0x00, 0x02, 0x00, 0x00, 0x00,
  0xff, 0xff, 0xff, 0xff, 0x20, 0x00, 0x00, 0x00, 0xbc, 0xd7, 0xff, 0xff,
  0x08, 0x00, 0x00, 0x00, 0x10, 0x00, 0x00, 0x00, 0x01, 0x00, 0x00, 0x00,
  0xf1, 0xff, 0xff, 0xff, 0xff, 0xff, 0xff, 0xff, 0x01, 0x00, 0x00, 0x00,
  0x31, 0x07, 0xdc, 0x3b, 0x2c, 0x00, 0x00, 0x00, 0x66, 0x75, 0x6e, 0x63,
  0x74, 0x69, 0x6f, 0x6e, 0x61, 0x6c, 0x5f, 0x31, 0x2f, 0x67, 0x6c, 0x6f,
  0x62, 0x61, 0x6c, 0x5f, 0x61, 0x76, 0x65, 0x72, 0x61, 0x67, 0x65, 0x5f,
  0x70, 0x6f, 0x6f, 0x6c, 0x69, 0x6e, 0x67, 0x31, 0x64, 0x5f, 0x31, 0x2f,
  0x4d, 0x65, 0x61, 0x6e, 0x00, 0x00, 0x00, 0x00, 0x02, 0x00, 0x00, 0x00,
  0x01, 0x00, 0x00, 0x00, 0x20, 0x00, 0x00, 0x00, 0x62, 0xd8, 0xff, 0xff,
  0x00, 0x00, 0x00, 0x01, 0x18, 0x00, 0x00, 0x00, 0x24, 0x00, 0x00, 0x00,
  0x44, 0x00, 0x00, 0x00, 0x2c, 0x00, 0x00, 0x00, 0x00, 0x00, 0x00, 0x09,
  0x98, 0x01, 0x00, 0x00, 0x03, 0x00, 0x00, 0x00, 0xff, 0xff, 0xff, 0xff,
  0x25, 0x00, 0x00, 0x00, 0x20, 0x00, 0x00, 0x00, 0x4c, 0xd8, 0xff, 0xff,
  0x08, 0x00, 0x00, 0x00, 0x14, 0x00, 0x00, 0x00, 0x01, 0x00, 0x00, 0x00,
  0xab, 0xff, 0xff, 0xff, 0xff, 0xff, 0xff, 0xff, 0x00, 0x00, 0x00, 0x00,
  0x01, 0x00, 0x00, 0x00, 0x18, 0x82, 0x8f, 0x3c, 0x59, 0x01, 0x00, 0x00,
  0x66, 0x75, 0x6e, 0x63, 0x74, 0x69, 0x6f, 0x6e, 0x61, 0x6c, 0x5f, 0x31,
  0x2f, 0x62, 0x61, 0x74, 0x63, 0x68, 0x5f, 0x6e, 0x6f, 0x72, 0x6d, 0x61,
  0x6c, 0x69, 0x7a, 0x61, 0x74, 0x69, 0x6f, 0x6e, 0x5f, 0x32, 0x5f, 0x31,
  0x2f, 0x62, 0x61, 0x74, 0x63, 0x68, 0x6e, 0x6f, 0x72, 0x6d, 0x2f, 0x61,
  0x64, 0x64, 0x5f, 0x31, 0x3b, 0x66, 0x75, 0x6e, 0x63, 0x74, 0x69, 0x6f,
  0x6e, 0x61, 0x6c, 0x5f, 0x31, 0x2f, 0x63, 0x6f, 0x6e, 0x76, 0x31, 0x64,
  0x5f, 0x32, 0x5f, 0x31, 0x2f, 0x63, 0x6f, 0x6e, 0x76, 0x6f, 0x6c, 0x75,
  0x74, 0x69, 0x6f, 0x6e, 0x2f, 0x53, 0x71, 0x75, 0x65, 0x65, 0x7a, 0x65,
  0x3b, 0x66, 0x75, 0x6e, 0x63, 0x74, 0x69, 0x6f, 0x6e, 0x61, 0x6c, 0x5f,
  0x31, 0x2f, 0x62, 0x61, 0x74, 0x63, 0x68, 0x5f, 0x6e, 0x6f, 0x72, 0x6d,
  0x61, 0x6c, 0x69, 0x7a, 0x61, 0x74, 0x69, 0x6f, 0x6e, 0x5f, 0x32, 0x5f,
  0x31, 0x2f, 0x62, 0x61, 0x74, 0x63, 0x68, 0x6e, 0x6f, 0x72, 0x6d, 0x2f,
  0x6d, 0x75, 0x6c, 0x5f, 0x31, 0x3b, 0x66, 0x75, 0x6e, 0x63, 0x74, 0x69,
  0x6f, 0x6e, 0x61, 0x6c, 0x5f, 0x31, 0x2f, 0x63, 0x6f, 0x6e, 0x76, 0x31,
  0x64, 0x5f, 0x32, 0x5f, 0x31, 0x2f, 0x52, 0x65, 0x6c, 0x75, 0x3b, 0x66,
  0x75, 0x6e, 0x63, 0x74, 0x69, 0x6f, 0x6e, 0x61, 0x6c, 0x5f, 0x31, 0x2f,
  0x63, 0x6f, 0x6e, 0x76, 0x31, 0x64, 0x5f, 0x32, 0x5f, 0x31, 0x2f, 0x42,
  0x69, 0x61, 0x73, 0x41, 0x64, 0x64, 0x3b, 0x66, 0x75, 0x6e, 0x63, 0x74,
  0x69, 0x6f, 0x6e, 0x61, 0x6c, 0x5f, 0x31, 0x2f, 0x63, 0x6f, 0x6e, 0x76,
  0x31, 0x64, 0x5f, 0x32, 0x5f, 0x31, 0x2f, 0x53, 0x71, 0x75, 0x65, 0x65,
  0x7a, 0x65, 0x3b, 0x66, 0x75, 0x6e, 0x63, 0x74, 0x69, 0x6f, 0x6e, 0x61,
  0x6c, 0x5f, 0x31, 0x2f, 0x62, 0x61, 0x74, 0x63, 0x68, 0x5f, 0x6e, 0x6f,
  0x72, 0x6d, 0x61, 0x6c, 0x69, 0x7a, 0x61, 0x74, 0x69, 0x6f, 0x6e, 0x5f,
  0x32, 0x5f, 0x31, 0x2f, 0x62, 0x61, 0x74, 0x63, 0x68, 0x6e, 0x6f, 0x72,
  0x6d, 0x2f, 0x6d, 0x75, 0x6c, 0x3b, 0x66, 0x75, 0x6e, 0x63, 0x74, 0x69,
  0x6f, 0x6e, 0x61, 0x6c, 0x5f, 0x31, 0x2f, 0x62, 0x61, 0x74, 0x63, 0x68,
  0x5f, 0x6e, 0x6f, 0x72, 0x6d, 0x61, 0x6c, 0x69, 0x7a, 0x61, 0x74, 0x69,
  0x6f, 0x6e, 0x5f, 0x32, 0x5f, 0x31, 0x2f, 0x62, 0x61, 0x74, 0x63, 0x68,
  0x6e, 0x6f, 0x72, 0x6d, 0x2f, 0x73, 0x75, 0x62, 0x31, 0x00, 0x00, 0x00,
  0x03, 0x00, 0x00, 0x00, 0x01, 0x00, 0x00, 0x00, 0x25, 0x00, 0x00, 0x00,
  0x20, 0x00, 0x00, 0x00, 0x26, 0xda, 0xff, 0xff, 0x00, 0x00, 0x00, 0x01,
  0x18, 0x00, 0x00, 0x00, 0x28, 0x00, 0x00, 0x00, 0x44, 0x00, 0x00, 0x00,
  0x2b, 0x00, 0x00, 0x00, 0x00, 0x00, 0x00, 0x09, 0x98, 0x01, 0x00, 0x00,
  0x04, 0x00, 0x00, 0x00, 0xff, 0xff, 0xff, 0xff, 0x01, 0x00, 0x00, 0x00,
  0x25, 0x00, 0x00, 0x00, 0x20, 0x00, 0x00, 0x00, 0x14, 0xda, 0xff, 0xff,
  0x08, 0x00, 0x00, 0x00, 0x10, 0x00, 0x00, 0x00, 0x01, 0x00, 0x00, 0x00,
  0xab, 0xff, 0xff, 0xff, 0xff, 0xff, 0xff, 0xff, 0x01, 0x00, 0x00, 0x00,
  0x18, 0x82, 0x8f, 0x3c, 0x58, 0x01, 0x00, 0x00, 0x66, 0x75, 0x6e, 0x63,
  0x74, 0x69, 0x6f, 0x6e, 0x61, 0x6c, 0x5f, 0x31, 0x2f, 0x62, 0x61, 0x74,
  0x63, 0x68, 0x5f, 0x6e, 0x6f, 0x72, 0x6d, 0x61, 0x6c, 0x69, 0x7a, 0x61,
  0x74, 0x69, 0x6f, 0x6e, 0x5f, 0x32, 0x5f, 0x31, 0x2f, 0x62, 0x61, 0x74,
  0x63, 0x68, 0x6e, 0x6f, 0x72, 0x6d, 0x2f, 0x61, 0x64, 0x64, 0x5f, 0x31,
  0x3b, 0x66, 0x75, 0x6e, 0x63, 0x74, 0x69, 0x6f, 0x6e, 0x61, 0x6c, 0x5f,
  0x31, 0x2f, 0x63, 0x6f, 0x6e, 0x76, 0x31, 0x64, 0x5f, 0x32, 0x5f, 0x31,
  0x2f, 0x63, 0x6f, 0x6e, 0x76, 0x6f, 0x6c, 0x75, 0x74, 0x69, 0x6f, 0x6e,
  0x2f, 0x53, 0x71, 0x75, 0x65, 0x65, 0x7a, 0x65, 0x3b, 0x66, 0x75, 0x6e,
  0x63, 0x74, 0x69, 0x6f, 0x6e, 0x61, 0x6c, 0x5f, 0x31, 0x2f, 0x62, 0x61,
  0x74, 0x63, 0x68, 0x5f, 0x6e, 0x6f, 0x72, 0x6d, 0x61, 0x6c, 0x69, 0x7a,
  0x61, 0x74, 0x69, 0x6f, 0x6e, 0x5f, 0x32, 0x5f, 0x31, 0x2f, 0x62, 0x61,
  0x74, 0x63, 0x68, 0x6e, 0x6f, 0x72, 0x6d, 0x2f, 0x6d, 0x75, 0x6c, 0x5f,
  0x31, 0x3b, 0x66, 0x75, 0x6e, 0x63, 0x74, 0x69, 0x6f, 0x6e, 0x61, 0x6c,
  0x5f, 0x31, 0x2f, 0x63, 0x6f, 0x6e, 0x76, 0x31, 0x64, 0x5f, 0x32, 0x5f,
  0x31, 0x2f, 0x52, 0x65, 0x6c, 0x75, 0x3b, 0x66, 0x75, 0x6e, 0x63, 0x74,
  0x69, 0x6f, 0x6e, 0x61, 0x6c, 0x5f, 0x31, 0x2f, 0x63, 0x6f, 0x6e, 0x76,
  0x31, 0x64, 0x5f, 0x32, 0x5f, 0x31, 0x2f, 0x42, 0x69, 0x61, 0x73, 0x41,
  0x64, 0x64, 0x3b, 0x66, 0x75, 0x6e, 0x63, 0x74, 0x69, 0x6f, 0x6e, 0x61,
  0x6c, 0x5f, 0x31, 0x2f, 0x63, 0x6f, 0x6e, 0x76, 0x31, 0x64, 0x5f, 0x32,
  0x5f, 0x31, 0x2f, 0x53, 0x71, 0x75, 0x65, 0x65, 0x7a, 0x65, 0x3b, 0x66,
  0x75, 0x6e, 0x63, 0x74, 0x69, 0x6f, 0x6e, 0x61, 0x6c, 0x5f, 0x31, 0x2f,
  0x62, 0x61, 0x74, 0x63, 0x68, 0x5f, 0x6e, 0x6f, 0x72, 0x6d, 0x61, 0x6c,
  0x69, 0x7a, 0x61, 0x74, 0x69, 0x6f, 0x6e, 0x5f, 0x32, 0x5f, 0x31, 0x2f,
  0x62, 0x61, 0x74, 0x63, 0x68, 0x6e, 0x6f, 0x72, 0x6d, 0x2f, 0x6d, 0x75,
  0x6c, 0x3b, 0x66, 0x75, 0x6e, 0x63, 0x74, 0x69, 0x6f, 0x6e, 0x61, 0x6c,
  0x5f, 0x31, 0x2f, 0x62, 0x61, 0x74, 0x63, 0x68, 0x5f, 0x6e, 0x6f, 0x72,
  0x6d, 0x61, 0x6c, 0x69, 0x7a, 0x61, 0x74, 0x69, 0x6f, 0x6e, 0x5f, 0x32,
  0x5f, 0x31, 0x2f, 0x62, 0x61, 0x74, 0x63, 0x68, 0x6e, 0x6f, 0x72, 0x6d,
  0x2f, 0x73, 0x75, 0x62, 0x00, 0x00, 0x00, 0x00, 0x04, 0x00, 0x00, 0x00,
  0x01, 0x00, 0x00, 0x00, 0x01, 0x00, 0x00, 0x00, 0x25, 0x00, 0x00, 0x00,
  0x20, 0x00, 0x00, 0x00, 0xee, 0xdb, 0xff, 0xff, 0x00, 0x00, 0x00, 0x01,
  0x18, 0x00, 0x00, 0x00, 0x28, 0x00, 0x00, 0x00, 0x44, 0x00, 0x00, 0x00,
  0x2a, 0x00, 0x00, 0x00, 0x00, 0x00, 0x00, 0x09, 0x30, 0x01, 0x00, 0x00,
  0x04, 0x00, 0x00, 0x00, 0xff, 0xff, 0xff, 0xff, 0x01, 0x00, 0x00, 0x00,
  0x25, 0x00, 0x00, 0x00, 0x20, 0x00, 0x00, 0x00, 0xdc, 0xdb, 0xff, 0xff,
  0x08, 0x00, 0x00, 0x00, 0x10, 0x00, 0x00, 0x00, 0x01, 0x00, 0x00, 0x00,
  0xa6, 0xff, 0xff, 0xff, 0xff, 0xff, 0xff, 0xff, 0x01, 0x00, 0x00, 0x00,
  0xfc, 0xc1, 0xa1, 0x3c, 0xf0, 0x00, 0x00, 0x00, 0x66, 0x75, 0x6e, 0x63,
  0x74, 0x69, 0x6f, 0x6e, 0x61, 0x6c, 0x5f, 0x31, 0x2f, 0x62, 0x61, 0x74,
  0x63, 0x68, 0x5f, 0x6e, 0x6f, 0x72, 0x6d, 0x61, 0x6c, 0x69, 0x7a, 0x61,
  0x74, 0x69, 0x6f, 0x6e, 0x5f, 0x32, 0x5f, 0x31, 0x2f, 0x62, 0x61, 0x74,
  0x63, 0x68, 0x6e, 0x6f, 0x72, 0x6d, 0x2f, 0x6d, 0x75, 0x6c, 0x5f, 0x31,
  0x3b, 0x66, 0x75, 0x6e, 0x63, 0x74, 0x69, 0x6f, 0x6e, 0x61, 0x6c, 0x5f,
  0x31, 0x2f, 0x63, 0x6f, 0x6e, 0x76, 0x31, 0x64, 0x5f, 0x32, 0x5f, 0x31,
  0x2f, 0x63, 0x6f, 0x6e, 0x76, 0x6f, 0x6c, 0x75, 0x74, 0x69, 0x6f, 0x6e,
  0x2f, 0x53, 0x71, 0x75, 0x65, 0x65, 0x7a, 0x65, 0x3b, 0x66, 0x75, 0x6e,
  0x63, 0x74, 0x69, 0x6f, 0x6e, 0x61, 0x6c, 0x5f, 0x31, 0x2f, 0x63, 0x6f,
  0x6e, 0x76, 0x31, 0x64, 0x5f, 0x32, 0x5f, 0x31, 0x2f, 0x52, 0x65, 0x6c,
  0x75, 0x3b, 0x66, 0x75, 0x6e, 0x63, 0x74, 0x69, 0x6f, 0x6e, 0x61, 0x6c,
  0x5f, 0x31, 0x2f, 0x63, 0x6f, 0x6e, 0x76, 0x31, 0x64, 0x5f, 0x32, 0x5f,
  0x31, 0x2f, 0x42, 0x69, 0x61, 0x73, 0x41, 0x64, 0x64, 0x3b, 0x66, 0x75,
  0x6e, 0x63, 0x74, 0x69, 0x6f, 0x6e, 0x61, 0x6c, 0x5f, 0x31, 0x2f, 0x63,
  0x6f, 0x6e, 0x76, 0x31, 0x64, 0x5f, 0x32, 0x5f, 0x31, 0x2f, 0x53, 0x71,
  0x75, 0x65, 0x65, 0x7a, 0x65, 0x3b, 0x66, 0x75, 0x6e, 0x63, 0x74, 0x69,
  0x6f, 0x6e, 0x61, 0x6c, 0x5f, 0x31, 0x2f, 0x62, 0x61, 0x74, 0x63, 0x68,
  0x5f, 0x6e, 0x6f, 0x72, 0x6d, 0x61, 0x6c, 0x69, 0x7a, 0x61, 0x74, 0x69,
  0x6f, 0x6e, 0x5f, 0x32, 0x5f, 0x31, 0x2f, 0x62, 0x61, 0x74, 0x63, 0x68,
  0x6e, 0x6f, 0x72, 0x6d, 0x2f, 0x6d, 0x75, 0x6c, 0x00, 0x00, 0x00, 0x00,
  0x04, 0x00, 0x00, 0x00, 0x01, 0x00, 0x00, 0x00, 0x01, 0x00, 0x00, 0x00,
  0x25, 0x00, 0x00, 0x00, 0x20, 0x00, 0x00, 0x00, 0x4e, 0xdd, 0xff, 0xff,
  0x00, 0x00, 0x00, 0x01, 0x18, 0x00, 0x00, 0x00, 0x28, 0x00, 0x00, 0x00,
  0x48, 0x00, 0x00, 0x00, 0x29, 0x00, 0x00, 0x00, 0x00, 0x00, 0x00, 0x09,
  0xf0, 0x00, 0x00, 0x00, 0x04, 0x00, 0x00, 0x00, 0xff, 0xff, 0xff, 0xff,
  0x01, 0x00, 0x00, 0x00, 0x25, 0x00, 0x00, 0x00, 0x20, 0x00, 0x00, 0x00,
  0x3c, 0xdd, 0xff, 0xff, 0x08, 0x00, 0x00, 0x00, 0x14, 0x00, 0x00, 0x00,
  0x01, 0x00, 0x00, 0x00, 0x80, 0xff, 0xff, 0xff, 0xff, 0xff, 0xff, 0xff,
  0x00, 0x00, 0x00, 0x00, 0x01, 0x00, 0x00, 0x00, 0xd6, 0x7b, 0x89, 0x3c,
  0xac, 0x00, 0x00, 0x00, 0x66, 0x75, 0x6e, 0x63, 0x74, 0x69, 0x6f, 0x6e,
  0x61, 0x6c, 0x5f, 0x31, 0x2f, 0x63, 0x6f, 0x6e, 0x76, 0x31, 0x64, 0x5f,
  0x32, 0x5f, 0x31, 0x2f, 0x52, 0x65, 0x6c, 0x75, 0x3b, 0x66, 0x75, 0x6e,
  0x63, 0x74, 0x69, 0x6f, 0x6e, 0x61, 0x6c, 0x5f, 0x31, 0x2f, 0x63, 0x6f,
  0x6e, 0x76, 0x31, 0x64, 0x5f, 0x32, 0x5f, 0x31, 0x2f, 0x42, 0x69, 0x61,
  0x73, 0x41, 0x64, 0x64, 0x3b, 0x66, 0x75, 0x6e, 0x63, 0x74, 0x69, 0x6f,
  0x6e, 0x61, 0x6c, 0x5f, 0x31, 0x2f, 0x63, 0x6f, 0x6e, 0x76, 0x31, 0x64,
  0x5f, 0x32, 0x5f, 0x31, 0x2f, 0x63, 0x6f, 0x6e, 0x76, 0x6f, 0x6c, 0x75,
  0x74, 0x69, 0x6f, 0x6e, 0x2f, 0x53, 0x71, 0x75, 0x65, 0x65, 0x7a, 0x65,
  0x3b, 0x66, 0x75, 0x6e, 0x63, 0x74, 0x69, 0x6f, 0x6e, 0x61, 0x6c, 0x5f,
  0x31, 0x2f, 0x63, 0x6f, 0x6e, 0x76, 0x31, 0x64, 0x5f, 0x32, 0x5f, 0x31,
  0x2f, 0x53, 0x71, 0x75, 0x65, 0x65, 0x7a, 0x65, 0x3b, 0x66, 0x75, 0x6e,
  0x63, 0x74, 0x69, 0x6f, 0x6e, 0x61, 0x6c, 0x5f, 0x31, 0x2f, 0x63, 0x6f,
  0x6e, 0x76, 0x31, 0x64, 0x5f, 0x32, 0x5f, 0x31, 0x2f, 0x63, 0x6f, 0x6e,
  0x76, 0x6f, 0x6c, 0x75, 0x74, 0x69, 0x6f, 0x6e, 0x00, 0x00, 0x00, 0x00,
  0x04, 0x00, 0x00, 0x00, 0x01, 0x00, 0x00, 0x00, 0x01, 0x00, 0x00, 0x00,
  0x25, 0x00, 0x00, 0x00, 0x20, 0x00, 0x00, 0x00, 0x6e, 0xde, 0xff, 0xff,
  0x00, 0x00, 0x00, 0x01, 0x18, 0x00, 0x00, 0x00, 0x28, 0x00, 0x00, 0x00,
  0x44, 0x00, 0x00, 0x00, 0x28, 0x00, 0x00, 0x00, 0x00, 0x00, 0x00, 0x09,
  0x6c, 0x00, 0x00, 0x00, 0x04, 0x00, 0x00, 0x00, 0xff, 0xff, 0xff, 0xff,
  0x01, 0x00, 0x00, 0x00, 0x25, 0x00, 0x00, 0x00, 0x20, 0x00, 0x00, 0x00,
  0x5c, 0xde, 0xff, 0xff, 0x08, 0x00, 0x00, 0x00, 0x10, 0x00, 0x00, 0x00,
  0x01, 0x00, 0x00, 0x00, 0xa3, 0xff, 0xff, 0xff, 0xff, 0xff, 0xff, 0xff,
  0x01, 0x00, 0x00, 0x00, 0x08, 0x90, 0x8e, 0x3c, 0x2e, 0x00, 0x00, 0x00,
  0x66, 0x75, 0x6e, 0x63, 0x74, 0x69, 0x6f, 0x6e, 0x61, 0x6c, 0x5f, 0x31,
  0x2f, 0x63, 0x6f, 0x6e, 0x76, 0x31, 0x64, 0x5f, 0x32, 0x5f, 0x31, 0x2f,
  0x63, 0x6f, 0x6e, 0x76, 0x6f, 0x6c, 0x75, 0x74, 0x69, 0x6f, 0x6e, 0x2f,
  0x45, 0x78, 0x70, 0x61, 0x6e, 0x64, 0x44, 0x69, 0x6d, 0x73, 0x00, 0x00,
  0x04, 0x00, 0x00, 0x00, 0x01, 0x00, 0x00, 0x00, 0x01, 0x00, 0x00, 0x00,
  0x25, 0x00, 0x00, 0x00, 0x20, 0x00, 0x00, 0x00, 0x0a, 0xdf, 0xff, 0xff,
  0x00, 0x00, 0x00, 0x01, 0x18, 0x00, 0x00, 0x00, 0x24, 0x00, 0x00, 0x00,
  0x44, 0x00, 0x00, 0x00, 0x27, 0x00, 0x00, 0x00, 0x00, 0x00, 0x00, 0x09,
  0x70, 0x00, 0x00, 0x00, 0x03, 0x00, 0x00, 0x00, 0xff, 0xff, 0xff, 0xff,
  0x25, 0x00, 0x00, 0x00, 0x20, 0x00, 0x00, 0x00, 0xf4, 0xde, 0xff, 0xff,
  0x08, 0x00, 0x00, 0x00, 0x14, 0x00, 0x00, 0x00, 0x01, 0x00, 0x00, 0x00,
  0xa3, 0xff, 0xff, 0xff, 0xff, 0xff, 0xff, 0xff, 0x00, 0x00, 0x00, 0x00,
  0x01, 0x00, 0x00, 0x00, 0x08, 0x90, 0x8e, 0x3c, 0x30, 0x00, 0x00, 0x00,
  0x66, 0x75, 0x6e, 0x63, 0x74, 0x69, 0x6f, 0x6e, 0x61, 0x6c, 0x5f, 0x31,
  0x2f, 0x6d, 0x61, 0x78, 0x5f, 0x70, 0x6f, 0x6f, 0x6c, 0x69, 0x6e, 0x67,
  0x31, 0x64, 0x5f, 0x31, 0x5f, 0x32, 0x2f, 0x4d, 0x61, 0x78, 0x50, 0x6f,
  0x6f, 0x6c, 0x31, 0x64, 0x2f, 0x53, 0x71, 0x75, 0x65, 0x65, 0x7a, 0x65,
  0x00, 0x00, 0x00, 0x00, 0x03, 0x00, 0x00, 0x00, 0x01, 0x00, 0x00, 0x00,
  0x25, 0x00, 0x00, 0x00, 0x20, 0x00, 0x00, 0x00, 0xa6, 0xdf, 0xff, 0xff,
  0x00, 0x00, 0x00, 0x01, 0x18, 0x00, 0x00, 0x00, 0x28, 0x00, 0x00, 0x00,
  0x44, 0x00, 0x00, 0x00, 0x26, 0x00, 0x00, 0x00, 0x00, 0x00, 0x00, 0x09,
  0x68, 0x00, 0x00, 0x00, 0x04, 0x00, 0x00, 0x00, 0xff, 0xff, 0xff, 0xff,
  0x01, 0x00, 0x00, 0x00, 0x25, 0x00, 0x00, 0x00, 0x20, 0x00, 0x00, 0x00,
  0x94, 0xdf, 0xff, 0xff, 0x08, 0x00, 0x00, 0x00, 0x10, 0x00, 0x00, 0x00,
  0x01, 0x00, 0x00, 0x00, 0xa3, 0xff, 0xff, 0xff, 0xff, 0xff, 0xff, 0xff,
  0x01, 0x00, 0x00, 0x00, 0x08, 0x90, 0x8e, 0x3c, 0x28, 0x00, 0x00, 0x00,
  0x66, 0x75, 0x6e, 0x63, 0x74, 0x69, 0x6f, 0x6e, 0x61, 0x6c, 0x5f, 0x31,
  0x2f, 0x6d, 0x61, 0x78, 0x5f, 0x70, 0x6f, 0x6f, 0x6c, 0x69, 0x6e, 0x67,
  0x31, 0x64, 0x5f, 0x31, 0x5f, 0x32, 0x2f, 0x4d, 0x61, 0x78, 0x50, 0x6f,
  0x6f, 0x6c, 0x31, 0x64, 0x00, 0x00, 0x00, 0x00, 0x04, 0x00, 0x00, 0x00,
  0x01, 0x00, 0x00, 0x00, 0x01, 0x00, 0x00, 0x00, 0x25, 0x00, 0x00, 0x00,
  0x20, 0x00, 0x00, 0x00, 0x3e, 0xe0, 0xff, 0xff, 0x00, 0x00, 0x00, 0x01,
  0x18, 0x00, 0x00, 0x00, 0x28, 0x00, 0x00, 0x00, 0x48, 0x00, 0x00, 0x00,
  0x25, 0x00, 0x00, 0x00, 0x00, 0x00, 0x00, 0x09, 0x74, 0x00, 0x00, 0x00,
  0x04, 0x00, 0x00, 0x00, 0xff, 0xff, 0xff, 0xff, 0x01, 0x00, 0x00, 0x00,
  0x4b, 0x00, 0x00, 0x00, 0x20, 0x00, 0x00, 0x00, 0x2c, 0xe0, 0xff, 0xff,
  0x08, 0x00, 0x00, 0x00, 0x14, 0x00, 0x00, 0x00, 0x01, 0x00, 0x00, 0x00,
  0xa3, 0xff, 0xff, 0xff, 0xff, 0xff, 0xff, 0xff, 0x00, 0x00, 0x00, 0x00,
  0x01, 0x00, 0x00, 0x00, 0x08, 0x90, 0x8e, 0x3c, 0x33, 0x00, 0x00, 0x00,
  0x66, 0x75, 0x6e, 0x63, 0x74, 0x69, 0x6f, 0x6e, 0x61, 0x6c, 0x5f, 0x31,
  0x2f, 0x6d, 0x61, 0x78, 0x5f, 0x70, 0x6f, 0x6f, 0x6c, 0x69, 0x6e, 0x67,
  0x31, 0x64, 0x5f, 0x31, 0x5f, 0x32, 0x2f, 0x4d, 0x61, 0x78, 0x50, 0x6f,
  0x6f, 0x6c, 0x31, 0x64, 0x2f, 0x45, 0x78, 0x70, 0x61, 0x6e, 0x64, 0x44,
  0x69, 0x6d, 0x73, 0x00, 0x04, 0x00, 0x00, 0x00, 0x01, 0x00, 0x00, 0x00,
  0x01, 0x00, 0x00, 0x00, 0x4b, 0x00, 0x00, 0x00, 0x20, 0x00, 0x00, 0x00,
  0xe2, 0xe0, 0xff, 0xff, 0x00, 0x00, 0x00, 0x01, 0x18, 0x00, 0x00, 0x00,
  0x24, 0x00, 0x00, 0x00, 0x44, 0x00, 0x00, 0x00, 0x24, 0x00, 0x00, 0x00,
  0x00, 0x00, 0x00, 0x09, 0x98, 0x01, 0x00, 0x00, 0x03, 0x00, 0x00, 0x00,
  0xff, 0xff, 0xff, 0xff, 0x4b, 0x00, 0x00, 0x00, 0x20, 0x00, 0x00, 0x00,
  0xcc, 0xe0, 0xff, 0xff, 0x08, 0x00, 0x00, 0x00, 0x14, 0x00, 0x00, 0x00,
  0x01, 0x00, 0x00, 0x00, 0xa3, 0xff, 0xff, 0xff, 0xff, 0xff, 0xff, 0xff,
  0x00, 0x00, 0x00, 0x00, 0x01, 0x00, 0x00, 0x00, 0x08, 0x90, 0x8e, 0x3c,
  0x59, 0x01, 0x00, 0x00, 0x66, 0x75, 0x6e, 0x63, 0x74, 0x69, 0x6f, 0x6e,
  0x61, 0x6c, 0x5f, 0x31, 0x2f, 0x62, 0x61, 0x74, 0x63, 0x68, 0x5f, 0x6e,
  0x6f, 0x72, 0x6d, 0x61, 0x6c, 0x69, 0x7a, 0x61, 0x74, 0x69, 0x6f, 0x6e,
  0x5f, 0x31, 0x5f, 0x32, 0x2f, 0x62, 0x61, 0x74, 0x63, 0x68, 0x6e, 0x6f,
  0x72, 0x6d, 0x2f, 0x61, 0x64, 0x64, 0x5f, 0x31, 0x3b, 0x66, 0x75, 0x6e,
  0x63, 0x74, 0x69, 0x6f, 0x6e, 0x61, 0x6c, 0x5f, 0x31, 0x2f, 0x63, 0x6f,
  0x6e, 0x76, 0x31, 0x64, 0x5f, 0x31, 0x5f, 0x32, 0x2f, 0x63, 0x6f, 0x6e,
  0x76, 0x6f, 0x6c, 0x75, 0x74, 0x69, 0x6f, 0x6e, 0x2f, 0x53, 0x71, 0x75,
  0x65, 0x65, 0x7a, 0x65, 0x3b, 0x66, 0x75, 0x6e, 0x63, 0x74, 0x69, 0x6f,
  0x6e, 0x61, 0x6c, 0x5f, 0x31, 0x2f, 0x62, 0x61, 0x74, 0x63, 0x68, 0x5f,
  0x6e, 0x6f, 0x72, 0x6d, 0x61, 0x6c, 0x69, 0x7a, 0x61, 0x74, 0x69, 0x6f,
  0x6e, 0x5f, 0x31, 0x5f, 0x32, 0x2f, 0x62, 0x61, 0x74, 0x63, 0x68, 0x6e,
  0x6f, 0x72, 0x6d, 0x2f, 0x6d, 0x75, 0x6c, 0x5f, 0x31, 0x3b, 0x66, 0x75,
  0x6e, 0x63, 0x74, 0x69, 0x6f, 0x6e, 0x61, 0x6c, 0x5f, 0x31, 0x2f, 0x63,
  0x6f, 0x6e, 0x76, 0x31, 0x64, 0x5f, 0x31, 0x5f, 0x32, 0x2f, 0x52, 0x65,
  0x6c, 0x75, 0x3b, 0x66, 0x75, 0x6e, 0x63, 0x74, 0x69, 0x6f, 0x6e, 0x61,
  0x6c, 0x5f, 0x31, 0x2f, 0x63, 0x6f, 0x6e, 0x76, 0x31, 0x64, 0x5f, 0x31,
  0x5f, 0x32, 0x2f, 0x42, 0x69, 0x61, 0x73, 0x41, 0x64, 0x64, 0x3b, 0x66,
  0x75, 0x6e, 0x63, 0x74, 0x69, 0x6f, 0x6e, 0x61, 0x6c, 0x5f, 0x31, 0x2f,
  0x63, 0x6f, 0x6e, 0x76, 0x31, 0x64, 0x5f, 0x31, 0x5f, 0x32, 0x2f, 0x53,
  0x71, 0x75, 0x65, 0x65, 0x7a, 0x65, 0x3b, 0x66, 0x75, 0x6e, 0x63, 0x74,
  0x69, 0x6f, 0x6e, 0x61, 0x6c, 0x5f, 0x31, 0x2f, 0x62, 0x61, 0x74, 0x63,
  0x68, 0x5f, 0x6e, 0x6f, 0x72, 0x6d, 0x61, 0x6c, 0x69, 0x7a, 0x61, 0x74,
  0x69, 0x6f, 0x6e, 0x5f, 0x31, 0x5f, 0x32, 0x2f, 0x62, 0x61, 0x74, 0x63,
  0x68, 0x6e, 0x6f, 0x72, 0x6d, 0x2f, 0x6d, 0x75, 0x6c, 0x3b, 0x66, 0x75,
  0x6e, 0x63, 0x74, 0x69, 0x6f, 0x6e, 0x61, 0x6c, 0x5f, 0x31, 0x2f, 0x62,
  0x61, 0x74, 0x63, 0x68, 0x5f, 0x6e, 0x6f, 0x72, 0x6d, 0x61, 0x6c, 0x69,
  0x7a, 0x61, 0x74, 0x69, 0x6f, 0x6e, 0x5f, 0x31, 0x5f, 0x32, 0x2f, 0x62,
  0x61, 0x74, 0x63, 0x68, 0x6e, 0x6f, 0x72, 0x6d, 0x2f, 0x73, 0x75, 0x62,
  0x31, 0x00, 0x00, 0x00, 0x03, 0x00, 0x00, 0x00, 0x01, 0x00, 0x00, 0x00,
  0x4b, 0x00, 0x00, 0x00, 0x20, 0x00, 0x00, 0x00, 0xa6, 0xe2, 0xff, 0xff,
  0x00, 0x00, 0x00, 0x01, 0x18, 0x00, 0x00, 0x00, 0x28, 0x00, 0x00, 0x00,
  0x44, 0x00, 0x00, 0x00, 0x23, 0x00, 0x00, 0x00, 0x00, 0x00, 0x00, 0x09,
  0x98, 0x01, 0x00, 0x00, 0x04, 0x00, 0x00, 0x00, 0xff, 0xff, 0xff, 0xff,
  0x01, 0x00, 0x00, 0x00, 0x4b, 0x00, 0x00, 0x00, 0x20, 0x00, 0x00, 0x00,
  0x94, 0xe2, 0xff, 0xff, 0x08, 0x00, 0x00, 0x00, 0x10, 0x00, 0x00, 0x00,
  0x01, 0x00, 0x00, 0x00, 0xa3, 0xff, 0xff, 0xff, 0xff, 0xff, 0xff, 0xff,
  0x01, 0x00, 0x00, 0x00, 0x08, 0x90, 0x8e, 0x3c, 0x58, 0x01, 0x00, 0x00,
  0x66, 0x75, 0x6e, 0x63, 0x74, 0x69, 0x6f, 0x6e, 0x61, 0x6c, 0x5f, 0x31,
  0x2f, 0x62, 0x61, 0x74, 0x63, 0x68, 0x5f, 0x6e, 0x6f, 0x72, 0x6d, 0x61,
  0x6c, 0x69, 0x7a, 0x61, 0x74, 0x69, 0x6f, 0x6e, 0x5f, 0x31, 0x5f, 0x32,
  0x2f, 0x62, 0x61, 0x74, 0x63, 0x68, 0x6e, 0x6f, 0x72, 0x6d, 0x2f, 0x61,
  0x64, 0x64, 0x5f, 0x31, 0x3b, 0x66, 0x75, 0x6e, 0x63, 0x74, 0x69, 0x6f,
  0x6e, 0x61, 0x6c, 0x5f, 0x31, 0x2f, 0x63, 0x6f, 0x6e, 0x76, 0x31, 0x64,
  0x5f, 0x31, 0x5f, 0x32, 0x2f, 0x63, 0x6f, 0x6e, 0x76, 0x6f, 0x6c, 0x75,
  0x74, 0x69, 0x6f, 0x6e, 0x2f, 0x53, 0x71, 0x75, 0x65, 0x65, 0x7a, 0x65,
  0x3b, 0x66, 0x75, 0x6e, 0x63, 0x74, 0x69, 0x6f, 0x6e, 0x61, 0x6c, 0x5f,
  0x31, 0x2f, 0x62, 0x61, 0x74, 0x63, 0x68, 0x5f, 0x6e, 0x6f, 0x72, 0x6d,
  0x61, 0x6c, 0x69, 0x7a, 0x61, 0x74, 0x69, 0x6f, 0x6e, 0x5f, 0x31, 0x5f,
  0x32, 0x2f, 0x62, 0x61, 0x74, 0x63, 0x68, 0x6e, 0x6f, 0x72, 0x6d, 0x2f,
  0x6d, 0x75, 0x6c, 0x5f, 0x31, 0x3b, 0x66, 0x75, 0x6e, 0x63, 0x74, 0x69,
  0x6f, 0x6e, 0x61, 0x6c, 0x5f, 0x31, 0x2f, 0x63, 0x6f, 0x6e, 0x76, 0x31,
  0x64, 0x5f, 0x31, 0x5f, 0x32, 0x2f, 0x52, 0x65, 0x6c, 0x75, 0x3b, 0x66,
  0x75, 0x6e, 0x63, 0x74, 0x69, 0x6f, 0x6e, 0x61, 0x6c, 0x5f, 0x31, 0x2f,
  0x63, 0x6f, 0x6e, 0x76, 0x31, 0x64, 0x5f, 0x31, 0x5f, 0x32, 0x2f, 0x42,
  0x69, 0x61, 0x73, 0x41, 0x64, 0x64, 0x3b, 0x66, 0x75, 0x6e, 0x63, 0x74,
  0x69, 0x6f, 0x6e, 0x61, 0x6c, 0x5f, 0x31, 0x2f, 0x63, 0x6f, 0x6e, 0x76,
  0x31, 0x64, 0x5f, 0x31, 0x5f, 0x32, 0x2f, 0x53, 0x71, 0x75, 0x65, 0x65,
  0x7a, 0x65, 0x3b, 0x66, 0x75, 0x6e, 0x63, 0x74, 0x69, 0x6f, 0x6e, 0x61,
  0x6c, 0x5f, 0x31, 0x2f, 0x62, 0x61, 0x74, 0x63, 0x68, 0x5f, 0x6e, 0x6f,
  0x72, 0x6d, 0x61, 0x6c, 0x69, 0x7a, 0x61, 0x74, 0x69, 0x6f, 0x6e, 0x5f,
  0x31, 0x5f, 0x32, 0x2f, 0x62, 0x61, 0x74, 0x63, 0x68, 0x6e, 0x6f, 0x72,
  0x6d, 0x2f, 0x6d, 0x75, 0x6c, 0x3b, 0x66, 0x75, 0x6e, 0x63, 0x74, 0x69,
  0x6f, 0x6e, 0x61, 0x6c, 0x5f, 0x31, 0x2f, 0x62, 0x61, 0x74, 0x63, 0x68,
  0x5f, 0x6e, 0x6f, 0x72, 0x6d, 0x61, 0x6c, 0x69, 0x7a, 0x61, 0x74, 0x69,
  0x6f, 0x6e, 0x5f, 0x31, 0x5f, 0x32, 0x2f, 0x62, 0x61, 0x74, 0x63, 0x68,
  0x6e, 0x6f, 0x72, 0x6d, 0x2f, 0x73, 0x75, 0x62, 0x00, 0x00, 0x00, 0x00,
  0x04, 0x00, 0x00, 0x00, 0x01, 0x00, 0x00, 0x00, 0x01, 0x00, 0x00, 0x00,
  0x4b, 0x00, 0x00, 0x00, 0x20, 0x00, 0x00, 0x00, 0x6e, 0xe4, 0xff, 0xff,
  0x00, 0x00, 0x00, 0x01, 0x18, 0x00, 0x00, 0x00, 0x28, 0x00, 0x00, 0x00,
  0x44, 0x00, 0x00, 0x00, 0x22, 0x00, 0x00, 0x00, 0x00, 0x00, 0x00, 0x09,
  0x30, 0x01, 0x00, 0x00, 0x04, 0x00, 0x00, 0x00, 0xff, 0xff, 0xff, 0xff,
  0x01, 0x00, 0x00, 0x00, 0x4b, 0x00, 0x00, 0x00, 0x20, 0x00, 0x00, 0x00,
  0x5c, 0xe4, 0xff, 0xff, 0x08, 0x00, 0x00, 0x00, 0x10, 0x00, 0x00, 0x00,
  0x01, 0x00, 0x00, 0x00, 0xa0, 0xff, 0xff, 0xff, 0xff, 0xff, 0xff, 0xff,
  0x01, 0x00, 0x00, 0x00, 0x6b, 0x2d, 0x9c, 0x3c, 0xf0, 0x00, 0x00, 0x00,
  0x66, 0x75, 0x6e, 0x63, 0x74, 0x69, 0x6f, 0x6e, 0x61, 0x6c, 0x5f, 0x31,
  0x2f, 0x62, 0x61, 0x74, 0x63, 0x68, 0x5f, 0x6e, 0x6f, 0x72, 0x6d, 0x61,
  0x6c, 0x69, 0x7a, 0x61, 0x74, 0x69, 0x6f, 0x6e, 0x5f, 0x31, 0x5f, 0x32,
  0x2f, 0x62, 0x61, 0x74, 0x63, 0x68, 0x6e, 0x6f, 0x72, 0x6d, 0x2f, 0x6d,
  0x75, 0x6c, 0x5f, 0x31, 0x3b, 0x66, 0x75, 0x6e, 0x63, 0x74, 0x69, 0x6f,
  0x6e, 0x61, 0x6c, 0x5f, 0x31, 0x2f, 0x63, 0x6f, 0x6e, 0x76, 0x31, 0x64,
  0x5f, 0x31, 0x5f, 0x32, 0x2f, 0x63, 0x6f, 0x6e, 0x76, 0x6f, 0x6c, 0x75,
  0x74, 0x69, 0x6f, 0x6e, 0x2f, 0x53, 0x71, 0x75, 0x65, 0x65, 0x7a, 0x65,
  0x3b, 0x66, 0x75, 0x6e, 0x63, 0x74, 0x69, 0x6f, 0x6e, 0x61, 0x6c, 0x5f,
  0x31, 0x2f, 0x63, 0x6f, 0x6e, 0x76, 0x31, 0x64, 0x5f, 0x31, 0x5f, 0x32,
  0x2f, 0x52, 0x65, 0x6c, 0x75, 0x3b, 0x66, 0x75, 0x6e, 0x63, 0x74, 0x69,
  0x6f, 0x6e, 0x61, 0x6c, 0x5f, 0x31, 0x2f, 0x63, 0x6f, 0x6e, 0x76, 0x31,
  0x64, 0x5f, 0x31, 0x5f, 0x32, 0x2f, 0x42, 0x69, 0x61, 0x73, 0x41, 0x64,
  0x64, 0x3b, 0x66, 0x75, 0x6e, 0x63, 0x74, 0x69, 0x6f, 0x6e, 0x61, 0x6c,
  0x5f, 0x31, 0x2f, 0x63, 0x6f, 0x6e, 0x76, 0x31, 0x64, 0x5f, 0x31, 0x5f,
  0x32, 0x2f, 0x53, 0x71, 0x75, 0x65, 0x65, 0x7a, 0x65, 0x3b, 0x66, 0x75,
  0x6e, 0x63, 0x74, 0x69, 0x6f, 0x6e, 0x61, 0x6c, 0x5f, 0x31, 0x2f, 0x62,
  0x61, 0x74, 0x63, 0x68, 0x5f, 0x6e, 0x6f, 0x72, 0x6d, 0x61, 0x6c, 0x69,
  0x7a, 0x61, 0x74, 0x69, 0x6f, 0x6e, 0x5f, 0x31, 0x5f, 0x32, 0x2f, 0x62,
  0x61, 0x74, 0x63, 0x68, 0x6e, 0x6f, 0x72, 0x6d, 0x2f, 0x6d, 0x75, 0x6c,
  0x00, 0x00, 0x00, 0x00, 0x04, 0x00, 0x00, 0x00, 0x01, 0x00, 0x00, 0x00,
  0x01, 0x00, 0x00, 0x00, 0x4b, 0x00, 0x00, 0x00, 0x20, 0x00, 0x00, 0x00,
  0xce, 0xe5, 0xff, 0xff, 0x00, 0x00, 0x00, 0x01, 0x18, 0x00, 0x00, 0x00,
  0x28, 0x00, 0x00, 0x00, 0x48, 0x00, 0x00, 0x00, 0x21, 0x00, 0x00, 0x00,
  0x00, 0x00, 0x00, 0x09, 0xf0, 0x00, 0x00, 0x00, 0x04, 0x00, 0x00, 0x00,
  0xff, 0xff, 0xff, 0xff, 0x01, 0x00, 0x00, 0x00, 0x4b, 0x00, 0x00, 0x00,
  0x20, 0x00, 0x00, 0x00, 0xbc, 0xe5, 0xff, 0xff, 0x08, 0x00, 0x00, 0x00,
  0x14, 0x00, 0x00, 0x00, 0x01, 0x00, 0x00, 0x00, 0x80, 0xff, 0xff, 0xff,
  0xff, 0xff, 0xff, 0xff, 0x00, 0x00, 0x00, 0x00, 0x01, 0x00, 0x00, 0x00,
  0xf2, 0x8e, 0x88, 0x3c, 0xac, 0x00, 0x00, 0x00, 0x66, 0x75, 0x6e, 0x63,
  0x74, 0x69, 0x6f, 0x6e, 0x61, 0x6c, 0x5f, 0x31, 0x2f, 0x63, 0x6f, 0x6e,
  0x76, 0x31, 0x64, 0x5f, 0x31, 0x5f, 0x32, 0x2f, 0x52, 0x65, 0x6c, 0x75,
  0x3b, 0x66, 0x75, 0x6e, 0x63, 0x74, 0x69, 0x6f, 0x6e, 0x61, 0x6c, 0x5f,
  0x31, 0x2f, 0x63, 0x6f, 0x6e, 0x76, 0x31, 0x64, 0x5f, 0x31, 0x5f, 0x32,
  0x2f, 0x42, 0x69, 0x61, 0x73, 0x41, 0x64, 0x64, 0x3b, 0x66, 0x75, 0x6e,
  0x63, 0x74, 0x69, 0x6f, 0x6e, 0x61, 0x6c, 0x5f, 0x31, 0x2f, 0x63, 0x6f,
  0x6e, 0x76, 0x31, 0x64, 0x5f, 0x31, 0x5f, 0x32, 0x2f, 0x63, 0x6f, 0x6e,
  0x76, 0x6f, 0x6c, 0x75, 0x74, 0x69, 0x6f, 0x6e, 0x2f, 0x53, 0x71, 0x75,
  0x65, 0x65, 0x7a, 0x65, 0x3b, 0x66, 0x75, 0x6e, 0x63, 0x74, 0x69, 0x6f,
  0x6e, 0x61, 0x6c, 0x5f, 0x31, 0x2f, 0x63, 0x6f, 0x6e, 0x76, 0x31, 0x64,
  0x5f, 0x31, 0x5f, 0x32, 0x2f, 0x53, 0x71, 0x75, 0x65, 0x65, 0x7a, 0x65,
  0x3b, 0x66, 0x75, 0x6e, 0x63, 0x74, 0x69, 0x6f, 0x6e, 0x61, 0x6c, 0x5f,
  0x31, 0x2f, 0x63, 0x6f, 0x6e, 0x76, 0x31, 0x64, 0x5f, 0x31, 0x5f, 0x32,
  0x2f, 0x63, 0x6f, 0x6e, 0x76, 0x6f, 0x6c, 0x75, 0x74, 0x69, 0x6f, 0x6e,
  0x00, 0x00, 0x00, 0x00, 0x04, 0x00, 0x00, 0x00, 0x01, 0x00, 0x00, 0x00,
  0x01, 0x00, 0x00, 0x00, 0x4b, 0x00, 0x00, 0x00, 0x20, 0x00, 0x00, 0x00,
  0xee, 0xe6, 0xff, 0xff, 0x00, 0x00, 0x00, 0x01, 0x18, 0x00, 0x00, 0x00,
  0x28, 0x00, 0x00, 0x00, 0x44, 0x00, 0x00, 0x00, 0x20, 0x00, 0x00, 0x00,
  0x00, 0x00, 0x00, 0x09, 0x6c, 0x00, 0x00, 0x00, 0x04, 0x00, 0x00, 0x00,
  0xff, 0xff, 0xff, 0xff, 0x01, 0x00, 0x00, 0x00, 0x4b, 0x00, 0x00, 0x00,
  0x10, 0x00, 0x00, 0x00, 0xdc, 0xe6, 0xff, 0xff, 0x08, 0x00, 0x00, 0x00,
  0x10, 0x00, 0x00, 0x00, 0x01, 0x00, 0x00, 0x00, 0xa3, 0xff, 0xff, 0xff,
  0xff, 0xff, 0xff, 0xff, 0x01, 0x00, 0x00, 0x00, 0x8c, 0xfc, 0xa3, 0x3c,
  0x2e, 0x00, 0x00, 0x00, 0x66, 0x75, 0x6e, 0x63, 0x74, 0x69, 0x6f, 0x6e,
  0x61, 0x6c, 0x5f, 0x31, 0x2f, 0x63, 0x6f, 0x6e, 0x76, 0x31, 0x64, 0x5f,
  0x31, 0x5f, 0x32, 0x2f, 0x63, 0x6f, 0x6e, 0x76, 0x6f, 0x6c, 0x75, 0x74,
  0x69, 0x6f, 0x6e, 0x2f, 0x45, 0x78, 0x70, 0x61, 0x6e, 0x64, 0x44, 0x69,
  0x6d, 0x73, 0x00, 0x00, 0x04, 0x00, 0x00, 0x00, 0x01, 0x00, 0x00, 0x00,
  0x01, 0x00, 0x00, 0x00, 0x4b, 0x00, 0x00, 0x00, 0x10, 0x00, 0x00, 0x00,
  0x8a, 0xe7, 0xff, 0xff, 0x00, 0x00, 0x00, 0x01, 0x18, 0x00, 0x00, 0x00,
  0x24, 0x00, 0x00, 0x00, 0x40, 0x00, 0x00, 0x00, 0x1f, 0x00, 0x00, 0x00,
  0x00, 0x00, 0x00, 0x09, 0x68, 0x00, 0x00, 0x00, 0x03, 0x00, 0x00, 0x00,
  0xff, 0xff, 0xff, 0xff, 0x4b, 0x00, 0x00, 0x00, 0x10, 0x00, 0x00, 0x00,
  0x74, 0xe7, 0xff, 0xff, 0x08, 0x00, 0x00, 0x00, 0x10, 0x00, 0x00, 0x00,
  0x01, 0x00, 0x00, 0x00, 0xa3, 0xff, 0xff, 0xff, 0xff, 0xff, 0xff, 0xff,
  0x01, 0x00, 0x00, 0x00, 0x8c, 0xfc, 0xa3, 0x3c, 0x2e, 0x00, 0x00, 0x00,
  0x66, 0x75, 0x6e, 0x63, 0x74, 0x69, 0x6f, 0x6e, 0x61, 0x6c, 0x5f, 0x31,
  0x2f, 0x6d, 0x61, 0x78, 0x5f, 0x70, 0x6f, 0x6f, 0x6c, 0x69, 0x6e, 0x67,
  0x31, 0x64, 0x5f, 0x31, 0x2f, 0x4d, 0x61, 0x78, 0x50, 0x6f, 0x6f, 0x6c,
  0x31, 0x64, 0x2f, 0x53, 0x71, 0x75, 0x65, 0x65, 0x7a, 0x65, 0x00, 0x00,
  0x03, 0x00, 0x00, 0x00, 0x01, 0x00, 0x00, 0x00, 0x4b, 0x00, 0x00, 0x00,
  0x10, 0x00, 0x00, 0x00, 0x1e, 0xe8, 0xff, 0xff, 0x00, 0x00, 0x00, 0x01,
  0x18, 0x00, 0x00, 0x00, 0x28, 0x00, 0x00, 0x00, 0x48, 0x00, 0x00, 0x00,
  0x1e, 0x00, 0x00, 0x00, 0x00, 0x00, 0x00, 0x09, 0x68, 0x00, 0x00, 0x00,
  0x04, 0x00, 0x00, 0x00, 0xff, 0xff, 0xff, 0xff, 0x01, 0x00, 0x00, 0x00,
  0x4b, 0x00, 0x00, 0x00, 0x10, 0x00, 0x00, 0x00, 0x0c, 0xe8, 0xff, 0xff,
  0x08, 0x00, 0x00, 0x00, 0x14, 0x00, 0x00, 0x00, 0x01, 0x00, 0x00, 0x00,
  0xa3, 0xff, 0xff, 0xff, 0xff, 0xff, 0xff, 0xff, 0x00, 0x00, 0x00, 0x00,
  0x01, 0x00, 0x00, 0x00, 0x8c, 0xfc, 0xa3, 0x3c, 0x26, 0x00, 0x00, 0x00,
  0x66, 0x75, 0x6e, 0x63, 0x74, 0x69, 0x6f, 0x6e, 0x61, 0x6c, 0x5f, 0x31,
  0x2f, 0x6d, 0x61, 0x78, 0x5f, 0x70, 0x6f, 0x6f, 0x6c, 0x69, 0x6e, 0x67,
  0x31, 0x64, 0x5f, 0x31, 0x2f, 0x4d, 0x61, 0x78, 0x50, 0x6f, 0x6f, 0x6c,
  0x31, 0x64, 0x00, 0x00, 0x04, 0x00, 0x00, 0x00, 0x01, 0x00, 0x00, 0x00,
  0x01, 0x00, 0x00, 0x00, 0x4b, 0x00, 0x00, 0x00, 0x10, 0x00, 0x00, 0x00,
  0xb6, 0xe8, 0xff, 0xff, 0x00, 0x00, 0x00, 0x01, 0x18, 0x00, 0x00, 0x00,
  0x28, 0x00, 0x00, 0x00, 0x48, 0x00, 0x00, 0x00, 0x1d, 0x00, 0x00, 0x00,
  0x00, 0x00, 0x00, 0x09, 0x74, 0x00, 0x00, 0x00, 0x04, 0x00, 0x00, 0x00,
  0xff, 0xff, 0xff, 0xff, 0x01, 0x00, 0x00, 0x00, 0x96, 0x00, 0x00, 0x00,
  0x10, 0x00, 0x00, 0x00, 0xa4, 0xe8, 0xff, 0xff, 0x08, 0x00, 0x00, 0x00,
  0x14, 0x00, 0x00, 0x00, 0x01, 0x00, 0x00, 0x00, 0xa3, 0xff, 0xff, 0xff,
  0xff, 0xff, 0xff, 0xff, 0x00, 0x00, 0x00, 0x00, 0x01, 0x00, 0x00, 0x00,
  0x8c, 0xfc, 0xa3, 0x3c, 0x31, 0x00, 0x00, 0x00, 0x66, 0x75, 0x6e, 0x63,
  0x74, 0x69, 0x6f, 0x6e, 0x61, 0x6c, 0x5f, 0x31, 0x2f, 0x6d, 0x61, 0x78,
  0x5f, 0x70, 0x6f, 0x6f, 0x6c, 0x69, 0x6e, 0x67, 0x31, 0x64, 0x5f, 0x31,
  0x2f, 0x4d, 0x61, 0x78, 0x50, 0x6f, 0x6f, 0x6c, 0x31, 0x64, 0x2f, 0x45,
  0x78, 0x70, 0x61, 0x6e, 0x64, 0x44, 0x69, 0x6d, 0x73, 0x00, 0x00, 0x00,
  0x04, 0x00, 0x00, 0x00, 0x01, 0x00, 0x00, 0x00, 0x01, 0x00, 0x00, 0x00,
  0x96, 0x00, 0x00, 0x00, 0x10, 0x00, 0x00, 0x00, 0x5a, 0xe9, 0xff, 0xff,
  0x00, 0x00, 0x00, 0x01, 0x18, 0x00, 0x00, 0x00, 0x24, 0x00, 0x00, 0x00,
  0x44, 0x00, 0x00, 0x00, 0x1c, 0x00, 0x00, 0x00, 0x00, 0x00, 0x00, 0x09,
  0x88, 0x01, 0x00, 0x00, 0x03, 0x00, 0x00, 0x00, 0xff, 0xff, 0xff, 0xff,
  0x96, 0x00, 0x00, 0x00, 0x10, 0x00, 0x00, 0x00, 0x44, 0xe9, 0xff, 0xff,
  0x08, 0x00, 0x00, 0x00, 0x14, 0x00, 0x00, 0x00, 0x01, 0x00, 0x00, 0x00,
  0xa3, 0xff, 0xff, 0xff, 0xff, 0xff, 0xff, 0xff, 0x00, 0x00, 0x00, 0x00,
  0x01, 0x00, 0x00, 0x00, 0x8c, 0xfc, 0xa3, 0x3c, 0x49, 0x01, 0x00, 0x00,
  0x66, 0x75, 0x6e, 0x63, 0x74, 0x69, 0x6f, 0x6e, 0x61, 0x6c, 0x5f, 0x31,
  0x2f, 0x62, 0x61, 0x74, 0x63, 0x68, 0x5f, 0x6e, 0x6f, 0x72, 0x6d, 0x61,
  0x6c, 0x69, 0x7a, 0x61, 0x74, 0x69, 0x6f, 0x6e, 0x5f, 0x31, 0x2f, 0x62,
  0x61, 0x74, 0x63, 0x68, 0x6e, 0x6f, 0x72, 0x6d, 0x2f, 0x61, 0x64, 0x64,
  0x5f, 0x31, 0x3b, 0x66, 0x75, 0x6e, 0x63, 0x74, 0x69, 0x6f, 0x6e, 0x61,
  0x6c, 0x5f, 0x31, 0x2f, 0x63, 0x6f, 0x6e, 0x76, 0x31, 0x64, 0x5f, 0x31,
  0x2f, 0x63, 0x6f, 0x6e, 0x76, 0x6f, 0x6c, 0x75, 0x74, 0x69, 0x6f, 0x6e,
  0x2f, 0x53, 0x71, 0x75, 0x65, 0x65, 0x7a, 0x65, 0x3b, 0x66, 0x75, 0x6e,
  0x63, 0x74, 0x69, 0x6f, 0x6e, 0x61, 0x6c, 0x5f, 0x31, 0x2f, 0x62, 0x61,
  0x74, 0x63, 0x68, 0x5f, 0x6e, 0x6f, 0x72, 0x6d, 0x61, 0x6c, 0x69, 0x7a,
  0x61, 0x74, 0x69, 0x6f, 0x6e, 0x5f, 0x31, 0x2f, 0x62, 0x61, 0x74, 0x63,
  0x68, 0x6e, 0x6f, 0x72, 0x6d, 0x2f, 0x6d, 0x75, 0x6c, 0x5f, 0x31, 0x3b,
  0x66, 0x75, 0x6e, 0x63, 0x74, 0x69, 0x6f, 0x6e, 0x61, 0x6c, 0x5f, 0x31,
  0x2f, 0x63, 0x6f, 0x6e, 0x76, 0x31, 0x64, 0x5f, 0x31, 0x2f, 0x52, 0x65,
  0x6c, 0x75, 0x3b, 0x66, 0x75, 0x6e, 0x63, 0x74, 0x69, 0x6f, 0x6e, 0x61,
  0x6c, 0x5f, 0x31, 0x2f, 0x63, 0x6f, 0x6e, 0x76, 0x31, 0x64, 0x5f, 0x31,
  0x2f, 0x42, 0x69, 0x61, 0x73, 0x41, 0x64, 0x64, 0x3b, 0x66, 0x75, 0x6e,
  0x63, 0x74, 0x69, 0x6f, 0x6e, 0x61, 0x6c, 0x5f, 0x31, 0x2f, 0x63, 0x6f,
  0x6e, 0x76, 0x31, 0x64, 0x5f, 0x31, 0x2f, 0x53, 0x71, 0x75, 0x65, 0x65,
  0x7a, 0x65, 0x3b, 0x66, 0x75, 0x6e, 0x63, 0x74, 0x69, 0x6f, 0x6e, 0x61,
  0x6c, 0x5f, 0x31, 0x2f, 0x62, 0x61, 0x74, 0x63, 0x68, 0x5f, 0x6e, 0x6f,
  0x72, 0x6d, 0x61, 0x6c, 0x69, 0x7a, 0x61, 0x74, 0x69, 0x6f, 0x6e, 0x5f,
  0x31, 0x2f, 0x62, 0x61, 0x74, 0x63, 0x68, 0x6e, 0x6f, 0x72, 0x6d, 0x2f,
  0x6d, 0x75, 0x6c, 0x3b, 0x66, 0x75, 0x6e, 0x63, 0x74, 0x69, 0x6f, 0x6e,
  0x61, 0x6c, 0x5f, 0x31, 0x2f, 0x62, 0x61, 0x74, 0x63, 0x68, 0x5f, 0x6e,
  0x6f, 0x72, 0x6d, 0x61, 0x6c, 0x69, 0x7a, 0x61, 0x74, 0x69, 0x6f, 0x6e,
  0x5f, 0x31, 0x2f, 0x62, 0x61, 0x74, 0x63, 0x68, 0x6e, 0x6f, 0x72, 0x6d,
  0x2f, 0x73, 0x75, 0x62, 0x31, 0x00, 0x00, 0x00, 0x03, 0x00, 0x00, 0x00,
  0x01, 0x00, 0x00, 0x00, 0x96, 0x00, 0x00, 0x00, 0x10, 0x00, 0x00, 0x00,
  0x0e, 0xeb, 0xff, 0xff, 0x00, 0x00, 0x00, 0x01, 0x18, 0x00, 0x00, 0x00,
  0x28, 0x00, 0x00, 0x00, 0x44, 0x00, 0x00, 0x00, 0x1b, 0x00, 0x00, 0x00,
  0x00, 0x00, 0x00, 0x09, 0x88, 0x01, 0x00, 0x00, 0x04, 0x00, 0x00, 0x00,
  0xff, 0xff, 0xff, 0xff, 0x01, 0x00, 0x00, 0x00, 0x96, 0x00, 0x00, 0x00,
  0x10, 0x00, 0x00, 0x00, 0xfc, 0xea, 0xff, 0xff, 0x08, 0x00, 0x00, 0x00,
  0x10, 0x00, 0x00, 0x00, 0x01, 0x00, 0x00, 0x00, 0xa3, 0xff, 0xff, 0xff,
  0xff, 0xff, 0xff, 0xff, 0x01, 0x00, 0x00, 0x00, 0x8c, 0xfc, 0xa3, 0x3c,
  0x48, 0x01, 0x00, 0x00, 0x66, 0x75, 0x6e, 0x63, 0x74, 0x69, 0x6f, 0x6e,
  0x61, 0x6c, 0x5f, 0x31, 0x2f, 0x62, 0x61, 0x74, 0x63, 0x68, 0x5f, 0x6e,
  0x6f, 0x72, 0x6d, 0x61, 0x6c, 0x69, 0x7a, 0x61, 0x74, 0x69, 0x6f, 0x6e,
  0x5f, 0x31, 0x2f, 0x62, 0x61, 0x74, 0x63, 0x68, 0x6e, 0x6f, 0x72, 0x6d,
  0x2f, 0x61, 0x64, 0x64, 0x5f, 0x31, 0x3b, 0x66, 0x75, 0x6e, 0x63, 0x74,
  0x69, 0x6f, 0x6e, 0x61, 0x6c, 0x5f, 0x31, 0x2f, 0x63, 0x6f, 0x6e, 0x76,
  0x31, 0x64, 0x5f, 0x31, 0x2f, 0x63, 0x6f, 0x6e, 0x76, 0x6f, 0x6c, 0x75,
  0x74, 0x69, 0x6f, 0x6e, 0x2f, 0x53, 0x71, 0x75, 0x65, 0x65, 0x7a, 0x65,
  0x3b, 0x66, 0x75, 0x6e, 0x63, 0x74, 0x69, 0x6f, 0x6e, 0x61, 0x6c, 0x5f,
  0x31, 0x2f, 0x62, 0x61, 0x74, 0x63, 0x68, 0x5f, 0x6e, 0x6f, 0x72, 0x6d,
  0x61, 0x6c, 0x69, 0x7a, 0x61, 0x74, 0x69, 0x6f, 0x6e, 0x5f, 0x31, 0x2f,
  0x62, 0x61, 0x74, 0x63, 0x68, 0x6e, 0x6f, 0x72, 0x6d, 0x2f, 0x6d, 0x75,
  0x6c, 0x5f, 0x31, 0x3b, 0x66, 0x75, 0x6e, 0x63, 0x74, 0x69, 0x6f, 0x6e,
  0x61, 0x6c, 0x5f, 0x31, 0x2f, 0x63, 0x6f, 0x6e, 0x76, 0x31, 0x64, 0x5f,
  0x31, 0x2f, 0x52, 0x65, 0x6c, 0x75, 0x3b, 0x66, 0x75, 0x6e, 0x63, 0x74,
  0x69, 0x6f, 0x6e, 0x61, 0x6c, 0x5f, 0x31, 0x2f, 0x63, 0x6f, 0x6e, 0x76,
  0x31, 0x64, 0x5f, 0x31, 0x2f, 0x42, 0x69, 0x61, 0x73, 0x41, 0x64, 0x64,
  0x3b, 0x66, 0x75, 0x6e, 0x63, 0x74, 0x69, 0x6f, 0x6e, 0x61, 0x6c, 0x5f,
  0x31, 0x2f, 0x63, 0x6f, 0x6e, 0x76, 0x31, 0x64, 0x5f, 0x31, 0x2f, 0x53,
  0x71, 0x75, 0x65, 0x65, 0x7a, 0x65, 0x3b, 0x66, 0x75, 0x6e, 0x63, 0x74,
  0x69, 0x6f, 0x6e, 0x61, 0x6c, 0x5f, 0x31, 0x2f, 0x62, 0x61, 0x74, 0x63,
  0x68, 0x5f, 0x6e, 0x6f, 0x72, 0x6d, 0x61, 0x6c, 0x69, 0x7a, 0x61, 0x74,
  0x69, 0x6f, 0x6e, 0x5f, 0x31, 0x2f, 0x62, 0x61, 0x74, 0x63, 0x68, 0x6e,
  0x6f, 0x72, 0x6d, 0x2f, 0x6d, 0x75, 0x6c, 0x3b, 0x66, 0x75, 0x6e, 0x63,
  0x74, 0x69, 0x6f, 0x6e, 0x61, 0x6c, 0x5f, 0x31, 0x2f, 0x62, 0x61, 0x74,
  0x63, 0x68, 0x5f, 0x6e, 0x6f, 0x72, 0x6d, 0x61, 0x6c, 0x69, 0x7a, 0x61,
  0x74, 0x69, 0x6f, 0x6e, 0x5f, 0x31, 0x2f, 0x62, 0x61, 0x74, 0x63, 0x68,
  0x6e, 0x6f, 0x72, 0x6d, 0x2f, 0x73, 0x75, 0x62, 0x00, 0x00, 0x00, 0x00,
  0x04, 0x00, 0x00, 0x00, 0x01, 0x00, 0x00, 0x00, 0x01, 0x00, 0x00, 0x00,
  0x96, 0x00, 0x00, 0x00, 0x10, 0x00, 0x00, 0x00, 0xc6, 0xec, 0xff, 0xff,
  0x00, 0x00, 0x00, 0x01, 0x18, 0x00, 0x00, 0x00, 0x28, 0x00, 0x00, 0x00,
  0x48, 0x00, 0x00, 0x00, 0x1a, 0x00, 0x00, 0x00, 0x00, 0x00, 0x00, 0x09,
  0x28, 0x01, 0x00, 0x00, 0x04, 0x00, 0x00, 0x00, 0xff, 0xff, 0xff, 0xff,
  0x01, 0x00, 0x00, 0x00, 0x96, 0x00, 0x00, 0x00, 0x10, 0x00, 0x00, 0x00,
  0xb4, 0xec, 0xff, 0xff, 0x08, 0x00, 0x00, 0x00, 0x14, 0x00, 0x00, 0x00,
  0x01, 0x00, 0x00, 0x00, 0xa0, 0xff, 0xff, 0xff, 0xff, 0xff, 0xff, 0xff,
  0x00, 0x00, 0x00, 0x00, 0x01, 0x00, 0x00, 0x00, 0xde, 0xd5, 0xb6, 0x3c,
  0xe4, 0x00, 0x00, 0x00, 0x66, 0x75, 0x6e, 0x63, 0x74, 0x69, 0x6f, 0x6e,
  0x61, 0x6c, 0x5f, 0x31, 0x2f, 0x62, 0x61, 0x74, 0x63, 0x68, 0x5f, 0x6e,
  0x6f, 0x72, 0x6d, 0x61, 0x6c, 0x69, 0x7a, 0x61, 0x74, 0x69, 0x6f, 0x6e,
  0x5f, 0x31, 0x2f, 0x62, 0x61, 0x74, 0x63, 0x68, 0x6e, 0x6f, 0x72, 0x6d,
  0x2f, 0x6d, 0x75, 0x6c, 0x5f, 0x31, 0x3b, 0x66, 0x75, 0x6e, 0x63, 0x74,
  0x69, 0x6f, 0x6e, 0x61, 0x6c, 0x5f, 0x31, 0x2f, 0x63, 0x6f, 0x6e, 0x76,
  0x31, 0x64, 0x5f, 0x31, 0x2f, 0x63, 0x6f, 0x6e, 0x76, 0x6f, 0x6c, 0x75,
  0x74, 0x69, 0x6f, 0x6e, 0x2f, 0x53, 0x71, 0x75, 0x65, 0x65, 0x7a, 0x65,
  0x3b, 0x66, 0x75, 0x6e, 0x63, 0x74, 0x69, 0x6f, 0x6e, 0x61, 0x6c, 0x5f,
  0x31, 0x2f, 0x63, 0x6f, 0x6e, 0x76, 0x31, 0x64, 0x5f, 0x31, 0x2f, 0x52,
  0x65, 0x6c, 0x75, 0x3b, 0x66, 0x75, 0x6e, 0x63, 0x74, 0x69, 0x6f, 0x6e,
  0x61, 0x6c, 0x5f, 0x31, 0x2f, 0x63, 0x6f, 0x6e, 0x76, 0x31, 0x64, 0x5f,
  0x31, 0x2f, 0x42, 0x69, 0x61, 0x73, 0x41, 0x64, 0x64, 0x3b, 0x66, 0x75,
  0x6e, 0x63, 0x74, 0x69, 0x6f, 0x6e, 0x61, 0x6c, 0x5f, 0x31, 0x2f, 0x63,
  0x6f, 0x6e, 0x76, 0x31, 0x64, 0x5f, 0x31, 0x2f, 0x53, 0x71, 0x75, 0x65,
  0x65, 0x7a, 0x65, 0x3b, 0x66, 0x75, 0x6e, 0x63, 0x74, 0x69, 0x6f, 0x6e,
  0x61, 0x6c, 0x5f, 0x31, 0x2f, 0x62, 0x61, 0x74, 0x63, 0x68, 0x5f, 0x6e,
  0x6f, 0x72, 0x6d, 0x61, 0x6c, 0x69, 0x7a, 0x61, 0x74, 0x69, 0x6f, 0x6e,
  0x5f, 0x31, 0x2f, 0x62, 0x61, 0x74, 0x63, 0x68, 0x6e, 0x6f, 0x72, 0x6d,
  0x2f, 0x6d, 0x75, 0x6c, 0x00, 0x00, 0x00, 0x00, 0x04, 0x00, 0x00, 0x00,
  0x01, 0x00, 0x00, 0x00, 0x01, 0x00, 0x00, 0x00, 0x96, 0x00, 0x00, 0x00,
  0x10, 0x00, 0x00, 0x00, 0x1e, 0xee, 0xff, 0xff, 0x00, 0x00, 0x00, 0x01,
  0x18, 0x00, 0x00, 0x00, 0x28, 0x00, 0x00, 0x00, 0x44, 0x00, 0x00, 0x00,
  0x19, 0x00, 0x00, 0x00, 0x00, 0x00, 0x00, 0x09, 0xe0, 0x00, 0x00, 0x00,
  0x04, 0x00, 0x00, 0x00, 0xff, 0xff, 0xff, 0xff, 0x01, 0x00, 0x00, 0x00,
  0x96, 0x00, 0x00, 0x00, 0x10, 0x00, 0x00, 0x00, 0x0c, 0xee, 0xff, 0xff,
